{
  "version": "1.0",
  "truncation": null,
  "padding": null,
  "added_tokens": [
    {
      "id": 0,
      "content": "[PAD]",
      "single_word": false,
      "lstrip": false,
      "rstrip": false,
      "normalized": false,
      "special": true
    },
    {
      "id": 1,
      "content": "[UNK]",
      "single_word": false,
      "lstrip": false,
      "rstrip": false,
      "normalized": false,
      "special": true
    },
    {
      "id": 2,
      "content": "[BOS]",
      "single_word": false,
      "lstrip": false,
      "rstrip": false,
      "normalized": false,
      "special": true
    },
    {
      "id": 3,
      "content": "[EOS]",
      "single_word": false,
      "lstrip": false,
      "rstrip": false,
      "normalized": false,
      "special": true
    }
  ],
  "normalizer": null,
  "pre_tokenizer": {
    "type": "Whitespace"
  },
  "post_processor": null,
  "decoder": null,
  "model": {
    "type": "BPE",
    "dropout": null,
    "unk_token": "[UNK]",
    "continuing_subword_prefix": null,
    "end_of_word_suffix": null,
    "fuse_unk": false,
    "byte_fallback": false,
    "ignore_merges": false,
    "vocab": {
      "[PAD]": 0,
      "[UNK]": 1,
      "[BOS]": 2,
      "[EOS]": 3,
      "A": 4,
      "B": 5,
      "C": 6,
      "D": 7,
      "E": 8,
      "F": 9,
      "G": 10,
      "H": 11,
      "I": 12,
      "J": 13,
      "K": 14,
      "L": 15,
      "M": 16,
      "N": 17,
      "O": 18,
      "P": 19,
      "Q": 20,
      "R": 21,
      "S": 22,
      "T": 23,
      "U": 24,
      "V": 25,
      "W": 26,
      "X": 27,
      "Y": 28,
      "Z": 29,
      "a": 30,
      "b": 31,
      "c": 32,
      "d": 33,
      "e": 34,
      "f": 35,
      "g": 36,
      "h": 37,
      "i": 38,
      "j": 39,
      "k": 40,
      "l": 41,
      "m": 42,
      "n": 43,
      "o": 44,
      "p": 45,
      "q": 46,
      "r": 47,
      "s": 48,
      "t": 49,
      "u": 50,
      "v": 51,
      "w": 52,
      "x": 53,
      "y": 54,
      "z": 55,
      "th": 56,
      "in": 57,
      "the": 58,
      "an": 59,
      "er": 60,
      "on": 61,
      "ed": 62,
      "re": 63,
      "at": 64,
      "or": 65,
      "en": 66,
      "al": 67,
      "st": 68,
      "ar": 69,
      "of": 70,
      "and": 71,
      "as": 72,
      "es": 73,
      "ing": 74,
      "to": 75,
      "it": 76,
      "is": 77,
      "ou": 78,
      "ic": 79,
      "ion": 80,
      "he": 81,
      "ro": 82,
      "le": 83,
      "il": 84,
      "ad": 85,
      "ac": 86,
      "ent": 87,
      "se": 88,
      "am": 89,
      "ly": 90,
      "was": 91,
      "om": 92,
      "be": 93,
      "for": 94,
      "ur": 95,
      "de": 96,
      "ch": 97,
      "ol": 98,
      "The": 99,
      "ir": 100,
      "ve": 101,
      "ig": 102,
      "im": 103,
      "lo": 104,
      "un": 105,
      "ver": 106,
      "ter": 107,
      "wh": 108,
      "wi": 109,
      "ay": 110,
      "te": 111,
      "con": 112,
      "ce": 113,
      "ation": 114,
      "with": 115,
      "id": 116,
      "ct": 117,
      "ag": 118,
      "that": 119,
      "by": 120,
      "ere": 121,
      "ul": 122,
      "ap": 123,
      "us": 124,
      "ri": 125,
      "ow": 126,
      "ot": 127,
      "res": 128,
      "ain": 129,
      "et": 130,
      "el": 131,
      "ut": 132,
      "rom": 133,
      "oun": 134,
      "um": 135,
      "com": 136,
      "ers": 137,
      "pl": 138,
      "his": 139,
      "ist": 140,
      "su": 141,
      "op": 142,
      "were": 143,
      "sh": 144,
      "ab": 145,
      "all": 146,
      "mo": 147,
      "from": 148,
      "tr": 149,
      "In": 150,
      "em": 151,
      "ate": 152,
      "ther": 153,
      "ne": 154,
      "pro": 155,
      "di": 156,
      "igh": 157,
      "cl": 158,
      "are": 159,
      "pe": 160,
      "art": 161,
      "ill": 162,
      "ber": 163,
      "po": 164,
      "ong": 165,
      "ich": 166,
      "ak": 167,
      "si": 168,
      "est": 169,
      "ated": 170,
      "li": 171,
      "ity": 172,
      "ld": 173,
      "per": 174,
      "qu": 175,
      "ex": 176,
      "so": 177,
      "str": 178,
      "ort": 179,
      "ies": 180,
      "end": 181,
      "gh": 182,
      "out": 183,
      "av": 184,
      "ard": 185,
      "ast": 186,
      "had": 187,
      "ment": 188,
      "ish": 189,
      "od": 190,
      "ip": 191,
      "man": 192,
      "our": 193,
      "ian": 194,
      "ack": 195,
      "af": 196,
      "der": 197,
      "over": 198,
      "ge": 199,
      "one": 200,
      "ame": 201,
      "ear": 202,
      "ough": 203,
      "iv": 204,
      "ant": 205,
      "ound": 206,
      "tw": 207,
      "which": 208,
      "ess": 209,
      "Ch": 210,
      "ight": 211,
      "fe": 212,
      "ass": 213,
      "ial": 214,
      "act": 215,
      "not": 216,
      "ary": 217,
      "att": 218,
      "gr": 219,
      "low": 220,
      "ore": 221,
      "rit": 222,
      "ine": 223,
      "own": 224,
      "its": 225,
      "ive": 226,
      "ave": 227,
      "but": 228,
      "St": 229,
      "port": 230,
      "aw": 231,
      "ord": 232,
      "if": 233,
      "ew": 234,
      "ach": 235,
      "ev": 236,
      "He": 237,
      "ia": 238,
      "ud": 239,
      "fir": 240,
      "int": 241,
      "pr": 242,
      "ical": 243,
      "up": 244,
      "ign": 245,
      "their": 246,
      "du": 247,
      "ep": 248,
      "ould": 249,
      "ction": 250,
      "bo": 251,
      "mer": 252,
      "also": 253,
      "au": 254,
      "ous": 255,
      "vi": 256,
      "ition": 257,
      "ck": 258,
      "age": 259,
      "land": 260,
      "ork": 261,
      "ime": 262,
      "sc": 263,
      "Au": 264,
      "first": 265,
      "ted": 266,
      "ke": 267,
      "ome": 268,
      "uring": 269,
      "her": 270,
      "ll": 271,
      "ree": 272,
      "pos": 273,
      "other": 274,
      "ans": 275,
      "part": 276,
      "has": 277,
      "sp": 278,
      "two": 279,
      "off": 280,
      "br": 281,
      "ure": 282,
      "ater": 283,
      "ser": 284,
      "been": 285,
      "gu": 286,
      "cont": 287,
      "have": 288,
      "me": 289,
      "ship": 290,
      "air": 291,
      "tem": 292,
      "rec": 293,
      "pres": 294,
      "play": 295,
      "comp": 296,
      "who": 297,
      "after": 298,
      "des": 299,
      "Th": 300,
      "ran": 301,
      "ile": 302,
      "mon": 303,
      "ren": 304,
      "ph": 305,
      "ved": 306,
      "ally": 307,
      "ence": 308,
      "ts": 309,
      "form": 310,
      "this": 311,
      "bl": 312,
      "ok": 313,
      "we": 314,
      "no": 315,
      "Un": 316,
      "dis": 317,
      "tur": 318,
      "An": 319,
      "ace": 320,
      "ind": 321,
      "incl": 322,
      "It": 323,
      "iz": 324,
      "ade": 325,
      "sion": 326,
      "co": 327,
      "they": 328,
      "ark": 329,
      "ces": 330,
      "cre": 331,
      "ite": 332,
      "time": 333,
      "into": 334,
      "ance": 335,
      "ice": 336,
      "ff": 337,
      "ations": 338,
      "ss": 339,
      "year": 340,
      "cr": 341,
      "cent": 342,
      "orth": 343,
      "ail": 344,
      "ell": 345,
      "fil": 346,
      "main": 347,
      "pt": 348,
      "pre": 349,
      "ron": 350,
      "ue": 351,
      "ced": 352,
      "oc": 353,
      "comm": 354,
      "inter": 355,
      "way": 356,
      "work": 357,
      "ited": 358,
      "ult": 359,
      "Ro": 360,
      "more": 361,
      "able": 362,
      "Ar": 363,
      "ick": 364,
      "most": 365,
      "during": 366,
      "ire": 367,
      "outh": 368,
      "gan": 369,
      "includ": 370,
      "under": 371,
      "ning": 372,
      "would": 373,
      "ican": 374,
      "ever": 375,
      "old": 376,
      "rough": 377,
      "fore": 378,
      "again": 379,
      "him": 380,
      "ry": 381,
      "used": 382,
      "ased": 383,
      "ty": 384,
      "reg": 385,
      "ates": 386,
      "ory": 387,
      "fl": 388,
      "any": 389,
      "spe": 390,
      "ci": 391,
      "ward": 392,
      "ict": 393,
      "lar": 394,
      "ped": 395,
      "fin": 396,
      "cted": 397,
      "On": 398,
      "bu": 399,
      "film": 400,
      "ision": 401,
      "ason": 402,
      "og": 403,
      "bec": 404,
      "cond": 405,
      "US": 406,
      "ese": 407,
      "ie": 408,
      "head": 409,
      "arch": 410,
      "amp": 411,
      "though": 412,
      "stru": 413,
      "ase": 414,
      "No": 415,
      "she": 416,
      "les": 417,
      "arm": 418,
      "ten": 419,
      "ollow": 420,
      "Amer": 421,
      "Brit": 422,
      "ors": 423,
      "Com": 424,
      "ned": 425,
      "day": 426,
      "min": 427,
      "only": 428,
      "ents": 429,
      "new": 430,
      "ra": 431,
      "stral": 432,
      "ble": 433,
      "three": 434,
      "Austral": 435,
      "tain": 436,
      "ational": 437,
      "col": 438,
      "num": 439,
      "New": 440,
      "cess": 441,
      "red": 442,
      "ied": 443,
      "through": 444,
      "ond": 445,
      "them": 446,
      "ens": 447,
      "while": 448,
      "ered": 449,
      "sub": 450,
      "sa": 451,
      "ating": 452,
      "when": 453,
      "some": 454,
      "ton": 455,
      "ubl": 456,
      "son": 457,
      "where": 458,
      "az": 459,
      "Sh": 460,
      "een": 461,
      "ef": 462,
      "ob": 463,
      "side": 464,
      "car": 465,
      "war": 466,
      "ls": 467,
      "Al": 468,
      "ener": 469,
      "cons": 470,
      "sing": 471,
      "ang": 472,
      "buil": 473,
      "led": 474,
      "four": 475,
      "high": 476,
      "ern": 477,
      "about": 478,
      "ful": 479,
      "go": 480,
      "season": 481,
      "bum": 482,
      "mber": 483,
      "iver": 484,
      "als": 485,
      "later": 486,
      "sy": 487,
      "Af": 488,
      "ines": 489,
      "rop": 490,
      "follow": 491,
      "team": 492,
      "sup": 493,
      "than": 494,
      "Ger": 495,
      "ake": 496,
      "ft": 497,
      "sur": 498,
      "ings": 499,
      "kn": 500,
      "Re": 501,
      "many": 502,
      "atch": 503,
      "produ": 504,
      "betw": 505,
      "between": 506,
      "song": 507,
      "loc": 508,
      "cur": 509,
      "coun": 510,
      "ust": 511,
      "made": 512,
      "ions": 513,
      "album": 514,
      "row": 515,
      "ities": 516,
      "British": 517,
      "ath": 518,
      "back": 519,
      "De": 520,
      "War": 521,
      "record": 522,
      "number": 523,
      "sever": 524,
      "second": 525,
      "cap": 526,
      "against": 527,
      "rele": 528,
      "game": 529,
      "Wh": 530,
      "aj": 531,
      "oup": 532,
      "before": 533,
      "cial": 534,
      "being": 535,
      "overn": 536,
      "orld": 537,
      "dr": 538,
      "uary": 539,
      "char": 540,
      "ann": 541,
      "city": 542,
      "mem": 543,
      "Be": 544,
      "At": 545,
      "Jo": 546,
      "use": 547,
      "oper": 548,
      "try": 549,
      "mi": 550,
      "ank": 551,
      "gy": 552,
      "cho": 553,
      "ero": 554,
      "ik": 555,
      "well": 556,
      "sel": 557,
      "American": 558,
      "ross": 559,
      "there": 560,
      "ters": 561,
      "contin": 562,
      "ele": 563,
      "ular": 564,
      "As": 565,
      "mis": 566,
      "Man": 567,
      "gun": 568,
      "nam": 569,
      "ual": 570,
      "then": 571,
      "fer": 572,
      "my": 573,
      "mil": 574,
      "je": 575,
      "attack": 576,
      "May": 577,
      "batt": 578,
      "down": 579,
      "iel": 580,
      "view": 581,
      "several": 582,
      "west": 583,
      "rel": 584,
      "apan": 585,
      "feat": 586,
      "Japan": 587,
      "ince": 588,
      "add": 589,
      "appe": 590,
      "avy": 591,
      "United": 592,
      "ics": 593,
      "do": 594,
      "nar": 595,
      "pol": 596,
      "reat": 597,
      "plac": 598,
      "writ": 599,
      "eng": 600,
      "ste": 601,
      "publ": 602,
      "vol": 603,
      "known": 604,
      "Bo": 605,
      "along": 606,
      "div": 607,
      "mill": 608,
      "became": 609,
      "both": 610,
      "design": 611,
      "orm": 612,
      "ished": 613,
      "ious": 614,
      "ven": 615,
      "like": 616,
      "including": 617,
      "ek": 618,
      "point": 619,
      "This": 620,
      "dep": 621,
      "remain": 622,
      "such": 623,
      "ood": 624,
      "ru": 625,
      "ised": 626,
      "ific": 627,
      "North": 628,
      "long": 629,
      "road": 630,
      "velo": 631,
      "clo": 632,
      "order": 633,
      "began": 634,
      "rest": 635,
      "unt": 636,
      "owever": 637,
      "call": 638,
      "ins": 639,
      "ative": 640,
      "cy": 641,
      "these": 642,
      "set": 643,
      "usic": 644,
      "Australian": 645,
      "After": 646,
      "une": 647,
      "uch": 648,
      "can": 649,
      "tri": 650,
      "Le": 651,
      "km": 652,
      "ident": 653,
      "ury": 654,
      "aft": 655,
      "did": 656,
      "io": 657,
      "oute": 658,
      "could": 659,
      "met": 660,
      "ures": 661,
      "She": 662,
      "govern": 663,
      "hist": 664,
      "la": 665,
      "par": 666,
      "sign": 667,
      "years": 668,
      "appear": 669,
      "ball": 670,
      "retur": 671,
      "ask": 672,
      "gust": 673,
      "cer": 674,
      "trans": 675,
      "Col": 676,
      "lead": 677,
      "ists": 678,
      "found": 679,
      "sm": 680,
      "ide": 681,
      "continu": 682,
      "Ste": 683,
      "dec": 684,
      "develo": 685,
      "dire": 686,
      "ended": 687,
      "ships": 688,
      "comple": 689,
      "light": 690,
      "sed": 691,
      "position": 692,
      "east": 693,
      "ey": 694,
      "ower": 695,
      "med": 696,
      "ily": 697,
      "offic": 698,
      "tember": 699,
      "Sep": 700,
      "itt": 701,
      "urch": 702,
      "def": 703,
      "suc": 704,
      "igin": 705,
      "ments": 706,
      "Se": 707,
      "ause": 708,
      "September": 709,
      "line": 710,
      "Jan": 711,
      "ale": 712,
      "ames": 713,
      "German": 714,
      "pers": 715,
      "sive": 716,
      "group": 717,
      "bers": 718,
      "ho": 719,
      "men": 720,
      "said": 721,
      "En": 722,
      "cover": 723,
      "pop": 724,
      "state": 725,
      "peri": 726,
      "ield": 727,
      "rece": 728,
      "early": 729,
      "large": 730,
      "match": 731,
      "pass": 732,
      "Les": 733,
      "north": 734,
      "present": 735,
      "ple": 736,
      "Con": 737,
      "Mar": 738,
      "near": 739,
      "sk": 740,
      "self": 741,
      "ject": 742,
      "serv": 743,
      "Pol": 744,
      "ash": 745,
      "dam": 746,
      "Lesnar": 747,
      "win": 748,
      "xt": 749,
      "ise": 750,
      "ided": 751,
      "origin": 752,
      "ived": 753,
      "bed": 754,
      "Cl": 755,
      "show": 756,
      "support": 757,
      "tow": 758,
      "stri": 759,
      "ctor": 760,
      "cut": 761,
      "start": 762,
      "August": 763,
      "series": 764,
      "ib": 765,
      "around": 766,
      "plan": 767,
      "For": 768,
      "II": 769,
      "South": 770,
      "ople": 771,
      "aking": 772,
      "ajor": 773,
      "ah": 774,
      "cord": 775,
      "diff": 776,
      "June": 777,
      "god": 778,
      "small": 779,
      "ets": 780,
      "desc": 781,
      "leg": 782,
      "rist": 783,
      "thern": 784,
      "area": 785,
      "charac": 786,
      "ner": 787,
      "took": 788,
      "ose": 789,
      "iron": 790,
      "place": 791,
      "ized": 792,
      "run": 793,
      "cour": 794,
      "ith": 795,
      "por": 796,
      "ub": 797,
      "quad": 798,
      "prom": 799,
      "until": 800,
      "called": 801,
      "success": 802,
      "gest": 803,
      "eneral": 804,
      "following": 805,
      "Car": 806,
      "ones": 807,
      "now": 808,
      "ropical": 809,
      "cto": 810,
      "fan": 811,
      "crit": 812,
      "ined": 813,
      "music": 814,
      "ually": 815,
      "atter": 816,
      "Ph": 817,
      "York": 818,
      "Indi": 819,
      "Japanese": 820,
      "jo": 821,
      "adv": 822,
      "built": 823,
      "ler": 824,
      "south": 825,
      "chool": 826,
      "national": 827,
      "requ": 828,
      "ored": 829,
      "Nove": 830,
      "Sp": 831,
      "forces": 832,
      "formed": 833,
      "released": 834,
      "Octo": 835,
      "tal": 836,
      "October": 837,
      "mar": 838,
      "oot": 839,
      "six": 840,
      "ivers": 841,
      "Batt": 842,
      "Nero": 843,
      "ves": 844,
      "played": 845,
      "command": 846,
      "imes": 847,
      "open": 848,
      "November": 849,
      "ax": 850,
      "dist": 851,
      "ild": 852,
      "ung": 853,
      "top": 854,
      "Ju": 855,
      "ina": 856,
      "olog": 857,
      "appro": 858,
      "bar": 859,
      "kill": 860,
      "band": 861,
      "tolo": 862,
      "idge": 863,
      "var": 864,
      "report": 865,
      "ordan": 866,
      "Jordan": 867,
      "each": 868,
      "action": 869,
      "Sci": 870,
      "rench": 871,
      "wind": 872,
      "stem": 873,
      "included": 874,
      "pon": 875,
      "ric": 876,
      "force": 877,
      "ground": 878,
      "million": 879,
      "round": 880,
      "hel": 881,
      "ians": 882,
      "January": 883,
      "five": 884,
      "ting": 885,
      "Gu": 886,
      "dest": 887,
      "track": 888,
      "descri": 889,
      "quadron": 890,
      "sequ": 891,
      "World": 892,
      "mark": 893,
      "sol": 894,
      "aim": 895,
      "hn": 896,
      "ism": 897,
      "aged": 898,
      "ress": 899,
      "moved": 900,
      "ately": 901,
      "public": 902,
      "government": 903,
      "RA": 904,
      "fire": 905,
      "since": 906,
      "people": 907,
      "States": 908,
      "hal": 909,
      "ird": 910,
      "Scien": 911,
      "Bl": 912,
      "French": 913,
      "Tr": 914,
      "tro": 915,
      "orn": 916,
      "urther": 917,
      "ai": 918,
      "power": 919,
      "reach": 920,
      "consid": 921,
      "placed": 922,
      "just": 923,
      "os": 924,
      "ving": 925,
      "itary": 926,
      "ops": 927,
      "storm": 928,
      "wards": 929,
      "cle": 930,
      "They": 931,
      "ier": 932,
      "Christ": 933,
      "less": 934,
      "ats": 935,
      "roy": 936,
      "ility": 937,
      "class": 938,
      "craft": 939,
      "Scientolo": 940,
      "Is": 941,
      "may": 942,
      "plo": 943,
      "read": 944,
      "ired": 945,
      "even": 946,
      "build": 947,
      "same": 948,
      "constru": 949,
      "person": 950,
      "organ": 951,
      "ila": 952,
      "because": 953,
      "ret": 954,
      "ently": 955,
      "come": 956,
      "week": 957,
      "Ac": 958,
      "gl": 959,
      "allow": 960,
      "John": 961,
      "Ed": 962,
      "Route": 963,
      "ode": 964,
      "vide": 965,
      "Mc": 966,
      "soci": 967,
      "Br": 968,
      "ional": 969,
      "July": 970,
      "epis": 971,
      "single": 972,
      "nor": 973,
      "aving": 974,
      "partic": 975,
      "spec": 976,
      "Dece": 977,
      "contro": 978,
      "town": 979,
      "December": 980,
      "ae": 981,
      "fle": 982,
      "held": 983,
      "Phil": 984,
      "although": 985,
      "post": 986,
      "ought": 987,
      "received": 988,
      "Manila": 989,
      "bur": 990,
      "gen": 991,
      "val": 992,
      "attem": 993,
      "forman": 994,
      "what": 995,
      "app": 996,
      "vious": 997,
      "giv": 998,
      "lay": 999,
      "major": 1000,
      "pri": 1001,
      "ards": 1002,
      "mission": 1003,
      "continued": 1004,
      "fam": 1005,
      "sen": 1006,
      "Div": 1007,
      "Gr": 1008,
      "ather": 1009,
      "left": 1010,
      "Ad": 1011,
      "field": 1012,
      "omin": 1013,
      "hy": 1014,
      "All": 1015,
      "uro": 1016,
      "former": 1017,
      "ained": 1018,
      "due": 1019,
      "ampion": 1020,
      "Co": 1021,
      "However": 1022,
      "National": 1023,
      "mb": 1024,
      "test": 1025,
      "Apr": 1026,
      "Ang": 1027,
      "half": 1028,
      "Air": 1029,
      "ca": 1030,
      "cording": 1031,
      "April": 1032,
      "fron": 1033,
      "Church": 1034,
      "named": 1035,
      "ham": 1036,
      "won": 1037,
      "ument": 1038,
      "vent": 1039,
      "another": 1040,
      "isted": 1041,
      "aff": 1042,
      "Mo": 1043,
      "stand": 1044,
      "che": 1045,
      "ger": 1046,
      "hand": 1047,
      "ral": 1048,
      "ement": 1049,
      "Division": 1050,
      "late": 1051,
      "sim": 1052,
      "within": 1053,
      "ague": 1054,
      "posed": 1055,
      "century": 1056,
      "Australia": 1057,
      "character": 1058,
      "fantry": 1059,
      "Mer": 1060,
      "Town": 1061,
      "came": 1062,
      "flo": 1063,
      "invol": 1064,
      "ured": 1065,
      "prov": 1066,
      "members": 1067,
      "gre": 1068,
      "ange": 1069,
      "During": 1070,
      "right": 1071,
      "ys": 1072,
      "iss": 1073,
      "next": 1074,
      "fect": 1075,
      "event": 1076,
      "ically": 1077,
      "military": 1078,
      "further": 1079,
      "get": 1080,
      "home": 1081,
      "performan": 1082,
      "River": 1083,
      "cas": 1084,
      "ink": 1085,
      "episode": 1086,
      "tropical": 1087,
      "ush": 1088,
      "aircraft": 1089,
      "name": 1090,
      "final": 1091,
      "guns": 1092,
      "troops": 1093,
      "care": 1094,
      "much": 1095,
      "star": 1096,
      "ison": 1097,
      "issu": 1098,
      "aken": 1099,
      "Kore": 1100,
      "last": 1101,
      "wood": 1102,
      "previous": 1103,
      "incre": 1104,
      "ouse": 1105,
      "Fran": 1106,
      "Fe": 1107,
      "ute": 1108,
      "ica": 1109,
      "Coun": 1110,
      "bro": 1111,
      "sent": 1112,
      "school": 1113,
      "third": 1114,
      "erv": 1115,
      "ster": 1116,
      "night": 1117,
      "world": 1118,
      "enn": 1119,
      "beli": 1120,
      "claim": 1121,
      "ittle": 1122,
      "Im": 1123,
      "Mich": 1124,
      "West": 1125,
      "Bur": 1126,
      "Me": 1127,
      "ially": 1128,
      "fall": 1129,
      "hum": 1130,
      "hip": 1131,
      "sible": 1132,
      "develop": 1133,
      "ipp": 1134,
      "ctions": 1135,
      "March": 1136,
      "cast": 1137,
      "udi": 1138,
      "fort": 1139,
      "death": 1140,
      "abl": 1141,
      "ondy": 1142,
      "system": 1143,
      "General": 1144,
      "based": 1145,
      "mid": 1146,
      "ital": 1147,
      "let": 1148,
      "There": 1149,
      "vis": 1150,
      "lock": 1151,
      "By": 1152,
      "ulation": 1153,
      "tit": 1154,
      "ides": 1155,
      "City": 1156,
      "lan": 1157,
      "ness": 1158,
      "role": 1159,
      "very": 1160,
      "flu": 1161,
      "sou": 1162,
      "alion": 1163,
      "result": 1164,
      "ified": 1165,
      "Army": 1166,
      "addition": 1167,
      "history": 1168,
      "put": 1169,
      "pted": 1170,
      "itch": 1171,
      "shot": 1172,
      "life": 1173,
      "month": 1174,
      "Wal": 1175,
      "fac": 1176,
      "oon": 1177,
      "rote": 1178,
      "aves": 1179,
      "spondy": 1180,
      "destroy": 1181,
      "But": 1182,
      "send": 1183,
      "und": 1184,
      "grap": 1185,
      "cross": 1186,
      "ms": 1187,
      "clad": 1188,
      "scen": 1189,
      "Scientology": 1190,
      "lim": 1191,
      "water": 1192,
      "ages": 1193,
      "few": 1194,
      "period": 1195,
      "described": 1196,
      "front": 1197,
      "cor": 1198,
      "tour": 1199,
      "using": 1200,
      "pect": 1201,
      "ants": 1202,
      "bruary": 1203,
      "February": 1204,
      "We": 1205,
      "fr": 1206,
      "pite": 1207,
      "ery": 1208,
      "aut": 1209,
      "den": 1210,
      "games": 1211,
      "tar": 1212,
      "theast": 1213,
      "strong": 1214,
      "aval": 1215,
      "away": 1216,
      "differ": 1217,
      "site": 1218,
      "ude": 1219,
      "eder": 1220,
      "iment": 1221,
      "ety": 1222,
      "bert": 1223,
      "King": 1224,
      "Rich": 1225,
      "those": 1226,
      "review": 1227,
      "still": 1228,
      "ley": 1229,
      "gods": 1230,
      "respon": 1231,
      "bre": 1232,
      "fel": 1233,
      "mand": 1234,
      "vel": 1235,
      "Can": 1236,
      "mas": 1237,
      "vision": 1238,
      "thing": 1239,
      "commun": 1240,
      "killed": 1241,
      "rap": 1242,
      "represent": 1243,
      "stit": 1244,
      "enter": 1245,
      "located": 1246,
      "battle": 1247,
      "Po": 1248,
      "gener": 1249,
      "ulu": 1250,
      "short": 1251,
      "move": 1252,
      "served": 1253,
      "These": 1254,
      "iversity": 1255,
      "San": 1256,
      "ator": 1257,
      "ature": 1258,
      "contr": 1259,
      "ending": 1260,
      "ives": 1261,
      "equ": 1262,
      "aining": 1263,
      "establ": 1264,
      "ivil": 1265,
      "original": 1266,
      "bus": 1267,
      "make": 1268,
      "ountain": 1269,
      "intulu": 1270,
      "book": 1271,
      "ways": 1272,
      "Road": 1273,
      "struct": 1274,
      "Bintulu": 1275,
      "gin": 1276,
      "ared": 1277,
      "ried": 1278,
      "days": 1279,
      "local": 1280,
      "pur": 1281,
      "yal": 1282,
      "suff": 1283,
      "ization": 1284,
      "ged": 1285,
      "mm": 1286,
      "say": 1287,
      "atic": 1288,
      "heavy": 1289,
      "idian": 1290,
      "ull": 1291,
      "akes": 1292,
      "Char": 1293,
      "successful": 1294,
      "Pe": 1295,
      "vo": 1296,
      "aul": 1297,
      "face": 1298,
      "hour": 1299,
      "rain": 1300,
      "etr": 1301,
      "comb": 1302,
      "auth": 1303,
      "augh": 1304,
      "When": 1305,
      "Philipp": 1306,
      "Lo": 1307,
      "camp": 1308,
      "fight": 1309,
      "cept": 1310,
      "return": 1311,
      "Meridian": 1312,
      "Egy": 1313,
      "Pro": 1314,
      "With": 1315,
      "init": 1316,
      "ream": 1317,
      "alk": 1318,
      "often": 1319,
      "wide": 1320,
      "State": 1321,
      "East": 1322,
      "ling": 1323,
      "ox": 1324,
      "wrote": 1325,
      "ilar": 1326,
      "considered": 1327,
      "Am": 1328,
      "Euro": 1329,
      "Ge": 1330,
      "Har": 1331,
      "produced": 1332,
      "cing": 1333,
      "real": 1334,
      "version": 1335,
      "colle": 1336,
      "Reg": 1337,
      "draw": 1338,
      "Polish": 1339,
      "arri": 1340,
      "agre": 1341,
      "moder": 1342,
      "operations": 1343,
      "returned": 1344,
      "Europe": 1345,
      "tank": 1346,
      "ref": 1347,
      "tell": 1348,
      "ironclad": 1349,
      "video": 1350,
      "Egypt": 1351,
      "Will": 1352,
      "ps": 1353,
      "reet": 1354,
      "beh": 1355,
      "activ": 1356,
      "nospondy": 1357,
      "construction": 1358,
      "will": 1359,
      "influ": 1360,
      "itted": 1361,
      "child": 1362,
      "lost": 1363,
      "direct": 1364,
      "Pr": 1365,
      "Tik": 1366,
      "bas": 1367,
      "went": 1368,
      "best": 1369,
      "Although": 1370,
      "however": 1371,
      "iam": 1372,
      "que": 1373,
      "polit": 1374,
      "Tikal": 1375,
      "Em": 1376,
      "bor": 1377,
      "bass": 1378,
      "hold": 1379,
      "sty": 1380,
      "across": 1381,
      "ution": 1382,
      "metres": 1383,
      "Indian": 1384,
      "cir": 1385,
      "inch": 1386,
      "river": 1387,
      "never": 1388,
      "ody": 1389,
      "prim": 1390,
      "remained": 1391,
      "career": 1392,
      "AS": 1393,
      "Str": 1394,
      "having": 1395,
      "stated": 1396,
      "quar": 1397,
      "ext": 1398,
      "special": 1399,
      "fact": 1400,
      "ov": 1401,
      "omet": 1402,
      "change": 1403,
      "sug": 1404,
      "University": 1405,
      "miles": 1406,
      "close": 1407,
      "signific": 1408,
      "Or": 1409,
      "Su": 1410,
      "stat": 1411,
      "studi": 1412,
      "total": 1413,
      "seen": 1414,
      "import": 1415,
      "without": 1416,
      "histor": 1417,
      "developed": 1418,
      "reached": 1419,
      "Townsend": 1420,
      "His": 1421,
      "Te": 1422,
      "ons": 1423,
      "decl": 1424,
      "ney": 1425,
      "Squadron": 1426,
      "dom": 1427,
      "fig": 1428,
      "pair": 1429,
      "inv": 1430,
      "ched": 1431,
      "istr": 1432,
      "stead": 1433,
      "reported": 1434,
      "performance": 1435,
      "suggest": 1436,
      "Rus": 1437,
      "Comp": 1438,
      "cycl": 1439,
      "building": 1440,
      "Navy": 1441,
      "Off": 1442,
      "vict": 1443,
      "ably": 1444,
      "project": 1445,
      "Des": 1446,
      "Sc": 1447,
      "pain": 1448,
      "ination": 1449,
      "gram": 1450,
      "Head": 1451,
      "lands": 1452,
      "spir": 1453,
      "effect": 1454,
      "court": 1455,
      "given": 1456,
      "Churchill": 1457,
      "different": 1458,
      "Per": 1459,
      "ferred": 1460,
      "CA": 1461,
      "High": 1462,
      "vens": 1463,
      "rew": 1464,
      "ars": 1465,
      "board": 1466,
      "range": 1467,
      "ampionship": 1468,
      "Jack": 1469,
      "foot": 1470,
      "ium": 1471,
      "king": 1472,
      "making": 1473,
      "ze": 1474,
      "ences": 1475,
      "oung": 1476,
      "country": 1477,
      "release": 1478,
      "Stevens": 1479,
      "covered": 1480,
      "significant": 1481,
      "Cal": 1482,
      "nd": 1483,
      "ring": 1484,
      "saw": 1485,
      "ural": 1486,
      "rang": 1487,
      "every": 1488,
      "Battle": 1489,
      "particular": 1490,
      "NY": 1491,
      "na": 1492,
      "rican": 1493,
      "trad": 1494,
      "sele": 1495,
      "among": 1496,
      "ford": 1497,
      "Par": 1498,
      "ither": 1499,
      "take": 1500,
      "Infantry": 1501,
      "estim": 1502,
      "eved": 1503,
      "One": 1504,
      "fav": 1505,
      "ior": 1506,
      "pp": 1507,
      "too": 1508,
      "ille": 1509,
      "imately": 1510,
      "teen": 1511,
      "ribut": 1512,
      "player": 1513,
      "surv": 1514,
      "division": 1515,
      "soldi": 1516,
      "similar": 1517,
      "ensive": 1518,
      "section": 1519,
      "units": 1520,
      "tele": 1521,
      "family": 1522,
      "Du": 1523,
      "cup": 1524,
      "sw": 1525,
      "sit": 1526,
      "enced": 1527,
      "urt": 1528,
      "Inter": 1529,
      "prof": 1530,
      "pression": 1531,
      "And": 1532,
      "himself": 1533,
      "member": 1534,
      "Sy": 1535,
      "aver": 1536,
      "base": 1537,
      "ga": 1538,
      "iness": 1539,
      "stage": 1540,
      "ports": 1541,
      "Germany": 1542,
      "aign": 1543,
      "mph": 1544,
      "iter": 1545,
      "oman": 1546,
      "curren": 1547,
      "law": 1548,
      "rul": 1549,
      "times": 1550,
      "stone": 1551,
      "ices": 1552,
      "sure": 1553,
      "production": 1554,
      "damage": 1555,
      "County": 1556,
      "Rep": 1557,
      "indu": 1558,
      "acy": 1559,
      "seven": 1560,
      "prote": 1561,
      "Star": 1562,
      "reek": 1563,
      "relig": 1564,
      "According": 1565,
      "behind": 1566,
      "Mad": 1567,
      "Mark": 1568,
      "aid": 1569,
      "rock": 1570,
      "temnospondy": 1571,
      "Christmas": 1572,
      "modern": 1573,
      "William": 1574,
      "Hill": 1575,
      "Tw": 1576,
      "Tem": 1577,
      "gave": 1578,
      "ago": 1579,
      "ends": 1580,
      "appeared": 1581,
      "official": 1582,
      "Company": 1583,
      "Bul": 1584,
      "Ex": 1585,
      "Mal": 1586,
      "fun": 1587,
      "haw": 1588,
      "ius": 1589,
      "rad": 1590,
      "tor": 1591,
      "alth": 1592,
      "throughout": 1593,
      "subsequ": 1594,
      "announ": 1595,
      "human": 1596,
      "dol": 1597,
      "van": 1598,
      "you": 1599,
      "amb": 1600,
      "abo": 1601,
      "audi": 1602,
      "syn": 1603,
      "followed": 1604,
      "approach": 1605,
      "Fey": 1606,
      "Tur": 1607,
      "feder": 1608,
      "list": 1609,
      "pat": 1610,
      "route": 1611,
      "yed": 1612,
      "story": 1613,
      "Street": 1614,
      "crew": 1615,
      "Royal": 1616,
      "written": 1617,
      "cul": 1618,
      "gold": 1619,
      "chang": 1620,
      "sif": 1621,
      "ailed": 1622,
      "BC": 1623,
      "pitch": 1624,
      "want": 1625,
      "vest": 1626,
      "peak": 1627,
      "feet": 1628,
      "heads": 1629,
      "recorded": 1630,
      "While": 1631,
      "Oper": 1632,
      "Some": 1633,
      "case": 1634,
      "ense": 1635,
      "ester": 1636,
      "key": 1637,
      "lled": 1638,
      "company": 1639,
      "Rock": 1640,
      "America": 1641,
      "battles": 1642,
      "winds": 1643,
      "involved": 1644,
      "Dep": 1645,
      "So": 1646,
      "eight": 1647,
      "house": 1648,
      "oted": 1649,
      "died": 1650,
      "highway": 1651,
      "started": 1652,
      "Battalion": 1653,
      "Philippines": 1654,
      "Russi": 1655,
      "soldiers": 1656,
      "Mon": 1657,
      "Park": 1658,
      "fri": 1659,
      "find": 1660,
      "father": 1661,
      "hom": 1662,
      "lam": 1663,
      "mor": 1664,
      "inj": 1665,
      "atives": 1666,
      "itive": 1667,
      "bel": 1668,
      "defe": 1669,
      "coming": 1670,
      "ples": 1671,
      "earli": 1672,
      "grad": 1673,
      "region": 1674,
      "medi": 1675,
      "Angel": 1676,
      "Cor": 1677,
      "Nor": 1678,
      "To": 1679,
      "ban": 1680,
      "body": 1681,
      "cus": 1682,
      "ns": 1683,
      "ties": 1684,
      "wall": 1685,
      "ying": 1686,
      "inc": 1687,
      "ston": 1688,
      "ability": 1689,
      "evac": 1690,
      "itions": 1691,
      "compet": 1692,
      "mond": 1693,
      "development": 1694,
      "Do": 1695,
      "cal": 1696,
      "ges": 1697,
      "naval": 1698,
      "sound": 1699,
      "igan": 1700,
      "look": 1701,
      "concer": 1702,
      "need": 1703,
      "scri": 1704,
      "phoon": 1705,
      "Under": 1706,
      "counter": 1707,
      "League": 1708,
      "popular": 1709,
      "control": 1710,
      "Ne": 1711,
      "great": 1712,
      "ering": 1713,
      "ids": 1714,
      "formation": 1715,
      "cru": 1716,
      "works": 1717,
      "points": 1718,
      "joined": 1719,
      "important": 1720,
      "taken": 1721,
      "island": 1722,
      "ico": 1723,
      "least": 1724,
      "ado": 1725,
      "see": 1726,
      "lying": 1727,
      "debut": 1728,
      "should": 1729,
      "clear": 1730,
      "felt": 1731,
      "AF": 1732,
      "Lond": 1733,
      "bom": 1734,
      "block": 1735,
      "ington": 1736,
      "itar": 1737,
      "chn": 1738,
      "loss": 1739,
      "ott": 1740,
      "exp": 1741,
      "anti": 1742,
      "full": 1743,
      "ordered": 1744,
      "asket": 1745,
      "graph": 1746,
      "break": 1747,
      "London": 1748,
      "Sen": 1749,
      "Year": 1750,
      "ert": 1751,
      "become": 1752,
      "deli": 1753,
      "ister": 1754,
      "boats": 1755,
      "possible": 1756,
      "include": 1757,
      "Britain": 1758,
      "decided": 1759,
      "complete": 1760,
      "population": 1761,
      "Bu": 1762,
      "civil": 1763,
      "ny": 1764,
      "pie": 1765,
      "ris": 1766,
      "ators": 1767,
      "chart": 1768,
      "condu": 1769,
      "commer": 1770,
      "odes": 1771,
      "occup": 1772,
      "ference": 1773,
      "critic": 1774,
      "title": 1775,
      "BA": 1776,
      "Cap": 1777,
      "Dr": 1778,
      "Ear": 1779,
      "Jew": 1780,
      "Lester": 1781,
      "iety": 1782,
      "uation": 1783,
      "Chin": 1784,
      "Best": 1785,
      "James": 1786,
      "Min": 1787,
      "Rh": 1788,
      "ait": 1789,
      "hit": 1790,
      "lack": 1791,
      "squadron": 1792,
      "omen": 1793,
      "cts": 1794,
      "Eng": 1795,
      "various": 1796,
      "attempt": 1797,
      "author": 1798,
      "dollar": 1799,
      "asketball": 1800,
      "pen": 1801,
      "sib": 1802,
      "noted": 1803,
      "scul": 1804,
      "police": 1805,
      "originally": 1806,
      "Span": 1807,
      "Richmond": 1808,
      "Two": 1809,
      "Her": 1810,
      "Li": 1811,
      "ael": 1812,
      "ping": 1813,
      "reen": 1814,
      "icult": 1815,
      "appoint": 1816,
      "aren": 1817,
      "pra": 1818,
      "monument": 1819,
      "thought": 1820,
      "completed": 1821,
      "service": 1822,
      "northern": 1823,
      "species": 1824,
      "Michigan": 1825,
      "campaign": 1826,
      "temnospondyls": 1827,
      "Ho": 1828,
      "dri": 1829,
      "once": 1830,
      "begin": 1831,
      "emy": 1832,
      "upon": 1833,
      "central": 1834,
      "songs": 1835,
      "rown": 1836,
      "divid": 1837,
      "host": 1838,
      "Canad": 1839,
      "Cour": 1840,
      "El": 1841,
      "Mex": 1842,
      "Mend": 1843,
      "Ty": 1844,
      "broad": 1845,
      "lines": 1846,
      "mur": 1847,
      "erry": 1848,
      "aland": 1849,
      "associ": 1850,
      "poet": 1851,
      "designed": 1852,
      "Black": 1853,
      "fleet": 1854,
      "Geor": 1855,
      "announced": 1856,
      "defeated": 1857,
      "Mendes": 1858,
      "Kers": 1859,
      "Pl": 1860,
      "Rad": 1861,
      "Son": 1862,
      "hon": 1863,
      "how": 1864,
      "ix": 1865,
      "ues": 1866,
      "entire": 1867,
      "ems": 1868,
      "areas": 1869,
      "intro": 1870,
      "mix": 1871,
      "published": 1872,
      "Force": 1873,
      "caused": 1874,
      "Korean": 1875,
      "contract": 1876,
      "Kershaw": 1877,
      "Follow": 1878,
      "Hol": 1879,
      "bon": 1880,
      "dy": 1881,
      "ories": 1882,
      "towards": 1883,
      "lot": 1884,
      "performed": 1885,
      "award": 1886,
      "press": 1887,
      "features": 1888,
      "political": 1889,
      "Port": 1890,
      "Vict": 1891,
      "ken": 1892,
      "orial": 1893,
      "stud": 1894,
      "lythe": 1895,
      "deities": 1896,
      "live": 1897,
      "tempor": 1898,
      "players": 1899,
      "center": 1900,
      "McC": 1901,
      "Spanish": 1902,
      "Following": 1903,
      "mag": 1904,
      "nel": 1905,
      "tre": 1906,
      "forced": 1907,
      "created": 1908,
      "Commission": 1909,
      "Command": 1910,
      "featured": 1911,
      "established": 1912,
      "style": 1913,
      "Bar": 1914,
      "gg": 1915,
      "ma": 1916,
      "mun": 1917,
      "era": 1918,
      "ata": 1919,
      "ising": 1920,
      "secur": 1921,
      "imp": 1922,
      "termin": 1923,
      "uments": 1924,
      "meet": 1925,
      "Ital": 1926,
      "transport": 1927,
      "southern": 1928,
      "destroyed": 1929,
      "scene": 1930,
      "Republ": 1931,
      "Little": 1932,
      "ino": 1933,
      "inst": 1934,
      "replaced": 1935,
      "sem": 1936,
      "comment": 1937,
      "abor": 1938,
      "experi": 1939,
      "estimated": 1940,
      "Day": 1941,
      "Fil": 1942,
      "mot": 1943,
      "nine": 1944,
      "ville": 1945,
      "asing": 1946,
      "hest": 1947,
      "conne": 1948,
      "lower": 1949,
      "others": 1950,
      "signed": 1951,
      "difficult": 1952,
      "television": 1953,
      "current": 1954,
      "above": 1955,
      "Chinese": 1956,
      "introdu": 1957,
      "Fu": 1958,
      "WW": 1959,
      "hib": 1960,
      "ram": 1961,
      "icted": 1962,
      "search": 1963,
      "ama": 1964,
      "ots": 1965,
      "peror": 1966,
      "events": 1967,
      "coast": 1968,
      "tained": 1969,
      "added": 1970,
      "writing": 1971,
      "Bel": 1972,
      "sum": 1973,
      "instead": 1974,
      "individ": 1975,
      "bet": 1976,
      "load": 1977,
      "training": 1978,
      "ounded": 1979,
      "igned": 1980,
      "tured": 1981,
      "coach": 1982,
      "coll": 1983,
      "good": 1984,
      "Australians": 1985,
      "damaged": 1986,
      "ready": 1987,
      "months": 1988,
      "Kingdom": 1989,
      "Blythe": 1990,
      "Creek": 1991,
      "Fin": 1992,
      "NBA": 1993,
      "born": 1994,
      "general": 1995,
      "ient": 1996,
      "sat": 1997,
      "uc": 1998,
      "ances": 1999,
      "oring": 2000,
      "process": 2001,
      "quick": 2002,
      "compan": 2003,
      "army": 2004,
      "eastern": 2005,
      "studio": 2006,
      "Award": 2007,
      "either": 2008,
      "little": 2009,
      "voc": 2010,
      "word": 2011,
      "techn": 2012,
      "program": 2013,
      "qual": 2014,
      "expl": 2015,
      "battleship": 2016,
      "Victor": 2017,
      "Miss": 2018,
      "Other": 2019,
      "UB": 2020,
      "cop": 2021,
      "don": 2022,
      "nal": 2023,
      "icated": 2024,
      "level": 2025,
      "ades": 2026,
      "depart": 2027,
      "emplo": 2028,
      "ishing": 2029,
      "China": 2030,
      "ively": 2031,
      "bridge": 2032,
      "armour": 2033,
      "particip": 2034,
      "auty": 2035,
      "Care": 2036,
      "Dan": 2037,
      "Pac": 2038,
      "fre": 2039,
      "oss": 2040,
      "uck": 2041,
      "invest": 2042,
      "unit": 2043,
      "prob": 2044,
      "pecial": 2045,
      "arty": 2046,
      "perial": 2047,
      "outside": 2048,
      "Union": 2049,
      "cret": 2050,
      "occur": 2051,
      "colon": 2052,
      "goal": 2053,
      "useum": 2054,
      "laun": 2055,
      "business": 2056,
      "structure": 2057,
      "Despite": 2058,
      "commercial": 2059,
      "Tru": 2060,
      "hous": 2061,
      "anim": 2062,
      "below": 2063,
      "image": 2064,
      "iding": 2065,
      "istic": 2066,
      "soon": 2067,
      "iving": 2068,
      "worked": 2069,
      "struck": 2070,
      "deplo": 2071,
      "opening": 2072,
      "allowed": 2073,
      "burg": 2074,
      "murder": 2075,
      "basketball": 2076,
      "dle": 2077,
      "foc": 2078,
      "mit": 2079,
      "rac": 2080,
      "whe": 2081,
      "ane": 2082,
      "almost": 2083,
      "illo": 2084,
      "det": 2085,
      "uses": 2086,
      "gue": 2087,
      "forms": 2088,
      "decision": 2089,
      "claimed": 2090,
      "hours": 2091,
      "tradition": 2092,
      "subsequently": 2093,
      "WWE": 2094,
      "Music": 2095,
      "hor": 2096,
      "ential": 2097,
      "iral": 2098,
      "resident": 2099,
      "trave": 2100,
      "gether": 2101,
      "brought": 2102,
      "rank": 2103,
      "reng": 2104,
      "carried": 2105,
      "fourth": 2106,
      "surround": 2107,
      "operation": 2108,
      "leading": 2109,
      "positions": 2110,
      "believed": 2111,
      "Butler": 2112,
      "limited": 2113,
      "Court": 2114,
      "Fir": 2115,
      "Govern": 2116,
      "La": 2117,
      "Naz": 2118,
      "got": 2119,
      "lor": 2120,
      "prec": 2121,
      "rum": 2122,
      "vill": 2123,
      "ission": 2124,
      "secut": 2125,
      "tee": 2126,
      "clif": 2127,
      "avail": 2128,
      "lling": 2129,
      "sett": 2130,
      "Operation": 2131,
      "England": 2132,
      "GA": 2133,
      "Go": 2134,
      "MA": 2135,
      "Tetr": 2136,
      "Vi": 2137,
      "You": 2138,
      "Ze": 2139,
      "fif": 2140,
      "gar": 2141,
      "alo": 2142,
      "term": 2143,
      "die": 2144,
      "exist": 2145,
      "playing": 2146,
      "interest": 2147,
      "ample": 2148,
      "appearance": 2149,
      "RAAF": 2150,
      "layer": 2151,
      "previously": 2152,
      "suffered": 2153,
      "Tetrarch": 2154,
      "Bill": 2155,
      "Gore": 2156,
      "Mountain": 2157,
      "Paul": 2158,
      "ault": 2159,
      "hur": 2160,
      "ique": 2161,
      "kil": 2162,
      "ses": 2163,
      "slow": 2164,
      "ald": 2165,
      "altar": 2166,
      "dead": 2167,
      "depression": 2168,
      "ceed": 2169,
      "illery": 2170,
      "exe": 2171,
      "Championship": 2172,
      "flight": 2173,
      "finished": 2174,
      "ogn": 2175,
      "complex": 2176,
      "ological": 2177,
      "northeast": 2178,
      "erva": 2179,
      "fighting": 2180,
      "script": 2181,
      "Bob": 2182,
      "Gi": 2183,
      "Great": 2184,
      "Hu": 2185,
      "Raj": 2186,
      "oto": 2187,
      "sal": 2188,
      "uz": 2189,
      "reve": 2190,
      "streng": 2191,
      "esh": 2192,
      "defeat": 2193,
      "idence": 2194,
      "ains": 2195,
      "common": 2196,
      "iva": 2197,
      "recogn": 2198,
      "turned": 2199,
      "Another": 2200,
      "working": 2201,
      "attacked": 2202,
      "depend": 2203,
      "request": 2204,
      "Island": 2205,
      "Wales": 2206,
      "community": 2207,
      "earlier": 2208,
      "Mexico": 2209,
      "Center": 2210,
      "Med": 2211,
      "cil": 2212,
      "date": 2213,
      "har": 2214,
      "sl": 2215,
      "vate": 2216,
      "threat": 2217,
      "reaction": 2218,
      "aters": 2219,
      "ened": 2220,
      "iting": 2221,
      "issi": 2222,
      "sex": 2223,
      "amph": 2224,
      "concl": 2225,
      "resul": 2226,
      "scored": 2227,
      "Austri": 2228,
      "despite": 2229,
      "ails": 2230,
      "critics": 2231,
      "provided": 2232,
      "arrived": 2233,
      "Jewish": 2234,
      "First": 2235,
      "Don": 2236,
      "UK": 2237,
      "dou": 2238,
      "free": 2239,
      "lin": 2240,
      "mult": 2241,
      "pil": 2242,
      "stop": 2243,
      "acc": 2244,
      "ention": 2245,
      "separ": 2246,
      "imin": 2247,
      "unk": 2248,
      "aps": 2249,
      "embass": 2250,
      "viol": 2251,
      "weight": 2252,
      "prevent": 2253,
      "largest": 2254,
      "Shiva": 2255,
      "western": 2256,
      "officers": 2257,
      "characters": 2258,
      "required": 2259,
      "Michael": 2260,
      "Regiment": 2261,
      "ricane": 2262,
      "cruis": 2263,
      "embassy": 2264,
      "Ball": 2265,
      "far": 2266,
      "ible": 2267,
      "pan": 2268,
      "ply": 2269,
      "uk": 2270,
      "uel": 2271,
      "thod": 2272,
      "reli": 2273,
      "arily": 2274,
      "conspir": 2275,
      "respect": 2276,
      "shoot": 2277,
      "ief": 2278,
      "saying": 2279,
      "tellig": 2280,
      "sculpt": 2281,
      "appointed": 2282,
      "Truj": 2283,
      "Mong": 2284,
      "Nerva": 2285,
      "ridge": 2286,
      "yl": 2287,
      "removed": 2288,
      "station": 2289,
      "cting": 2290,
      "ulf": 2291,
      "ount": 2292,
      "plat": 2293,
      "pract": 2294,
      "regular": 2295,
      "rather": 2296,
      "Alli": 2297,
      "Associ": 2298,
      "does": 2299,
      "venue": 2300,
      "closed": 2301,
      "flood": 2302,
      "initially": 2303,
      "tanks": 2304,
      "ironclads": 2305,
      "children": 2306,
      "favor": 2307,
      "profess": 2308,
      "Zealand": 2309,
      "execut": 2310,
      "Trujillo": 2311,
      "My": 2312,
      "Tim": 2313,
      "grow": 2314,
      "mater": 2315,
      "edge": 2316,
      "aled": 2317,
      "room": 2318,
      "ilities": 2319,
      "omas": 2320,
      "white": 2321,
      "artillery": 2322,
      "example": 2323,
      "ize": 2324,
      "cost": 2325,
      "azine": 2326,
      "know": 2327,
      "captured": 2328,
      "asked": 2329,
      "groups": 2330,
      "Marine": 2331,
      "commander": 2332,
      "weeks": 2333,
      "Most": 2334,
      "agreed": 2335,
      "Egyptian": 2336,
      "beginning": 2337,
      "Mongol": 2338,
      "Ma": 2339,
      "bes": 2340,
      "gres": 2341,
      "non": 2342,
      "sus": 2343,
      "sess": 2344,
      "anch": 2345,
      "together": 2346,
      "ighest": 2347,
      "proble": 2348,
      "dies": 2349,
      "artment": 2350,
      "black": 2351,
      "typhoon": 2352,
      "tons": 2353,
      "passed": 2354,
      "federal": 2355,
      "Rhodes": 2356,
      "Pacific": 2357,
      "cliffe": 2358,
      "Dav": 2359,
      "Ser": 2360,
      "highest": 2361,
      "rd": 2362,
      "ication": 2363,
      "heav": 2364,
      "deal": 2365,
      "deep": 2366,
      "immedi": 2367,
      "utes": 2368,
      "club": 2369,
      "perform": 2370,
      "strate": 2371,
      "ival": 2372,
      "intended": 2373,
      "prepar": 2374,
      "redu": 2375,
      "engine": 2376,
      "remaining": 2377,
      "III": 2378,
      "India": 2379,
      "Angle": 2380,
      "invas": 2381,
      "Scott": 2382,
      "bomb": 2383,
      "available": 2384,
      "Big": 2385,
      "Cent": 2386,
      "Hist": 2387,
      "MS": 2388,
      "Ol": 2389,
      "ben": 2390,
      "bank": 2391,
      "cause": 2392,
      "mountain": 2393,
      "pire": 2394,
      "wor": 2395,
      "yards": 2396,
      "zo": 2397,
      "err": 2398,
      "ona": 2399,
      "conom": 2400,
      "ctive": 2401,
      "abs": 2402,
      "mother": 2403,
      "pected": 2404,
      "sia": 2405,
      "meter": 2406,
      "directed": 2407,
      "Charles": 2408,
      "circ": 2409,
      "wanted": 2410,
      "Russian": 2411,
      "security": 2412,
      "Game": 2413,
      "Sch": 2414,
      "School": 2415,
      "TV": 2416,
      "ming": 2417,
      "pet": 2418,
      "sold": 2419,
      "taking": 2420,
      "via": 2421,
      "women": 2422,
      "sto": 2423,
      "icles": 2424,
      "impro": 2425,
      "idents": 2426,
      "comed": 2427,
      "stra": 2428,
      "stry": 2429,
      "manag": 2430,
      "braltar": 2431,
      "tural": 2432,
      "minute": 2433,
      "strike": 2434,
      "marked": 2435,
      "eventually": 2436,
      "Early": 2437,
      "George": 2438,
      "Gibraltar": 2439,
      "Later": 2440,
      "Mor": 2441,
      "Nak": 2442,
      "cult": 2443,
      "gas": 2444,
      "latter": 2445,
      "past": 2446,
      "pond": 2447,
      "sil": 2448,
      "wounded": 2449,
      "infantry": 2450,
      "staff": 2451,
      "adap": 2452,
      "ape": 2453,
      "aper": 2454,
      "comes": 2455,
      "quare": 2456,
      "speed": 2457,
      "ensity": 2458,
      "fully": 2459,
      "capt": 2460,
      "Beck": 2461,
      "mith": 2462,
      "Engl": 2463,
      "floor": 2464,
      "ppi": 2465,
      "religious": 2466,
      "praised": 2467,
      "Sonic": 2468,
      "Mississi": 2469,
      "English": 2470,
      "Mississippi": 2471,
      "AD": 2472,
      "Ag": 2473,
      "Ham": 2474,
      "Mil": 2475,
      "Major": 2476,
      "Qu": 2477,
      "Roman": 2478,
      "Sou": 2479,
      "drop": 2480,
      "fem": 2481,
      "think": 2482,
      "atr": 2483,
      "aring": 2484,
      "igade": 2485,
      "withdraw": 2486,
      "exten": 2487,
      "prison": 2488,
      "cred": 2489,
      "saur": 2490,
      "going": 2491,
      "Colum": 2492,
      "winning": 2493,
      "supported": 2494,
      "langu": 2495,
      "primary": 2496,
      "friend": 2497,
      "temporary": 2498,
      "telligence": 2499,
      "Beckham": 2500,
      "From": 2501,
      "Lat": 2502,
      "Long": 2503,
      "Sap": 2504,
      "nast": 2505,
      "nomin": 2506,
      "sides": 2507,
      "erous": 2508,
      "alled": 2509,
      "antic": 2510,
      "contribut": 2511,
      "pressed": 2512,
      "commission": 2513,
      "names": 2514,
      "ualties": 2515,
      "remains": 2516,
      "portr": 2517,
      "attempted": 2518,
      "prior": 2519,
      "issue": 2520,
      "increased": 2521,
      "Team": 2522,
      "Starr": 2523,
      "Department": 2524,
      "Doctor": 2525,
      "Radcliffe": 2526,
      "better": 2527,
      "investig": 2528,
      "probably": 2529,
      "CR": 2530,
      "Tour": 2531,
      "listed": 2532,
      "uals": 2533,
      "told": 2534,
      "explo": 2535,
      "anta": 2536,
      "actions": 2537,
      "keep": 2538,
      "polic": 2539,
      "director": 2540,
      "eye": 2541,
      "planned": 2542,
      "runs": 2543,
      "Carol": 2544,
      "standing": 2545,
      "brother": 2546,
      "particularly": 2547,
      "amphib": 2548,
      "Dod": 2549,
      "Hor": 2550,
      "Pop": 2551,
      "Red": 2552,
      "Work": 2553,
      "Young": 2554,
      "bad": 2555,
      "bound": 2556,
      "ded": 2557,
      "econom": 2558,
      "hu": 2559,
      "net": 2560,
      "race": 2561,
      "andon": 2562,
      "tom": 2563,
      "cemeter": 2564,
      "prop": 2565,
      "assass": 2566,
      "acted": 2567,
      "positive": 2568,
      "office": 2569,
      "archite": 2570,
      "minutes": 2571,
      "Beauty": 2572,
      "Jose": 2573,
      "Second": 2574,
      "Class": 2575,
      "Western": 2576,
      "Temple": 2577,
      "quickly": 2578,
      "material": 2579,
      "Fle": 2580,
      "Hall": 2581,
      "Kr": 2582,
      "Pen": 2583,
      "Pal": 2584,
      "Sar": 2585,
      "fast": 2586,
      "flow": 2587,
      "pal": 2588,
      "rail": 2589,
      "states": 2590,
      "according": 2591,
      "ria": 2592,
      "compl": 2593,
      "extr": 2594,
      "pred": 2595,
      "wealth": 2596,
      "mostly": 2597,
      "typ": 2598,
      "shell": 2599,
      "teams": 2600,
      "elements": 2601,
      "attacks": 2602,
      "steam": 2603,
      "course": 2604,
      "ology": 2605,
      "personal": 2606,
      "issued": 2607,
      "France": 2608,
      "International": 2609,
      "sified": 2610,
      "Sovi": 2611,
      "morning": 2612,
      "Saprang": 2613,
      "Bro": 2614,
      "Distr": 2615,
      "Four": 2616,
      "Jim": 2617,
      "aer": 2618,
      "hol": 2619,
      "phas": 2620,
      "pts": 2621,
      "atory": 2622,
      "already": 2623,
      "agan": 2624,
      "overall": 2625,
      "cient": 2626,
      "armor": 2627,
      "subject": 2628,
      "carry": 2629,
      "likely": 2630,
      "opened": 2631,
      "schools": 2632,
      "stitut": 2633,
      "quarters": 2634,
      "Carey": 2635,
      "David": 2636,
      "District": 2637,
      "Ab": 2638,
      "Gold": 2639,
      "Hung": 2640,
      "Rick": 2641,
      "Wil": 2642,
      "bi": 2643,
      "bri": 2644,
      "hi": 2645,
      "hill": 2646,
      "hard": 2647,
      "happ": 2648,
      "liter": 2649,
      "purch": 2650,
      "tic": 2651,
      "ximately": 2652,
      "stant": 2653,
      "defin": 2654,
      "wife": 2655,
      "respond": 2656,
      "shown": 2657,
      "illa": 2658,
      "evol": 2659,
      "print": 2660,
      "discovered": 2661,
      "pedo": 2662,
      "films": 2663,
      "submar": 2664,
      "promin": 2665,
      "activities": 2666,
      "inches": 2667,
      "figure": 2668,
      "Lore": 2669,
      "NA": 2670,
      "Ten": 2671,
      "Val": 2672,
      "rout": 2673,
      "san": 2674,
      "sch": 2675,
      "thick": 2676,
      "ana": 2677,
      "anced": 2678,
      "ony": 2679,
      "enough": 2680,
      "tomb": 2681,
      "oul": 2682,
      "adop": 2683,
      "amar": 2684,
      "bell": 2685,
      "imum": 2686,
      "terms": 2687,
      "necess": 2688,
      "active": 2689,
      "spital": 2690,
      "guitar": 2691,
      "meas": 2692,
      "weap": 2693,
      "interview": 2694,
      "armed": 2695,
      "minor": 2696,
      "transferred": 2697,
      "officer": 2698,
      "Sea": 2699,
      "faced": 2700,
      "equip": 2701,
      "football": 2702,
      "radio": 2703,
      "torpedo": 2704,
      "patro": 2705,
      "ossal": 2706,
      "Association": 2707,
      "invasion": 2708,
      "Dev": 2709,
      "Mem": 2710,
      "bal": 2711,
      "leng": 2712,
      "mp": 2713,
      "ug": 2714,
      "young": 2715,
      "rem": 2716,
      "step": 2717,
      "stones": 2718,
      "itself": 2719,
      "isl": 2720,
      "lyr": 2721,
      "conf": 2722,
      "abandon": 2723,
      "mocr": 2724,
      "offered": 2725,
      "That": 2726,
      "larger": 2727,
      "elect": 2728,
      "battalion": 2729,
      "ski": 2730,
      "advance": 2731,
      "help": 2732,
      "personnel": 2733,
      "casualties": 2734,
      "broken": 2735,
      "Imag": 2736,
      "scenes": 2737,
      "rapid": 2738,
      "average": 2739,
      "sibility": 2740,
      "Rajne": 2741,
      "language": 2742,
      "Mid": 2743,
      "Serv": 2744,
      "pot": 2745,
      "slight": 2746,
      "rein": 2747,
      "reason": 2748,
      "repair": 2749,
      "ency": 2750,
      "lear": 2751,
      "ador": 2752,
      "sea": 2753,
      "suit": 2754,
      "emer": 2755,
      "size": 2756,
      "exam": 2757,
      "aven": 2758,
      "imeter": 2759,
      "mean": 2760,
      "weaken": 2761,
      "carri": 2762,
      "atively": 2763,
      "private": 2764,
      "increasing": 2765,
      "Imperial": 2766,
      "aughter": 2767,
      "ometimes": 2768,
      "Senate": 2769,
      "battleships": 2770,
      "FC": 2771,
      "Natives": 2772,
      "dark": 2773,
      "flying": 2774,
      "moun": 2775,
      "might": 2776,
      "mach": 2777,
      "pay": 2778,
      "pow": 2779,
      "revol": 2780,
      "ena": 2781,
      "itz": 2782,
      "acon": 2783,
      "entered": 2784,
      "usion": 2785,
      "aker": 2786,
      "uded": 2787,
      "intensity": 2788,
      "parts": 2789,
      "Thomas": 2790,
      "ranch": 2791,
      "location": 2792,
      "metal": 2793,
      "Group": 2794,
      "reviews": 2795,
      "movement": 2796,
      "deliver": 2797,
      "Republic": 2798,
      "hurricane": 2799,
      "Joseph": 2800,
      "Loren": 2801,
      "Def": 2802,
      "Mat": 2803,
      "Sing": 2804,
      "bot": 2805,
      "border": 2806,
      "jour": 2807,
      "jud": 2808,
      "miral": 2809,
      "spo": 2810,
      "ta": 2811,
      "tion": 2812,
      "tong": 2813,
      "watch": 2814,
      "educ": 2815,
      "aries": 2816,
      "oud": 2817,
      "forward": 2818,
      "ula": 2819,
      "oney": 2820,
      "graf": 2821,
      "portion": 2822,
      "screen": 2823,
      "whose": 2824,
      "type": 2825,
      "Common": 2826,
      "writer": 2827,
      "nearly": 2828,
      "Club": 2829,
      "constructed": 2830,
      "Koreans": 2831,
      "response": 2832,
      "alky": 2833,
      "selected": 2834,
      "associated": 2835,
      "Italian": 2836,
      "resulted": 2837,
      "Act": 2838,
      "Ali": 2839,
      "Met": 2840,
      "Tri": 2841,
      "bour": 2842,
      "dig": 2843,
      "failed": 2844,
      "hab": 2845,
      "onto": 2846,
      "alter": 2847,
      "always": 2848,
      "itors": 2849,
      "chall": 2850,
      "irid": 2851,
      "conver": 2852,
      "els": 2853,
      "clas": 2854,
      "lif": 2855,
      "exc": 2856,
      "mec": 2857,
      "international": 2858,
      "Arj": 2859,
      "sons": 2860,
      "effort": 2861,
      "suppl": 2862,
      "governor": 2863,
      "idea": 2864,
      "itting": 2865,
      "matches": 2866,
      "shows": 2867,
      "Eddie": 2868,
      "southeast": 2869,
      "responsible": 2870,
      "Empire": 2871,
      "victory": 2872,
      "Malay": 2873,
      "concert": 2874,
      "McCarty": 2875,
      "length": 2876,
      "Awards": 2877,
      "Ben": 2878,
      "Cro": 2879,
      "Fort": 2880,
      "Furt": 2881,
      "Hit": 2882,
      "Iron": 2883,
      "JMA": 2884,
      "Mir": 2885,
      "Mart": 2886,
      "NL": 2887,
      "Pri": 2888,
      "Que": 2889,
      "Sun": 2890,
      "domin": 2891,
      "ha": 2892,
      "treat": 2893,
      "reme": 2894,
      "alle": 2895,
      "ande": 2896,
      "demon": 2897,
      "conve": 2898,
      "aging": 2899,
      "trade": 2900,
      "exhib": 2901,
      "ministr": 2902,
      "consisted": 2903,
      "Atl": 2904,
      "stein": 2905,
      "designated": 2906,
      "ification": 2907,
      "certain": 2908,
      "Colle": 2909,
      "passing": 2910,
      "consider": 2911,
      "organization": 2912,
      "performances": 2913,
      "generally": 2914,
      "cyclone": 2915,
      "Markgraf": 2916,
      "Billboard": 2917,
      "Latin": 2918,
      "Furtado": 2919,
      "Ay": 2920,
      "Dar": 2921,
      "Lie": 2922,
      "President": 2923,
      "Sw": 2924,
      "Wash": 2925,
      "fell": 2926,
      "ray": 2927,
      "inning": 2928,
      "asy": 2929,
      "acce": 2930,
      "acqu": 2931,
      "beat": 2932,
      "olay": 2933,
      "conv": 2934,
      "atest": 2935,
      "berg": 2936,
      "except": 2937,
      "aster": 2938,
      "fired": 2939,
      "landing": 2940,
      "guard": 2941,
      "novel": 2942,
      "regard": 2943,
      "Sholay": 2944,
      "consist": 2945,
      "count": 2946,
      "capital": 2947,
      "divided": 2948,
      "approximately": 2949,
      "Blue": 2950,
      "combined": 2951,
      "influence": 2952,
      "occurred": 2953,
      "launched": 2954,
      "strength": 2955,
      "immediately": 2956,
      "Olmec": 2957,
      "Fleet": 2958,
      "Arjona": 2959,
      "Washington": 2960,
      "Dire": 2961,
      "Smith": 2962,
      "Tor": 2963,
      "dress": 2964,
      "drew": 2965,
      "oke": 2966,
      "sometimes": 2967,
      "viron": 2968,
      "aton": 2969,
      "alleg": 2970,
      "stream": 2971,
      "leve": 2972,
      "becoming": 2973,
      "cham": 2974,
      "emperor": 2975,
      "protest": 2976,
      "assist": 2977,
      "aware": 2978,
      "photo": 2979,
      "turn": 2980,
      "commit": 2981,
      "Art": 2982,
      "alongside": 2983,
      "tries": 2984,
      "running": 2985,
      "tracks": 2986,
      "Scientolog": 2987,
      "majority": 2988,
      "Admiral": 2989,
      "wooden": 2990,
      "status": 2991,
      "sculpture": 2992,
      "brief": 2993,
      "House": 2994,
      "Je": 2995,
      "Many": 2996,
      "Rif": 2997,
      "Since": 2998,
      "bill": 2999,
      "coup": 3000,
      "mass": 3001,
      "pick": 3002,
      "rear": 3003,
      "arrest": 3004,
      "touch": 3005,
      "league": 3006,
      "vement": 3007,
      "tel": 3008,
      "provide": 3009,
      "sole": 3010,
      "assigned": 3011,
      "achi": 3012,
      "Through": 3013,
      "arms": 3014,
      "feature": 3015,
      "continues": 3016,
      "rica": 3017,
      "plot": 3018,
      "allowing": 3019,
      "Frank": 3020,
      "represented": 3021,
      "aught": 3022,
      "figures": 3023,
      "ranked": 3024,
      "comedy": 3025,
      "Bond": 3026,
      "Civil": 3027,
      "Ke": 3028,
      "Os": 3029,
      "Sur": 3030,
      "Up": 3031,
      "Var": 3032,
      "Valky": 3033,
      "cern": 3034,
      "crow": 3035,
      "frequ": 3036,
      "give": 3037,
      "iation": 3038,
      "kes": 3039,
      "mouth": 3040,
      "mitted": 3041,
      "patter": 3042,
      "sour": 3043,
      "thus": 3044,
      "replac": 3045,
      "enemy": 3046,
      "stro": 3047,
      "leaving": 3048,
      "text": 3049,
      "confl": 3050,
      "evidence": 3051,
      "Heavy": 3052,
      "scoring": 3053,
      "flank": 3054,
      "finally": 3055,
      "Record": 3056,
      "election": 3057,
      "steel": 3058,
      "Stein": 3059,
      "northwest": 3060,
      "join": 3061,
      "ushed": 3062,
      "additional": 3063,
      "European": 3064,
      "quarter": 3065,
      "suggested": 3066,
      "Office": 3067,
      "Corps": 3068,
      "magazine": 3069,
      "Victoria": 3070,
      "village": 3071,
      "Allied": 3072,
      "professional": 3073,
      "Central": 3074,
      "Soviet": 3075,
      "lyrics": 3076,
      "Rajneesh": 3077,
      "Lorenzo": 3078,
      "Avenue": 3079,
      "Gen": 3080,
      "Lou": 3081,
      "Over": 3082,
      "Pre": 3083,
      "UFC": 3084,
      "cis": 3085,
      "hop": 3086,
      "sched": 3087,
      "erve": 3088,
      "refle": 3089,
      "referred": 3090,
      "arian": 3091,
      "icle": 3092,
      "deck": 3093,
      "usually": 3094,
      "proper": 3095,
      "enders": 3096,
      "ify": 3097,
      "boat": 3098,
      "numbers": 3099,
      "Shik": 3100,
      "object": 3101,
      "highly": 3102,
      "Africa": 3103,
      "relation": 3104,
      "smaller": 3105,
      "rainfall": 3106,
      "changes": 3107,
      "mixed": 3108,
      "sembl": 3109,
      "kilomet": 3110,
      "architect": 3111,
      "schol": 3112,
      "Bacon": 3113,
      "Light": 3114,
      "Museum": 3115,
      "OT": 3116,
      "Sup": 3117,
      "Soc": 3118,
      "Tropical": 3119,
      "dro": 3120,
      "gers": 3121,
      "nation": 3122,
      "sail": 3123,
      "atural": 3124,
      "environ": 3125,
      "aly": 3126,
      "access": 3127,
      "whom": 3128,
      "iday": 3129,
      "otes": 3130,
      "mode": 3131,
      "eman": 3132,
      "pose": 3133,
      "eway": 3134,
      "spent": 3135,
      "ultimately": 3136,
      "Arch": 3137,
      "raised": 3138,
      "Clark": 3139,
      "critical": 3140,
      "Christian": 3141,
      "apping": 3142,
      "giving": 3143,
      "middle": 3144,
      "combat": 3145,
      "refused": 3146,
      "Bulls": 3147,
      "audience": 3148,
      "arent": 3149,
      "Canada": 3150,
      "Ricky": 3151,
      "Cr": 3152,
      "Camp": 3153,
      "Dream": 3154,
      "Derry": 3155,
      "Ver": 3156,
      "cm": 3157,
      "cam": 3158,
      "fans": 3159,
      "ks": 3160,
      "rup": 3161,
      "enant": 3162,
      "escap": 3163,
      "toward": 3164,
      "umn": 3165,
      "umed": 3166,
      "ership": 3167,
      "plant": 3168,
      "super": 3169,
      "moving": 3170,
      "emed": 3171,
      "expected": 3172,
      "Stone": 3173,
      "party": 3174,
      "serious": 3175,
      "pressure": 3176,
      "indic": 3177,
      "occas": 3178,
      "underground": 3179,
      "conditions": 3180,
      "recording": 3181,
      "selves": 3182,
      "Both": 3183,
      "Book": 3184,
      "distin": 3185,
      "Acad": 3186,
      "Brigade": 3187,
      "crossing": 3188,
      "establish": 3189,
      "companies": 3190,
      "Carolina": 3191,
      "slightly": 3192,
      "Hitler": 3193,
      "FI": 3194,
      "Feder": 3195,
      "Press": 3196,
      "Sal": 3197,
      "ba": 3198,
      "inside": 3199,
      "stating": 3200,
      "especial": 3201,
      "lex": 3202,
      "dev": 3203,
      "championship": 3204,
      "unction": 3205,
      "verse": 3206,
      "appl": 3207,
      "shr": 3208,
      "proposed": 3209,
      "lie": 3210,
      "mention": 3211,
      "ipal": 3212,
      "acting": 3213,
      "pring": 3214,
      "upper": 3215,
      "bring": 3216,
      "struction": 3217,
      "azirid": 3218,
      "drum": 3219,
      "defense": 3220,
      "largely": 3221,
      "increase": 3222,
      "influenced": 3223,
      "piece": 3224,
      "fifth": 3225,
      "Histor": 3226,
      "nasty": 3227,
      "especially": 3228,
      "Er": 3229,
      "Eaton": 3230,
      "Kent": 3231,
      "Mac": 3232,
      "Mag": 3233,
      "Pet": 3234,
      "Tom": 3235,
      "bit": 3236,
      "gam": 3237,
      "mus": 3238,
      "nes": 3239,
      "oil": 3240,
      "refer": 3241,
      "stre": 3242,
      "stained": 3243,
      "argu": 3244,
      "ili": 3245,
      "seg": 3246,
      "forts": 3247,
      "demand": 3248,
      "chan": 3249,
      "ola": 3250,
      "uture": 3251,
      "plans": 3252,
      "traff": 3253,
      "clim": 3254,
      "peace": 3255,
      "twent": 3256,
      "ansas": 3257,
      "monuments": 3258,
      "discus": 3259,
      "Robert": 3260,
      "archae": 3261,
      "Americ": 3262,
      "observ": 3263,
      "African": 3264,
      "albums": 3265,
      "memorial": 3266,
      "continue": 3267,
      "divine": 3268,
      "tower": 3269,
      "legisl": 3270,
      "pursu": 3271,
      "Turner": 3272,
      "conducted": 3273,
      "individual": 3274,
      "double": 3275,
      "problems": 3276,
      "heavily": 3277,
      "Naktong": 3278,
      "Works": 3279,
      "amaru": 3280,
      "Valkyria": 3281,
      "Shikamaru": 3282,
      "traffic": 3283,
      "Cam": 3284,
      "Cold": 3285,
      "Ele": 3286,
      "God": 3287,
      "Mel": 3288,
      "Pagan": 3289,
      "Sever": 3290,
      "Ve": 3291,
      "batter": 3292,
      "ging": 3293,
      "ka": 3294,
      "nu": 3295,
      "native": 3296,
      "walk": 3297,
      "youn": 3298,
      "things": 3299,
      "theme": 3300,
      "ancient": 3301,
      "concern": 3302,
      "cean": 3303,
      "composed": 3304,
      "poor": 3305,
      "outs": 3306,
      "president": 3307,
      "Democr": 3308,
      "White": 3309,
      "longer": 3310,
      "leader": 3311,
      "legal": 3312,
      "promot": 3313,
      "sequence": 3314,
      "Bridge": 3315,
      "greatest": 3316,
      "Richard": 3317,
      "declared": 3318,
      "situation": 3319,
      "synthe": 3320,
      "homes": 3321,
      "houses": 3322,
      "surrounding": 3323,
      "Government": 3324,
      "weapons": 3325,
      "Commonwealth": 3326,
      "AA": 3327,
      "Bark": 3328,
      "HL": 3329,
      "IS": 3330,
      "Lu": 3331,
      "Oreg": 3332,
      "Times": 3333,
      "daughter": 3334,
      "fill": 3335,
      "nature": 3336,
      "py": 3337,
      "rated": 3338,
      "thr": 3339,
      "independ": 3340,
      "atre": 3341,
      "stay": 3342,
      "itor": 3343,
      "itation": 3344,
      "icop": 3345,
      "rose": 3346,
      "ente": 3347,
      "secret": 3348,
      "dem": 3349,
      "church": 3350,
      "lood": 3351,
      "losing": 3352,
      "apa": 3353,
      "ume": 3354,
      "mob": 3355,
      "artists": 3356,
      "exper": 3357,
      "ishop": 3358,
      "possess": 3359,
      "space": 3360,
      "presence": 3361,
      "create": 3362,
      "headdress": 3363,
      "armored": 3364,
      "themselves": 3365,
      "severe": 3366,
      "related": 3367,
      "appears": 3368,
      "Poland": 3369,
      "helped": 3370,
      "helicop": 3371,
      "rapped": 3372,
      "says": 3373,
      "Peter": 3374,
      "activity": 3375,
      "CAA": 3376,
      "changed": 3377,
      "Northern": 3378,
      "female": 3379,
      "extensive": 3380,
      "prominent": 3381,
      "Oregon": 3382,
      "Ak": 3383,
      "Cull": 3384,
      "Gl": 3385,
      "Kaw": 3386,
      "Los": 3387,
      "More": 3388,
      "Sim": 3389,
      "Slayer": 3390,
      "doc": 3391,
      "fru": 3392,
      "rison": 3393,
      "tim": 3394,
      "ancial": 3395,
      "onna": 3396,
      "rev": 3397,
      "enge": 3398,
      "vert": 3399,
      "consecut": 3400,
      "isters": 3401,
      "ements": 3402,
      "neg": 3403,
      "artist": 3404,
      "strated": 3405,
      "Chan": 3406,
      "feel": 3407,
      "bodies": 3408,
      "discover": 3409,
      "centre": 3410,
      "spect": 3411,
      "promoted": 3412,
      "iversary": 3413,
      "classic": 3414,
      "rights": 3415,
      "resulting": 3416,
      "corpor": 3417,
      "borne": 3418,
      "paint": 3419,
      "pitcher": 3420,
      "occupied": 3421,
      "Type": 3422,
      "deployed": 3423,
      "separate": 3424,
      "kilometres": 3425,
      "consecutive": 3426,
      "Bay": 3427,
      "Del": 3428,
      "Fern": 3429,
      "Field": 3430,
      "bs": 3431,
      "bing": 3432,
      "cat": 3433,
      "dition": 3434,
      "fund": 3435,
      "future": 3436,
      "jung": 3437,
      "ker": 3438,
      "link": 3439,
      "rate": 3440,
      "yet": 3441,
      "ases": 3442,
      "sels": 3443,
      "chair": 3444,
      "olis": 3445,
      "love": 3446,
      "territ": 3447,
      "wides": 3448,
      "contemporary": 3449,
      "apo": 3450,
      "living": 3451,
      "percent": 3452,
      "quest": 3453,
      "iple": 3454,
      "notes": 3455,
      "meant": 3456,
      "compared": 3457,
      "phys": 3458,
      "turns": 3459,
      "singer": 3460,
      "supply": 3461,
      "annual": 3462,
      "Boston": 3463,
      "variety": 3464,
      "buildings": 3465,
      "senal": 3466,
      "graphy": 3467,
      "directly": 3468,
      "agogue": 3469,
      "Film": 3470,
      "culture": 3471,
      "necessary": 3472,
      "excav": 3473,
      "Are": 3474,
      "Hy": 3475,
      "Ire": 3476,
      "Its": 3477,
      "Kn": 3478,
      "Kar": 3479,
      "bul": 3480,
      "han": 3481,
      "iated": 3482,
      "male": 3483,
      "park": 3484,
      "square": 3485,
      "waters": 3486,
      "thur": 3487,
      "intelligence": 3488,
      "attr": 3489,
      "enburg": 3490,
      "ander": 3491,
      "itness": 3492,
      "sek": 3493,
      "amed": 3494,
      "cele": 3495,
      "aguch": 3496,
      "aped": 3497,
      "rif": 3498,
      "resh": 3499,
      "acts": 3500,
      "score": 3501,
      "brary": 3502,
      "Three": 3503,
      "pread": 3504,
      "finish": 3505,
      "Nosek": 3506,
      "aza": 3507,
      "Short": 3508,
      "records": 3509,
      "operated": 3510,
      "missed": 3511,
      "nament": 3512,
      "downtown": 3513,
      "identified": 3514,
      "laid": 3515,
      "Colon": 3516,
      "starting": 3517,
      "organized": 3518,
      "mbol": 3519,
      "hands": 3520,
      "issues": 3521,
      "Mean": 3522,
      "undred": 3523,
      "contrast": 3524,
      "successfully": 3525,
      "initial": 3526,
      "Highway": 3527,
      "Angeles": 3528,
      "Canadian": 3529,
      "vocal": 3530,
      "Tetrarchs": 3531,
      "policy": 3532,
      "Louis": 3533,
      "Kawaguch": 3534,
      "Kawaguchi": 3535,
      "Ap": 3536,
      "Asia": 3537,
      "Bon": 3538,
      "Gall": 3539,
      "Hen": 3540,
      "Jul": 3541,
      "Sum": 3542,
      "bury": 3543,
      "here": 3544,
      "lic": 3545,
      "mitt": 3546,
      "max": 3547,
      "makes": 3548,
      "oth": 3549,
      "sac": 3550,
      "sought": 3551,
      "tax": 3552,
      "wrest": 3553,
      "instr": 3554,
      "really": 3555,
      "orated": 3556,
      "isation": 3557,
      "roll": 3558,
      "lyn": 3559,
      "chap": 3560,
      "unable": 3561,
      "utenant": 3562,
      "sustained": 3563,
      "oph": 3564,
      "poems": 3565,
      "ordin": 3566,
      "spired": 3567,
      "brick": 3568,
      "recover": 3569,
      "aily": 3570,
      "includes": 3571,
      "regime": 3572,
      "warships": 3573,
      "higher": 3574,
      "setting": 3575,
      "ideo": 3576,
      "media": 3577,
      "Jane": 3578,
      "nearby": 3579,
      "sky": 3580,
      "Offic": 3581,
      "surviving": 3582,
      "industry": 3583,
      "injury": 3584,
      "graded": 3585,
      "poetry": 3586,
      "honor": 3587,
      "awarded": 3588,
      "commented": 3589,
      "introduced": 3590,
      "participated": 3591,
      "freeway": 3592,
      "conspiracy": 3593,
      "shooting": 3594,
      "cemeteries": 3595,
      "supplies": 3596,
      "Croat": 3597,
      "accepted": 3598,
      "Records": 3599,
      "Clarkson": 3600,
      "maximum": 3601,
      "Fer": 3602,
      "Kir": 3603,
      "Ox": 3604,
      "Res": 3605,
      "Sam": 3606,
      "TNA": 3607,
      "fought": 3608,
      "fitted": 3609,
      "mile": 3610,
      "march": 3611,
      "spl": 3612,
      "uated": 3613,
      "ont": 3614,
      "encounter": 3615,
      "ara": 3616,
      "aspect": 3617,
      "icts": 3618,
      "aces": 3619,
      "agent": 3620,
      "perimeter": 3621,
      "social": 3622,
      "actor": 3623,
      "actually": 3624,
      "orders": 3625,
      "inten": 3626,
      "ept": 3627,
      "ously": 3628,
      "vie": 3629,
      "noon": 3630,
      "maintain": 3631,
      "Arm": 3632,
      "USA": 3633,
      "seconds": 3634,
      "relatively": 3635,
      "rule": 3636,
      "roads": 3637,
      "cert": 3638,
      "End": 3639,
      "planning": 3640,
      "advis": 3641,
      "Islands": 3642,
      "apparent": 3643,
      "greater": 3644,
      "Francis": 3645,
      "primarily": 3646,
      "religion": 3647,
      "Madonna": 3648,
      "synagogue": 3649,
      "competition": 3650,
      "collap": 3651,
      "copies": 3652,
      "assassination": 3653,
      "abandoned": 3654,
      "crowd": 3655,
      "twenty": 3656,
      "Several": 3657,
      "Cullen": 3658,
      "Ireland": 3659,
      "Foot": 3660,
      "Lake": 3661,
      "UN": 3662,
      "Wrest": 3663,
      "core": 3664,
      "caves": 3665,
      "done": 3666,
      "dict": 3667,
      "fail": 3668,
      "fict": 3669,
      "hang": 3670,
      "job": 3671,
      "ki": 3672,
      "kin": 3673,
      "mat": 3674,
      "nia": 3675,
      "sis": 3676,
      "vat": 3677,
      "wan": 3678,
      "wing": 3679,
      "theless": 3680,
      "recon": 3681,
      "reign": 3682,
      "andy": 3683,
      "sections": 3684,
      "beg": 3685,
      "champion": 3686,
      "erected": 3687,
      "residents": 3688,
      "aint": 3689,
      "avo": 3690,
      "earned": 3691,
      "attention": 3692,
      "owned": 3693,
      "cks": 3694,
      "temple": 3695,
      "render": 3696,
      "weigh": 3697,
      "disc": 3698,
      "interpre": 3699,
      "interchange": 3700,
      "financial": 3701,
      "newsp": 3702,
      "draft": 3703,
      "defensive": 3704,
      "Conference": 3705,
      "ithic": 3706,
      "gency": 3707,
      "starred": 3708,
      "Week": 3709,
      "stitution": 3710,
      "shortly": 3711,
      "ASA": 3712,
      "Super": 3713,
      "teenth": 3714,
      "officials": 3715,
      "cultural": 3716,
      "meeting": 3717,
      "respectively": 3718,
      "reduced": 3719,
      "rapidly": 3720,
      "College": 3721,
      "pattern": 3722,
      "environment": 3723,
      "Barker": 3724,
      "widespread": 3725,
      "Clar": 3726,
      "Dom": 3727,
      "Down": 3728,
      "Just": 3729,
      "Lad": 3730,
      "Mr": 3731,
      "Ul": 3732,
      "bin": 3733,
      "cave": 3734,
      "ech": 3735,
      "hundred": 3736,
      "mese": 3737,
      "norm": 3738,
      "natural": 3739,
      "ote": 3740,
      "ror": 3741,
      "rating": 3742,
      "sun": 3743,
      "ua": 3744,
      "uan": 3745,
      "yment": 3746,
      "inspired": 3747,
      "repe": 3748,
      "oration": 3749,
      "alions": 3750,
      "lement": 3751,
      "adel": 3752,
      "ament": 3753,
      "omer": 3754,
      "delay": 3755,
      "irt": 3756,
      "iring": 3757,
      "resc": 3758,
      "utch": 3759,
      "ope": 3760,
      "emphas": 3761,
      "lived": 3762,
      "earth": 3763,
      "Chief": 3764,
      "box": 3765,
      "offensive": 3766,
      "playoff": 3767,
      "premi": 3768,
      "ronicles": 3769,
      "Arthur": 3770,
      "regiment": 3771,
      "colossal": 3772,
      "seasons": 3773,
      "produce": 3774,
      "Maya": 3775,
      "defence": 3776,
      "sixth": 3777,
      "Trans": 3778,
      "controver": 3779,
      "attempts": 3780,
      "Graves": 3781,
      "grew": 3782,
      "broke": 3783,
      "Burmese": 3784,
      "frig": 3785,
      "People": 3786,
      "Jackson": 3787,
      "Madero": 3788,
      "expand": 3789,
      "summer": 3790,
      "traditional": 3791,
      "cruisers": 3792,
      "straight": 3793,
      "Columbus": 3794,
      "Classic": 3795,
      "andez": 3796,
      "Base": 3797,
      "HMS": 3798,
      "Ira": 3799,
      "Late": 3800,
      "Mi": 3801,
      "Ram": 3802,
      "Video": 3803,
      "bir": 3804,
      "eter": 3805,
      "fant": 3806,
      "gal": 3807,
      "lers": 3808,
      "money": 3809,
      "saf": 3810,
      "sports": 3811,
      "takes": 3812,
      "woman": 3813,
      "atri": 3814,
      "anda": 3815,
      "ita": 3816,
      "roof": 3817,
      "roles": 3818,
      "iles": 3819,
      "imag": 3820,
      "unte": 3821,
      "confir": 3822,
      "concent": 3823,
      "ulated": 3824,
      "else": 3825,
      "ills": 3826,
      "lies": 3827,
      "ender": 3828,
      "assault": 3829,
      "actors": 3830,
      "ached": 3831,
      "aust": 3832,
      "guest": 3833,
      "whole": 3834,
      "izations": 3835,
      "coin": 3836,
      "newly": 3837,
      "ledge": 3838,
      "syl": 3839,
      "places": 3840,
      "canal": 3841,
      "advant": 3842,
      "controlled": 3843,
      "believ": 3844,
      "crossed": 3845,
      "structures": 3846,
      "Angela": 3847,
      "incident": 3848,
      "needed": 3849,
      "pieces": 3850,
      "broadcast": 3851,
      "experience": 3852,
      "revealed": 3853,
      "Austrian": 3854,
      "Donald": 3855,
      "portray": 3856,
      "convection": 3857,
      "Academy": 3858,
      "Federal": 3859,
      "Americans": 3860,
      "pyram": 3861,
      "Iraq": 3862,
      "Bol": 3863,
      "Further": 3864,
      "Fox": 3865,
      "How": 3866,
      "Hong": 3867,
      "Kurt": 3868,
      "Play": 3869,
      "Si": 3870,
      "TW": 3871,
      "Ter": 3872,
      "Zr": 3873,
      "Zap": 3874,
      "big": 3875,
      "cities": 3876,
      "gross": 3877,
      "gets": 3878,
      "junction": 3879,
      "mom": 3880,
      "rid": 3881,
      "rare": 3882,
      "sister": 3883,
      "tip": 3884,
      "worth": 3885,
      "inem": 3886,
      "rey": 3887,
      "restr": 3888,
      "health": 3889,
      "acre": 3890,
      "entran": 3891,
      "sec": 3892,
      "sell": 3893,
      "uries": 3894,
      "plain": 3895,
      "mos": 3896,
      "tram": 3897,
      "attend": 3898,
      "attended": 3899,
      "grant": 3900,
      "Station": 3901,
      "Storm": 3902,
      "Studi": 3903,
      "offer": 3904,
      "branch": 3905,
      "plays": 3906,
      "coins": 3907,
      "shear": 3908,
      "carved": 3909,
      "surface": 3910,
      "featuring": 3911,
      "depict": 3912,
      "trial": 3913,
      "Lead": 3914,
      "Color": 3915,
      "passes": 3916,
      "services": 3917,
      "married": 3918,
      "vessels": 3919,
      "distr": 3920,
      "retired": 3921,
      "specific": 3922,
      "books": 3923,
      "Philippine": 3924,
      "extended": 3925,
      "Jackets": 3926,
      "evacuation": 3927,
      "completely": 3928,
      "Captain": 3929,
      "dynasty": 3930,
      "experienced": 3931,
      "currently": 3932,
      "vocals": 3933,
      "words": 3934,
      "whether": 3935,
      "Nazi": 3936,
      "gressive": 3937,
      "strateg": 3938,
      "Service": 3939,
      "education": 3940,
      "habit": 3941,
      "Scientologists": 3942,
      "Heavyweight": 3943,
      "celebr": 3944,
      "Cas": 3945,
      "Domin": 3946,
      "Each": 3947,
      "Green": 3948,
      "Jer": 3949,
      "JTW": 3950,
      "Llo": 3951,
      "Not": 3952,
      "Penn": 3953,
      "Song": 3954,
      "bones": 3955,
      "fal": 3956,
      "ost": 3957,
      "ufact": 3958,
      "zed": 3959,
      "information": 3960,
      "retain": 3961,
      "ato": 3962,
      "ales": 3963,
      "stere": 3964,
      "leave": 3965,
      "accept": 3966,
      "lymp": 3967,
      "becomes": 3968,
      "determin": 3969,
      "irls": 3970,
      "veh": 3971,
      "oppos": 3972,
      "sho": 3973,
      "Ind": 3974,
      "grand": 3975,
      "Austro": 3976,
      "airfield": 3977,
      "afternoon": 3978,
      "commem": 3979,
      "flag": 3980,
      "news": 3981,
      "something": 3982,
      "goals": 3983,
      "producer": 3984,
      "Att": 3985,
      "jected": 3986,
      "battalions": 3987,
      "transfer": 3988,
      "Space": 3989,
      "powerful": 3990,
      "Edson": 3991,
      "society": 3992,
      "Council": 3993,
      "Harry": 3994,
      "college": 3995,
      "holding": 3996,
      "effects": 3997,
      "walls": 3998,
      "study": 3999,
      "ceeded": 4000,
      "multiple": 4001,
      "Rhodesian": 4002,
      "adapted": 4003,
      "evolution": 4004,
      "equipment": 4005,
      "machine": 4006,
      "Lieutenant": 4007,
      "Rifenburg": 4008,
      "conflict": 4009,
      "relationship": 4010,
      "Coldrum": 4011,
      "Fernandez": 4012,
      "Meanwhile": 4013,
      "Football": 4014,
      "Colorado": 4015,
      "JTWC": 4016,
      "Asa": 4017,
      "Amb": 4018,
      "Ber": 4019,
      "Fl": 4020,
      "Home": 4021,
      "Land": 4022,
      "Low": 4023,
      "Main": 4024,
      "Mah": 4025,
      "Old": 4026,
      "Olymp": 4027,
      "Rome": 4028,
      "Yong": 4029,
      "cers": 4030,
      "fear": 4031,
      "hen": 4032,
      "ij": 4033,
      "pun": 4034,
      "paid": 4035,
      "wear": 4036,
      "throw": 4037,
      "endi": 4038,
      "esis": 4039,
      "ites": 4040,
      "sector": 4041,
      "olk": 4042,
      "teach": 4043,
      "ela": 4044,
      "Chic": 4045,
      "serve": 4046,
      "method": 4047,
      "rane": 4048,
      "phia": 4049,
      "turning": 4050,
      "Ant": 4051,
      "elled": 4052,
      "intersection": 4053,
      "Ark": 4054,
      "foreign": 4055,
      "headed": 4056,
      "headquarters": 4057,
      "surpr": 4058,
      "county": 4059,
      "charges": 4060,
      "door": 4061,
      "doing": 4062,
      "volunte": 4063,
      "Lee": 4064,
      "eyes": 4065,
      "Germans": 4066,
      "Marines": 4067,
      "senior": 4068,
      "issance": 4069,
      "belief": 4070,
      "lane": 4071,
      "voy": 4072,
      "victim": 4073,
      "Cali": 4074,
      "introduction": 4075,
      "individuals": 4076,
      "focus": 4077,
      "sexual": 4078,
      "concluded": 4079,
      "commissioned": 4080,
      "Hungarian": 4081,
      "weakened": 4082,
      "Defence": 4083,
      "chamber": 4084,
      "touchdown": 4085,
      "Colonel": 4086,
      "adelphia": 4087,
      "birth": 4088,
      "Bal": 4089,
      "Bet": 4090,
      "Cong": 4091,
      "Come": 4092,
      "Due": 4093,
      "Fre": 4094,
      "Fore": 4095,
      "Free": 4096,
      "Hay": 4097,
      "If": 4098,
      "Lin": 4099,
      "Mass": 4100,
      "Pot": 4101,
      "Sul": 4102,
      "Slam": 4103,
      "Special": 4104,
      "Way": 4105,
      "din": 4106,
      "dance": 4107,
      "eve": 4108,
      "gn": 4109,
      "gs": 4110,
      "mort": 4111,
      "pul": 4112,
      "pound": 4113,
      "ube": 4114,
      "wre": 4115,
      "your": 4116,
      "thor": 4117,
      "thir": 4118,
      "edition": 4119,
      "alys": 4120,
      "ils": 4121,
      "adal": 4122,
      "acan": 4123,
      "seas": 4124,
      "semb": 4125,
      "amount": 4126,
      "fornia": 4127,
      "images": 4128,
      "unknown": 4129,
      "cell": 4130,
      "usual": 4131,
      "istry": 4132,
      "istics": 4133,
      "shore": 4134,
      "aka": 4135,
      "perman": 4136,
      "odrom": 4137,
      "ivity": 4138,
      "Chang": 4139,
      "Chris": 4140,
      "cked": 4141,
      "ansfield": 4142,
      "means": 4143,
      "forest": 4144,
      "efforts": 4145,
      "symbol": 4146,
      "secondary": 4147,
      "elected": 4148,
      "engaged": 4149,
      "tried": 4150,
      "perior": 4151,
      "skull": 4152,
      "Claudi": 4153,
      "advanced": 4154,
      "killing": 4155,
      "genus": 4156,
      "Addition": 4157,
      "stitute": 4158,
      "Lock": 4159,
      "Eastern": 4160,
      "extreme": 4161,
      "ruled": 4162,
      "industri": 4163,
      "peaked": 4164,
      "looking": 4165,
      "conduct": 4166,
      "existing": 4167,
      "pilot": 4168,
      "cruiser": 4169,
      "adopted": 4170,
      "Memorial": 4171,
      "potential": 4172,
      "classified": 4173,
      "levels": 4174,
      "billion": 4175,
      "begins": 4176,
      "Clara": 4177,
      "Chicago": 4178,
      "California": 4179,
      "Alex": 4180,
      "Dis": 4181,
      "IP": 4182,
      "Max": 4183,
      "Native": 4184,
      "NHL": 4185,
      "Ocean": 4186,
      "Raw": 4187,
      "Sil": 4188,
      "Som": 4189,
      "Tod": 4190,
      "Wrapped": 4191,
      "fare": 4192,
      "iew": 4193,
      "knot": 4194,
      "task": 4195,
      "witness": 4196,
      "yard": 4197,
      "ene": 4198,
      "ala": 4199,
      "arov": 4200,
      "asure": 4201,
      "heart": 4202,
      "rot": 4203,
      "acad": 4204,
      "seek": 4205,
      "deb": 4206,
      "vey": 4207,
      "loan": 4208,
      "ida": 4209,
      "istance": 4210,
      "shif": 4211,
      "movie": 4212,
      "trap": 4213,
      "train": 4214,
      "sip": 4215,
      "lik": 4216,
      "mented": 4217,
      "Chronicles": 4218,
      "contains": 4219,
      "temples": 4220,
      "rania": 4221,
      "izing": 4222,
      "crash": 4223,
      "USS": 4224,
      "News": 4225,
      "Because": 4226,
      "choice": 4227,
      "missing": 4228,
      "narrow": 4229,
      "Sega": 4230,
      "hospital": 4231,
      "passeng": 4232,
      "Spain": 4233,
      "Guadal": 4234,
      "market": 4235,
      "reaching": 4236,
      "evening": 4237,
      "involvement": 4238,
      "stars": 4239,
      "letter": 4240,
      "Emperor": 4241,
      "naissance": 4242,
      "favour": 4243,
      "ributed": 4244,
      "Monument": 4245,
      "Build": 4246,
      "trees": 4247,
      "Finals": 4248,
      "satis": 4249,
      "horse": 4250,
      "Viet": 4251,
      "Mountains": 4252,
      "mountains": 4253,
      "amphibians": 4254,
      "carrying": 4255,
      "challeng": 4256,
      "Ayola": 4257,
      "DreamWorks": 4258,
      "distinct": 4259,
      "entrance": 4260,
      "Asahi": 4261,
      "Yongsan": 4262,
      "sembly": 4263,
      "Guadalcanal": 4264,
      "Bor": 4265,
      "Back": 4266,
      "CS": 4267,
      "Cup": 4268,
      "Den": 4269,
      "Dou": 4270,
      "Eli": 4271,
      "Even": 4272,
      "Fit": 4273,
      "Gulf": 4274,
      "Ken": 4275,
      "Publ": 4276,
      "Tag": 4277,
      "Time": 4278,
      "Tower": 4279,
      "Tai": 4280,
      "Ward": 4281,
      "ding": 4282,
      "dut": 4283,
      "dated": 4284,
      "dess": 4285,
      "eth": 4286,
      "fa": 4287,
      "haps": 4288,
      "kno": 4289,
      "museum": 4290,
      "nic": 4291,
      "tact": 4292,
      "wins": 4293,
      "yd": 4294,
      "incorpor": 4295,
      "height": 4296,
      "Their": 4297,
      "ima": 4298,
      "agents": 4299,
      "reserve": 4300,
      "ighth": 4301,
      "pool": 4302,
      "landed": 4303,
      "scale": 4304,
      "recru": 4305,
      "dissip": 4306,
      "mainly": 4307,
      "bute": 4308,
      "filmed": 4309,
      "enses": 4310,
      "azing": 4311,
      "Show": 4312,
      "Joe": 4313,
      "paralle": 4314,
      "Confeder": 4315,
      "reports": 4316,
      "crosses": 4317,
      "fellow": 4318,
      "Among": 4319,
      "cyclization": 4320,
      "Andrew": 4321,
      "protect": 4322,
      "friends": 4323,
      "Typhoon": 4324,
      "employed": 4325,
      "colonial": 4326,
      "wheel": 4327,
      "relief": 4328,
      "platform": 4329,
      "manager": 4330,
      "investigation": 4331,
      "economic": 4332,
      "holiday": 4333,
      "purchased": 4334,
      "reinforce": 4335,
      "meaning": 4336,
      "mounted": 4337,
      "delivered": 4338,
      "Society": 4339,
      "aziridines": 4340,
      "musical": 4341,
      "document": 4342,
      "confirmed": 4343,
      "Spacey": 4344,
      "AI": 4345,
      "Ba": 4346,
      "Broad": 4347,
      "Bishop": 4348,
      "Cross": 4349,
      "ERA": 4350,
      "Far": 4351,
      "Fair": 4352,
      "Gaz": 4353,
      "IV": 4354,
      "Mas": 4355,
      "Mary": 4356,
      "Of": 4357,
      "Out": 4358,
      "Urania": 4359,
      "cand": 4360,
      "cies": 4361,
      "caught": 4362,
      "hood": 4363,
      "must": 4364,
      "pin": 4365,
      "patch": 4366,
      "paper": 4367,
      "tts": 4368,
      "ule": 4369,
      "youth": 4370,
      "onom": 4371,
      "eding": 4372,
      "repl": 4373,
      "rets": 4374,
      "alone": 4375,
      "ental": 4376,
      "seat": 4377,
      "lywood": 4378,
      "forcing": 4379,
      "olithic": 4380,
      "ider": 4381,
      "iders": 4382,
      "eless": 4383,
      "util": 4384,
      "abbar": 4385,
      "emic": 4386,
      "ateg": 4387,
      "aks": 4388,
      "lives": 4389,
      "excl": 4390,
      "managed": 4391,
      "manufact": 4392,
      "awak": 4393,
      "achuse": 4394,
      "upgraded": 4395,
      "kee": 4396,
      "spread": 4397,
      "weak": 4398,
      "ption": 4399,
      "uees": 4400,
      "interse": 4401,
      "Commun": 4402,
      "rael": 4403,
      "numerous": 4404,
      "attacking": 4405,
      "calling": 4406,
      "Steph": 4407,
      "officially": 4408,
      "plane": 4409,
      "storms": 4410,
      "Israel": 4411,
      "Brad": 4412,
      "missions": 4413,
      "causing": 4414,
      "chester": 4415,
      "Burma": 4416,
      "declined": 4417,
      "painting": 4418,
      "injured": 4419,
      "Minister": 4420,
      "hosted": 4421,
      "connected": 4422,
      "collabor": 4423,
      "technique": 4424,
      "freed": 4425,
      "flooding": 4426,
      "Series": 4427,
      "benef": 4428,
      "silver": 4429,
      "capture": 4430,
      "Southern": 4431,
      "Dodgers": 4432,
      "Sarawak": 4433,
      "shells": 4434,
      "aerodrom": 4435,
      "converted": 4436,
      "innings": 4437,
      "Henry": 4438,
      "sylvan": 4439,
      "Pennsylvan": 4440,
      "Massachuse": 4441,
      "candid": 4442,
      "Massachusetts": 4443,
      "Bow": 4444,
      "CD": 4445,
      "Ir": 4446,
      "Mort": 4447,
      "Pound": 4448,
      "Sol": 4449,
      "Spe": 4450,
      "Tenn": 4451,
      "VD": 4452,
      "Wind": 4453,
      "cou": 4454,
      "cited": 4455,
      "gather": 4456,
      "kept": 4457,
      "olyn": 4458,
      "rich": 4459,
      "za": 4460,
      "oft": 4461,
      "itus": 4462,
      "iser": 4463,
      "ises": 4464,
      "adium": 4465,
      "sey": 4466,
      "selling": 4467,
      "bey": 4468,
      "chief": 4469,
      "olf": 4470,
      "older": 4471,
      "ota": 4472,
      "shape": 4473,
      "shaped": 4474,
      "Intram": 4475,
      "exit": 4476,
      "expressed": 4477,
      "Champion": 4478,
      "fected": 4479,
      "portun": 4480,
      "awa": 4481,
      "ousand": 4482,
      "temper": 4483,
      "Though": 4484,
      "phy": 4485,
      "note": 4486,
      "sions": 4487,
      "speech": 4488,
      "column": 4489,
      "carbon": 4490,
      "background": 4491,
      "capable": 4492,
      "Where": 4493,
      "Manchester": 4494,
      "myth": 4495,
      "direction": 4496,
      "starts": 4497,
      "Carolyn": 4498,
      "Philadelphia": 4499,
      "uros": 4500,
      "cases": 4501,
      "Post": 4502,
      "historians": 4503,
      "sites": 4504,
      "seventh": 4505,
      "protection": 4506,
      "subsequent": 4507,
      "ambia": 4508,
      "evacuees": 4509,
      "debuted": 4510,
      "losses": 4511,
      "dollars": 4512,
      "penetr": 4513,
      "impact": 4514,
      "Republican": 4515,
      "focused": 4516,
      "Governor": 4517,
      "stopped": 4518,
      "growth": 4519,
      "prepared": 4520,
      "improve": 4521,
      "dedicated": 4522,
      "submarine": 4523,
      "examples": 4524,
      "bottom": 4525,
      "convin": 4526,
      "consisting": 4527,
      "photograph": 4528,
      "arrested": 4529,
      "schedul": 4530,
      "concerns": 4531,
      "helicopters": 4532,
      "jungle": 4533,
      "Area": 4534,
      "Domit": 4535,
      "district": 4536,
      "Vietnam": 4537,
      "Intramuros": 4538,
      "AG": 4539,
      "BBC": 4540,
      "Corn": 4541,
      "MV": 4542,
      "Mes": 4543,
      "NK": 4544,
      "Ob": 4545,
      "Sm": 4546,
      "TA": 4547,
      "Ts": 4548,
      "Tex": 4549,
      "Tele": 4550,
      "bat": 4551,
      "fit": 4552,
      "food": 4553,
      "franch": 4554,
      "gain": 4555,
      "hair": 4556,
      "ihu": 4557,
      "mig": 4558,
      "mind": 4559,
      "mask": 4560,
      "rig": 4561,
      "ration": 4562,
      "rab": 4563,
      "vation": 4564,
      "wa": 4565,
      "ye": 4566,
      "zy": 4567,
      "zone": 4568,
      "stood": 4569,
      "today": 4570,
      "heard": 4571,
      "administr": 4572,
      "iments": 4573,
      "tebr": 4574,
      "agon": 4575,
      "agement": 4576,
      "ett": 4577,
      "ounder": 4578,
      "oppon": 4579,
      "Indep": 4580,
      "article": 4581,
      "poem": 4582,
      "Hey": 4583,
      "airport": 4584,
      "turret": 4585,
      "turrets": 4586,
      "crimin": 4587,
      "maintained": 4588,
      "anything": 4589,
      "tainment": 4590,
      "themes": 4591,
      "views": 4592,
      "medical": 4593,
      "receiving": 4594,
      "serving": 4595,
      "showed": 4596,
      "distur": 4597,
      "marks": 4598,
      "solo": 4599,
      "Trout": 4600,
      "destroyers": 4601,
      "target": 4602,
      "responsibility": 4603,
      "purpose": 4604,
      "historic": 4605,
      "historian": 4606,
      "historical": 4607,
      "projects": 4608,
      "Headlam": 4609,
      "nyi": 4610,
      "authorities": 4611,
      "Commander": 4612,
      "Nazarov": 4613,
      "requested": 4614,
      "accused": 4615,
      "practice": 4616,
      "susp": 4617,
      "management": 4618,
      "dropped": 4619,
      "badly": 4620,
      "types": 4621,
      "submarines": 4622,
      "measures": 4623,
      "briefly": 4624,
      "mentioned": 4625,
      "Historic": 4626,
      "Summer": 4627,
      "Oxford": 4628,
      "endiente": 4629,
      "Public": 4630,
      "Gazan": 4631,
      "Independiente": 4632,
      "CO": 4633,
      "DVD": 4634,
      "Flor": 4635,
      "Lung": 4636,
      "Nar": 4637,
      "Oh": 4638,
      "Prom": 4639,
      "Papa": 4640,
      "cere": 4641,
      "dry": 4642,
      "fro": 4643,
      "fied": 4644,
      "fuel": 4645,
      "fresh": 4646,
      "gress": 4647,
      "rin": 4648,
      "smo": 4649,
      "sulf": 4650,
      "tin": 4651,
      "wait": 4652,
      "ya": 4653,
      "yan": 4654,
      "remo": 4655,
      "recomm": 4656,
      "research": 4657,
      "assembl": 4658,
      "ingu": 4659,
      "account": 4660,
      "beam": 4661,
      "vertebr": 4662,
      "aylor": 4663,
      "constant": 4664,
      "ulls": 4665,
      "rival": 4666,
      "opportun": 4667,
      "alls": 4668,
      "true": 4669,
      "Indu": 4670,
      "neither": 4671,
      "proved": 4672,
      "ighter": 4673,
      "illu": 4674,
      "landfall": 4675,
      "poses": 4676,
      "spot": 4677,
      "coal": 4678,
      "creation": 4679,
      "creating": 4680,
      "committed": 4681,
      "icture": 4682,
      "condition": 4683,
      "countries": 4684,
      "charge": 4685,
      "writers": 4686,
      "returning": 4687,
      "founded": 4688,
      "window": 4689,
      "royal": 4690,
      "buried": 4691,
      "sense": 4692,
      "Cooke": 4693,
      "Korea": 4694,
      "claims": 4695,
      "frame": 4696,
      "Egyptians": 4697,
      "holds": 4698,
      "System": 4699,
      "earliest": 4700,
      "Cape": 4701,
      "aloo": 4702,
      "pilots": 4703,
      "Rhodesia": 4704,
      "performing": 4705,
      "worship": 4706,
      "network": 4707,
      "bellion": 4708,
      "remn": 4709,
      "Atlantic": 4710,
      "Director": 4711,
      "sources": 4712,
      "replacement": 4713,
      "Steiner": 4714,
      "youngest": 4715,
      "Shortly": 4716,
      "aspects": 4717,
      "knots": 4718,
      "Florida": 4719,
      "Dutch": 4720,
      "Gabbar": 4721,
      "Hot": 4722,
      "Ill": 4723,
      "Mur": 4724,
      "Sir": 4725,
      "Sound": 4726,
      "Taylor": 4727,
      "VI": 4728,
      "Wis": 4729,
      "Wood": 4730,
      "ahead": 4731,
      "cation": 4732,
      "eBob": 4733,
      "fish": 4734,
      "hog": 4735,
      "ito": 4736,
      "iate": 4737,
      "matter": 4738,
      "nit": 4739,
      "pact": 4740,
      "slo": 4741,
      "tun": 4742,
      "tied": 4743,
      "ancing": 4744,
      "rever": 4745,
      "retained": 4746,
      "enjo": 4747,
      "store": 4748,
      "esc": 4749,
      "ada": 4750,
      "ira": 4751,
      "irl": 4752,
      "imped": 4753,
      "tex": 4754,
      "concept": 4755,
      "withdrew": 4756,
      "byrin": 4757,
      "ultural": 4758,
      "ette": 4759,
      "elimin": 4760,
      "shire": 4761,
      "negot": 4762,
      "poets": 4763,
      "ongeBob": 4764,
      "iant": 4765,
      "acks": 4766,
      "ignment": 4767,
      "herself": 4768,
      "melo": 4769,
      "airs": 4770,
      "ween": 4771,
      "Anton": 4772,
      "Also": 4773,
      "surrender": 4774,
      "What": 4775,
      "annel": 4776,
      "decorated": 4777,
      "Secret": 4778,
      "Enter": 4779,
      "presented": 4780,
      "winner": 4781,
      "goddess": 4782,
      "SpongeBob": 4783,
      "distingu": 4784,
      "bands": 4785,
      "famous": 4786,
      "getting": 4787,
      "worldwide": 4788,
      "Burn": 4789,
      "deaths": 4790,
      "titled": 4791,
      "suffic": 4792,
      "Loose": 4793,
      "basis": 4794,
      "blocks": 4795,
      "deliber": 4796,
      "occupation": 4797,
      "squadrons": 4798,
      "armoured": 4799,
      "launch": 4800,
      "favorite": 4801,
      "executed": 4802,
      "edgehog": 4803,
      "bombard": 4804,
      "Military": 4805,
      "nominated": 4806,
      "revolution": 4807,
      "Josephine": 4808,
      "shrine": 4809,
      "physical": 4810,
      "chapel": 4811,
      "Indones": 4812,
      "Between": 4813,
      "alysis": 4814,
      "permanent": 4815,
      "Building": 4816,
      "Mortier": 4817,
      "MVP": 4818,
      "Lunga": 4819,
      "Adam": 4820,
      "Bre": 4821,
      "Ca": 4822,
      "ES": 4823,
      "Five": 4824,
      "Fred": 4825,
      "Gar": 4826,
      "Glo": 4827,
      "Girls": 4828,
      "Lar": 4829,
      "Men": 4830,
      "Nick": 4831,
      "Pa": 4832,
      "Revolution": 4833,
      "Sat": 4834,
      "TC": 4835,
      "Tree": 4836,
      "Van": 4837,
      "Wat": 4838,
      "Wel": 4839,
      "aur": 4840,
      "bio": 4841,
      "catch": 4842,
      "cann": 4843,
      "daily": 4844,
      "gained": 4845,
      "hits": 4846,
      "ien": 4847,
      "labor": 4848,
      "mast": 4849,
      "sailed": 4850,
      "sisters": 4851,
      "uto": 4852,
      "uous": 4853,
      "von": 4854,
      "vor": 4855,
      "thew": 4856,
      "ening": 4857,
      "enous": 4858,
      "street": 4859,
      "itiz": 4860,
      "isc": 4861,
      "ilies": 4862,
      "advert": 4863,
      "deity": 4864,
      "unn": 4865,
      "vers": 4866,
      "contest": 4867,
      "conference": 4868,
      "usan": 4869,
      "rible": 4870,
      "ressed": 4871,
      "eton": 4872,
      "umb": 4873,
      "compr": 4874,
      "cloud": 4875,
      "pox": 4876,
      "exposed": 4877,
      "antly": 4878,
      "twin": 4879,
      "twice": 4880,
      "firing": 4881,
      "contained": 4882,
      "mechan": 4883,
      "regional": 4884,
      "ogaloo": 4885,
      "Attor": 4886,
      "operating": 4887,
      "trying": 4888,
      "remainder": 4889,
      "defend": 4890,
      "serves": 4891,
      "ologists": 4892,
      "sequently": 4893,
      "Johnson": 4894,
      "Edward": 4895,
      "posted": 4896,
      "value": 4897,
      "standard": 4898,
      "Township": 4899,
      "involving": 4900,
      "ushing": 4901,
      "Impact": 4902,
      "Walter": 4903,
      "facilities": 4904,
      "voice": 4905,
      "widely": 4906,
      "Strapping": 4907,
      "studies": 4908,
      "suggests": 4909,
      "sification": 4910,
      "pitched": 4911,
      "criticized": 4912,
      "coastal": 4913,
      "contributed": 4914,
      "Devin": 4915,
      "Imagist": 4916,
      "Middle": 4917,
      "Jeff": 4918,
      "Vargas": 4919,
      "vati": 4920,
      "newspaper": 4921,
      "advantage": 4922,
      "pyramid": 4923,
      "Llosa": 4924,
      "Attale": 4925,
      "Arkansas": 4926,
      "Fitts": 4927,
      "Pennsylvania": 4928,
      "scheduled": 4929,
      "franchise": 4930,
      "Heyman": 4931,
      "ceremon": 4932,
      "Attorney": 4933,
      "Ash": 4934,
      "Amos": 4935,
      "BN": 4936,
      "Bh": 4937,
      "Bat": 4938,
      "Bra": 4939,
      "Bang": 4940,
      "Daz": 4941,
      "Have": 4942,
      "Haw": 4943,
      "IRA": 4944,
      "Jenn": 4945,
      "Muse": 4946,
      "Night": 4947,
      "Naval": 4948,
      "Rev": 4949,
      "Six": 4950,
      "SNL": 4951,
      "Vo": 4952,
      "WAS": 4953,
      "ares": 4954,
      "eu": 4955,
      "gro": 4956,
      "kind": 4957,
      "ni": 4958,
      "nav": 4959,
      "psy": 4960,
      "path": 4961,
      "snow": 4962,
      "thousand": 4963,
      "rect": 4964,
      "atal": 4965,
      "stages": 4966,
      "asc": 4967,
      "itan": 4968,
      "leon": 4969,
      "lect": 4970,
      "lets": 4971,
      "ammun": 4972,
      "urban": 4973,
      "destruction": 4974,
      "oll": 4975,
      "loyal": 4976,
      "convoy": 4977,
      "ression": 4978,
      "elve": 4979,
      "ellow": 4980,
      "umber": 4981,
      "arts": 4982,
      "estival": 4983,
      "quatic": 4984,
      "aviation": 4985,
      "attached": 4986,
      "graves": 4987,
      "evil": 4988,
      "boy": 4989,
      "boss": 4990,
      "partly": 4991,
      "contact": 4992,
      "compil": 4993,
      "renamed": 4994,
      "blue": 4995,
      "oked": 4996,
      "ellite": 4997,
      "roughly": 4998,
      "forecast": 4999,
      "regions": 5000,
      "Only": 5001,
      "filming": 5002,
      "armament": 5003,
      "Commit": 5004,
      "ondo": 5005,
      "azz": 5006,
      "producing": 5007,
      "numbered": 5008,
      "therefore": 5009,
      "Board": 5010,
      "designs": 5011,
      "depicted": 5012,
      "insula": 5013,
      "continuing": 5014,
      "showing": 5015,
      "strip": 5016,
      "joint": 5017,
      "southwest": 5018,
      "distance": 5019,
      "barr": 5020,
      "families": 5021,
      "Grand": 5022,
      "shots": 5023,
      "facing": 5024,
      "representative": 5025,
      "Project": 5026,
      "Parvati": 5027,
      "function": 5028,
      "entirely": 5029,
      "students": 5030,
      "explained": 5031,
      "animals": 5032,
      "existence": 5033,
      "violence": 5034,
      "conspirators": 5035,
      "worst": 5036,
      "responded": 5037,
      "increasingly": 5038,
      "scholars": 5039,
      "Kentuck": 5040,
      "segment": 5041,
      "Kirby": 5042,
      "determined": 5043,
      "passengers": 5044,
      "Texas": 5045,
      "WASP": 5046,
      "ammunition": 5047,
      "Committee": 5048,
      "Band": 5049,
      "Bog": 5050,
      "Gauth": 5051,
      "HM": 5052,
      "Hard": 5053,
      "Kro": 5054,
      "Kur": 5055,
      "Mill": 5056,
      "Matt": 5057,
      "NAS": 5058,
      "Napo": 5059,
      "Party": 5060,
      "Patr": 5061,
      "Rod": 5062,
      "Sports": 5063,
      "Tren": 5064,
      "Vice": 5065,
      "Writ": 5066,
      "Ye": 5067,
      "blood": 5068,
      "fung": 5069,
      "hired": 5070,
      "ires": 5071,
      "ky": 5072,
      "mine": 5073,
      "navy": 5074,
      "rise": 5075,
      "vic": 5076,
      "ini": 5077,
      "instru": 5078,
      "inhabit": 5079,
      "isol": 5080,
      "enters": 5081,
      "seed": 5082,
      "seems": 5083,
      "degre": 5084,
      "olic": 5085,
      "imet": 5086,
      "unique": 5087,
      "idation": 5088,
      "aggressive": 5089,
      "ripp": 5090,
      "otihu": 5091,
      "pled": 5092,
      "superior": 5093,
      "opher": 5094,
      "emot": 5095,
      "prohib": 5096,
      "sian": 5097,
      "livan": 5098,
      "library": 5099,
      "orted": 5100,
      "arden": 5101,
      "Child": 5102,
      "noting": 5103,
      "Stan": 5104,
      "iful": 5105,
      "inton": 5106,
      "partially": 5107,
      "brid": 5108,
      "recent": 5109,
      "recently": 5110,
      "presents": 5111,
      "web": 5112,
      "izes": 5113,
      "interior": 5114,
      "color": 5115,
      "observed": 5116,
      "anger": 5117,
      "follows": 5118,
      "drama": 5119,
      "chose": 5120,
      "chosen": 5121,
      "viewed": 5122,
      "write": 5123,
      "rug": 5124,
      "trials": 5125,
      "Stela": 5126,
      "covers": 5127,
      "planet": 5128,
      "organizations": 5129,
      "burial": 5130,
      "developing": 5131,
      "visit": 5132,
      "generation": 5133,
      "versions": 5134,
      "agreement": 5135,
      "Teotihu": 5136,
      "decline": 5137,
      "cyclones": 5138,
      "CAR": 5139,
      "significantly": 5140,
      "surviv": 5141,
      "survived": 5142,
      "divisions": 5143,
      "Syd": 5144,
      "incipal": 5145,
      "Neolithic": 5146,
      "Blackie": 5147,
      "Georg": 5148,
      "terminus": 5149,
      "loaded": 5150,
      "quality": 5151,
      "Danube": 5152,
      "details": 5153,
      "slowly": 5154,
      "uzz": 5155,
      "Austria": 5156,
      "Schmitt": 5157,
      "stock": 5158,
      "strikeouts": 5159,
      "adapt": 5160,
      "saurus": 5161,
      "brothers": 5162,
      "literary": 5163,
      "carries": 5164,
      "Matthew": 5165,
      "journal": 5166,
      "Atlanta": 5167,
      "considerable": 5168,
      "alleged": 5169,
      "Osbert": 5170,
      "Upper": 5171,
      "camera": 5172,
      "synthesis": 5173,
      "recovered": 5174,
      "certified": 5175,
      "fictional": 5176,
      "expanded": 5177,
      "moment": 5178,
      "Dominican": 5179,
      "Congress": 5180,
      "Potter": 5181,
      "Sullivan": 5182,
      "Additionally": 5183,
      "Gauthier": 5184,
      "Napoleon": 5185,
      "degrees": 5186,
      "Teotihuacan": 5187,
      "AP": 5188,
      "Ass": 5189,
      "Dal": 5190,
      "DOT": 5191,
      "FA": 5192,
      "Fron": 5193,
      "Henders": 5194,
      "Ise": 5195,
      "Khan": 5196,
      "Lim": 5197,
      "Live": 5198,
      "Mint": 5199,
      "Nations": 5200,
      "Player": 5201,
      "Ra": 5202,
      "Ron": 5203,
      "Sub": 5204,
      "Square": 5205,
      "Santa": 5206,
      "Spring": 5207,
      "Tro": 5208,
      "Zagre": 5209,
      "bid": 5210,
      "bow": 5211,
      "blow": 5212,
      "bia": 5213,
      "bought": 5214,
      "categ": 5215,
      "hull": 5216,
      "jum": 5217,
      "map": 5218,
      "pushed": 5219,
      "rer": 5220,
      "sq": 5221,
      "squad": 5222,
      "taker": 5223,
      "yles": 5224,
      "inf": 5225,
      "infl": 5226,
      "inner": 5227,
      "theater": 5228,
      "anth": 5229,
      "eru": 5230,
      "erved": 5231,
      "rell": 5232,
      "atus": 5233,
      "ality": 5234,
      "ications": 5235,
      "icide": 5236,
      "leaves": 5237,
      "leston": 5238,
      "accompan": 5239,
      "chant": 5240,
      "oldest": 5241,
      "lob": 5242,
      "log": 5243,
      "unusual": 5244,
      "teor": 5245,
      "convent": 5246,
      "aph": 5247,
      "resistance": 5248,
      "trou": 5249,
      "progress": 5250,
      "lide": 5251,
      "perhaps": 5252,
      "exped": 5253,
      "assador": 5254,
      "achie": 5255,
      "guerr": 5256,
      "meets": 5257,
      "Thai": 5258,
      "izon": 5259,
      "crater": 5260,
      "strugg": 5261,
      "warning": 5262,
      "Album": 5263,
      "ropolis": 5264,
      "rows": 5265,
      "athlet": 5266,
      "appeal": 5267,
      "Boy": 5268,
      "Boys": 5269,
      "appearances": 5270,
      "transition": 5271,
      "ideas": 5272,
      "decades": 5273,
      "Marsh": 5274,
      "supporting": 5275,
      "appropri": 5276,
      "Guam": 5277,
      "organised": 5278,
      "gives": 5279,
      "Administr": 5280,
      "claiming": 5281,
      "frag": 5282,
      "Point": 5283,
      "Charleston": 5284,
      "Provision": 5285,
      "arrival": 5286,
      "basic": 5287,
      "circle": 5288,
      "Origin": 5289,
      "Sueton": 5290,
      "rulers": 5291,
      "protected": 5292,
      "Williams": 5293,
      "Temnospondy": 5294,
      "sibly": 5295,
      "Like": 5296,
      "Italy": 5297,
      "installed": 5298,
      "department": 5299,
      "detail": 5300,
      "Again": 5301,
      "Agripp": 5302,
      "emerged": 5303,
      "Darwin": 5304,
      "couple": 5305,
      "frequently": 5306,
      "Delaware": 5307,
      "question": 5308,
      "granted": 5309,
      "vehicles": 5310,
      "Ambassador": 5311,
      "ranean": 5312,
      "Domitian": 5313,
      "texts": 5314,
      "byrinthod": 5315,
      "Attalea": 5316,
      "Kentucky": 5317,
      "Patrick": 5318,
      "Sydney": 5319,
      "Henderson": 5320,
      "Zagreb": 5321,
      "Suetonius": 5322,
      "Bas": 5323,
      "Bad": 5324,
      "Bus": 5325,
      "Bud": 5326,
      "Bah": 5327,
      "Bert": 5328,
      "Cru": 5329,
      "Die": 5330,
      "Greg": 5331,
      "Good": 5332,
      "Hedgehog": 5333,
      "Ko": 5334,
      "Kev": 5335,
      "Mus": 5336,
      "RI": 5337,
      "Rab": 5338,
      "Ridge": 5339,
      "Sto": 5340,
      "Tac": 5341,
      "Tok": 5342,
      "aus": 5343,
      "dwell": 5344,
      "dale": 5345,
      "eas": 5346,
      "fly": 5347,
      "folk": 5348,
      "gree": 5349,
      "greg": 5350,
      "mates": 5351,
      "none": 5352,
      "paren": 5353,
      "rhy": 5354,
      "rural": 5355,
      "sand": 5356,
      "sort": 5357,
      "spr": 5358,
      "voted": 5359,
      "inte": 5360,
      "inity": 5361,
      "insur": 5362,
      "institut": 5363,
      "reference": 5364,
      "orry": 5365,
      "enlisted": 5366,
      "stin": 5367,
      "icro": 5368,
      "aded": 5369,
      "adow": 5370,
      "entit": 5371,
      "ura": 5372,
      "decre": 5373,
      "deemed": 5374,
      "imate": 5375,
      "imperial": 5376,
      "univers": 5377,
      "terior": 5378,
      "ays": 5379,
      "conce": 5380,
      "ctors": 5381,
      "agree": 5382,
      "resent": 5383,
      "erson": 5384,
      "shop": 5385,
      "abled": 5386,
      "Intelligence": 5387,
      "neigh": 5388,
      "iance": 5389,
      "affected": 5390,
      "Staff": 5391,
      "udes": 5392,
      "span": 5393,
      "spher": 5394,
      "airborne": 5395,
      "ranged": 5396,
      "rent": 5397,
      "phic": 5398,
      "weather": 5399,
      "display": 5400,
      "izal": 5401,
      "cool": 5402,
      "filters": 5403,
      "Arsenal": 5404,
      "finishing": 5405,
      "Comple": 5406,
      "raids": 5407,
      "cargo": 5408,
      "consists": 5409,
      "Reign": 5410,
      "operate": 5411,
      "element": 5412,
      "milit": 5413,
      "trip": 5414,
      "label": 5415,
      "lights": 5416,
      "defended": 5417,
      "defenses": 5418,
      "Clinton": 5419,
      "promote": 5420,
      "marus": 5421,
      "approved": 5422,
      "glass": 5423,
      "hydro": 5424,
      "testified": 5425,
      "characteristics": 5426,
      "visible": 5427,
      "denied": 5428,
      "entering": 5429,
      "purposes": 5430,
      "collection": 5431,
      "drawn": 5432,
      "tells": 5433,
      "willing": 5434,
      "closely": 5435,
      "effective": 5436,
      "select": 5437,
      "Turk": 5438,
      "crews": 5439,
      "competed": 5440,
      "Undertaker": 5441,
      "attempting": 5442,
      "Hospital": 5443,
      "student": 5444,
      "programme": 5445,
      "deployment": 5446,
      "travelled": 5447,
      "settlement": 5448,
      "Goe": 5449,
      "panel": 5450,
      "knowledge": 5451,
      "problem": 5452,
      "Hamil": 5453,
      "purchase": 5454,
      "defined": 5455,
      "judge": 5456,
      "Martin": 5457,
      "Queens": 5458,
      "Throughout": 5459,
      "Genesis": 5460,
      "FITs": 5461,
      "gammarus": 5462,
      "streak": 5463,
      "ISBN": 5464,
      "discovery": 5465,
      "Bono": 5466,
      "intensified": 5467,
      "Francisco": 5468,
      "reconnaissance": 5469,
      "avoid": 5470,
      "Transport": 5471,
      "strategic": 5472,
      "touchdowns": 5473,
      "Claudius": 5474,
      "industrial": 5475,
      "Today": 5476,
      "academic": 5477,
      "parallel": 5478,
      "Museo": 5479,
      "Bogside": 5480,
      "NASCAR": 5481,
      "Trenton": 5482,
      "Agrippina": 5483,
      "Tacitus": 5484,
      "Bank": 5485,
      "Block": 5486,
      "Cath": 5487,
      "Dy": 5488,
      "Hur": 5489,
      "Hum": 5490,
      "Horn": 5491,
      "Kong": 5492,
      "NCAA": 5493,
      "Oli": 5494,
      "Pil": 5495,
      "PAG": 5496,
      "RF": 5497,
      "Sab": 5498,
      "Task": 5499,
      "Upon": 5500,
      "Vis": 5501,
      "Vel": 5502,
      "awi": 5503,
      "cri": 5504,
      "dates": 5505,
      "eighth": 5506,
      "epox": 5507,
      "fold": 5508,
      "ju": 5509,
      "kg": 5510,
      "knew": 5511,
      "ospondy": 5512,
      "sport": 5513,
      "spring": 5514,
      "tall": 5515,
      "tend": 5516,
      "thy": 5517,
      "inno": 5518,
      "erted": 5519,
      "alive": 5520,
      "stret": 5521,
      "arrang": 5522,
      "acres": 5523,
      "seem": 5524,
      "amoun": 5525,
      "belong": 5526,
      "deleg": 5527,
      "degree": 5528,
      "cher": 5529,
      "Theatre": 5530,
      "imal": 5531,
      "uni": 5532,
      "terrain": 5533,
      "aganda": 5534,
      "apers": 5535,
      "usive": 5536,
      "resol": 5537,
      "uma": 5538,
      "compos": 5539,
      "plom": 5540,
      "mod": 5541,
      "modi": 5542,
      "trough": 5543,
      "Independ": 5544,
      "neck": 5545,
      "ours": 5546,
      "earning": 5547,
      "notable": 5548,
      "grave": 5549,
      "Stre": 5550,
      "Stansfield": 5551,
      "ifically": 5552,
      "compound": 5553,
      "monitors": 5554,
      "renstein": 5555,
      "formal": 5556,
      "forming": 5557,
      "eller": 5558,
      "flat": 5559,
      "Once": 5560,
      "substant": 5561,
      "obtained": 5562,
      "consin": 5563,
      "consul": 5564,
      "Death": 5565,
      "captain": 5566,
      "Josh": 5567,
      "elections": 5568,
      "myster": 5569,
      "adding": 5570,
      "narr": 5571,
      "engines": 5572,
      "Boogaloo": 5573,
      "Leg": 5574,
      "passage": 5575,
      "successor": 5576,
      "require": 5577,
      "commanded": 5578,
      "rounds": 5579,
      "describes": 5580,
      "Trail": 5581,
      "episodes": 5582,
      "burned": 5583,
      "Coast": 5584,
      "Moon": 5585,
      "visited": 5586,
      "correspond": 5587,
      "equival": 5588,
      "vote": 5589,
      "returns": 5590,
      "Within": 5591,
      "collected": 5592,
      "behav": 5593,
      "bases": 5594,
      "everything": 5595,
      "selection": 5596,
      "concerned": 5597,
      "civilians": 5598,
      "authority": 5599,
      "sculpted": 5600,
      "driven": 5601,
      "Elbert": 5602,
      "Plaza": 5603,
      "Victorian": 5604,
      "departed": 5605,
      "colonies": 5606,
      "flights": 5607,
      "sales": 5608,
      "accident": 5609,
      "prevented": 5610,
      "growing": 5611,
      "circulation": 5612,
      "economy": 5613,
      "extra": 5614,
      "typically": 5615,
      "Golden": 5616,
      "routing": 5617,
      "patrol": 5618,
      "patrols": 5619,
      "learned": 5620,
      "journey": 5621,
      "treatment": 5622,
      "regarded": 5623,
      "scholar": 5624,
      "establishment": 5625,
      "demol": 5626,
      "fruit": 5627,
      "paintings": 5628,
      "failure": 5629,
      "normal": 5630,
      "repeated": 5631,
      "regimental": 5632,
      "Baseball": 5633,
      "victims": 5634,
      "Lockport": 5635,
      "Wisconsin": 5636,
      "inhabitants": 5637,
      "Front": 5638,
      "Queensland": 5639,
      "PAGASA": 5640,
      "Bart": 5641,
      "Cab": 5642,
      "Ell": 5643,
      "Hun": 5644,
      "Here": 5645,
      "Hart": 5646,
      "IG": 5647,
      "Ku": 5648,
      "Ky": 5649,
      "Lau": 5650,
      "Loc": 5651,
      "Mu": 5652,
      "Mack": 5653,
      "Mog": 5654,
      "Mount": 5655,
      "Ow": 5656,
      "Por": 5657,
      "Ru": 5658,
      "Ring": 5659,
      "Race": 5660,
      "Rizal": 5661,
      "Sour": 5662,
      "Tar": 5663,
      "Tam": 5664,
      "UP": 5665,
      "UTC": 5666,
      "Vir": 5667,
      "WG": 5668,
      "ZIP": 5669,
      "aits": 5670,
      "cens": 5671,
      "cust": 5672,
      "fix": 5673,
      "ih": 5674,
      "iber": 5675,
      "mere": 5676,
      "sn": 5677,
      "table": 5678,
      "uter": 5679,
      "wick": 5680,
      "thi": 5681,
      "iny": 5682,
      "theatre": 5683,
      "replace": 5684,
      "atem": 5685,
      "aria": 5686,
      "itage": 5687,
      "icipal": 5688,
      "leton": 5689,
      "aced": 5690,
      "accur": 5691,
      "ambo": 5692,
      "deed": 5693,
      "dete": 5694,
      "demo": 5695,
      "cha": 5696,
      "chance": 5697,
      "ols": 5698,
      "iger": 5699,
      "impossible": 5700,
      "why": 5701,
      "ceased": 5702,
      "agric": 5703,
      "rian": 5704,
      "rial": 5705,
      "otic": 5706,
      "reserv": 5707,
      "istered": 5708,
      "shaft": 5709,
      "trained": 5710,
      "Instead": 5711,
      "emies": 5712,
      "progres": 5713,
      "diplom": 5714,
      "cles": 5715,
      "endo": 5716,
      "ava": 5717,
      "attributed": 5718,
      "grazing": 5719,
      "Styles": 5720,
      "awards": 5721,
      "ckey": 5722,
      "possibility": 5723,
      "content": 5724,
      "contain": 5725,
      "indicated": 5726,
      "creator": 5727,
      "centuries": 5728,
      "filter": 5729,
      "Ross": 5730,
      "tenance": 5731,
      "Before": 5732,
      "Mania": 5733,
      "placing": 5734,
      "depicts": 5735,
      "eastward": 5736,
      "Police": 5737,
      "descend": 5738,
      "attered": 5739,
      "Indians": 5740,
      "vessel": 5741,
      "Guatem": 5742,
      "RAR": 5743,
      "glas": 5744,
      "Gram": 5745,
      "Coach": 5746,
      "Airport": 5747,
      "province": 5748,
      "lasted": 5749,
      "systems": 5750,
      "tournament": 5751,
      "strongly": 5752,
      "suffering": 5753,
      "Prince": 5754,
      "estimates": 5755,
      "iterranean": 5756,
      "funer": 5757,
      "approached": 5758,
      "storyline": 5759,
      "Russia": 5760,
      "soundtrack": 5761,
      "drive": 5762,
      "teeth": 5763,
      "reveal": 5764,
      "Mediterranean": 5765,
      "stationed": 5766,
      "favorable": 5767,
      "Timor": 5768,
      "Mongols": 5769,
      "preparation": 5770,
      "absence": 5771,
      "circum": 5772,
      "Dodger": 5773,
      "cemetery": 5774,
      "happened": 5775,
      "equipped": 5776,
      "electron": 5777,
      "powered": 5778,
      "challenge": 5779,
      "Malaysia": 5780,
      "treaty": 5781,
      "assistant": 5782,
      "property": 5783,
      "escape": 5784,
      "occasion": 5785,
      "pursue": 5786,
      "Veeru": 5787,
      "battery": 5788,
      "Democratic": 5789,
      "promotion": 5790,
      "independent": 5791,
      "instruments": 5792,
      "Croatian": 5793,
      "collapsed": 5794,
      "frigates": 5795,
      "elsewhere": 5796,
      "Slamm": 5797,
      "Douglas": 5798,
      "duties": 5799,
      "Confederate": 5800,
      "Tennant": 5801,
      "beyond": 5802,
      "assembled": 5803,
      "sufficient": 5804,
      "accompanied": 5805,
      "Kevin": 5806,
      "parents": 5807,
      "integr": 5808,
      "equivalent": 5809,
      "ZIPRA": 5810,
      "Cy": 5811,
      "DC": 5812,
      "Dick": 5813,
      "Drenstein": 5814,
      "Eu": 5815,
      "Ez": 5816,
      "Greek": 5817,
      "Hark": 5818,
      "Hann": 5819,
      "IN": 5820,
      "Ign": 5821,
      "Kid": 5822,
      "Kiss": 5823,
      "Lom": 5824,
      "Lower": 5825,
      "SM": 5826,
      "Sav": 5827,
      "Snow": 5828,
      "Vent": 5829,
      "Wy": 5830,
      "Wall": 5831,
      "ao": 5832,
      "bay": 5833,
      "brown": 5834,
      "cot": 5835,
      "dn": 5836,
      "dream": 5837,
      "fair": 5838,
      "farm": 5839,
      "gri": 5840,
      "girl": 5841,
      "iet": 5842,
      "iers": 5843,
      "ko": 5844,
      "ket": 5845,
      "nick": 5846,
      "vul": 5847,
      "vice": 5848,
      "virt": 5849,
      "yer": 5850,
      "tham": 5851,
      "inated": 5852,
      "invent": 5853,
      "inspir": 5854,
      "encies": 5855,
      "stances": 5856,
      "hear": 5857,
      "leMania": 5858,
      "amer": 5859,
      "terror": 5860,
      "ules": 5861,
      "ulations": 5862,
      "opin": 5863,
      "shared": 5864,
      "lift": 5865,
      "quant": 5866,
      "expect": 5867,
      "ishu": 5868,
      "oured": 5869,
      "geo": 5870,
      "ift": 5871,
      "ifying": 5872,
      "achute": 5873,
      "aug": 5874,
      "auto": 5875,
      "viation": 5876,
      "possibly": 5877,
      "monit": 5878,
      "speak": 5879,
      "Newman": 5880,
      "cars": 5881,
      "singles": 5882,
      "suppor": 5883,
      "Deange": 5884,
      "Warbrick": 5885,
      "gameplay": 5886,
      "velop": 5887,
      "closer": 5888,
      "restrial": 5889,
      "cyclo": 5890,
      "cannot": 5891,
      "signature": 5892,
      "Colossal": 5893,
      "covering": 5894,
      "iths": 5895,
      "barric": 5896,
      "publication": 5897,
      "RAF": 5898,
      "Christopher": 5899,
      "readn": 5900,
      "allows": 5901,
      "specifically": 5902,
      "stands": 5903,
      "believe": 5904,
      "falling": 5905,
      "lanes": 5906,
      "avalry": 5907,
      "massive": 5908,
      "generated": 5909,
      "atorial": 5910,
      "combination": 5911,
      "Harrison": 5912,
      "basal": 5913,
      "importance": 5914,
      "painted": 5915,
      "culated": 5916,
      "seeing": 5917,
      "itarian": 5918,
      "Jews": 5919,
      "Hollywood": 5920,
      "Belly": 5921,
      "Daniel": 5922,
      "businesses": 5923,
      "animal": 5924,
      "Vienn": 5925,
      "executive": 5926,
      "railroad": 5927,
      "stituted": 5928,
      "reasons": 5929,
      "suitable": 5930,
      "dominated": 5931,
      "achieved": 5932,
      "architecture": 5933,
      "drums": 5934,
      "Official": 5935,
      "Ferdin": 5936,
      "encountered": 5937,
      "apparently": 5938,
      "WrestleMania": 5939,
      "controversy": 5940,
      "secure": 5941,
      "false": 5942,
      "reinforcements": 5943,
      "aerodromes": 5944,
      "Irish": 5945,
      "vertebrae": 5946,
      "remnants": 5947,
      "impedance": 5948,
      "psych": 5949,
      "survivors": 5950,
      "appropriate": 5951,
      "entitled": 5952,
      "awiil": 5953,
      "Streets": 5954,
      "Slammiversary": 5955,
      "Deangelo": 5956,
      "Ferdinand": 5957,
      "Aviation": 5958,
      "BI": 5959,
      "Boul": 5960,
      "Che": 5961,
      "Crit": 5962,
      "Dol": 5963,
      "Est": 5964,
      "Fats": 5965,
      "Flower": 5966,
      "Hal": 5967,
      "Jud": 5968,
      "Jai": 5969,
      "Kon": 5970,
      "Kim": 5971,
      "Let": 5972,
      "Line": 5973,
      "Law": 5974,
      "Luz": 5975,
      "Name": 5976,
      "PE": 5977,
      "Petr": 5978,
      "Top": 5979,
      "Tra": 5980,
      "Tank": 5981,
      "aung": 5982,
      "bone": 5983,
      "cz": 5984,
      "dating": 5985,
      "gren": 5986,
      "hun": 5987,
      "iest": 5988,
      "iqu": 5989,
      "iations": 5990,
      "ji": 5991,
      "jan": 5992,
      "lad": 5993,
      "mes": 5994,
      "nut": 5995,
      "nik": 5996,
      "oing": 5997,
      "sens": 5998,
      "sails": 5999,
      "ued": 6000,
      "uate": 6001,
      "inx": 6002,
      "income": 6003,
      "rejected": 6004,
      "rebellion": 6005,
      "atropical": 6006,
      "stor": 6007,
      "icus": 6008,
      "hearing": 6009,
      "leaf": 6010,
      "adishu": 6011,
      "sets": 6012,
      "semi": 6013,
      "amate": 6014,
      "beach": 6015,
      "los": 6016,
      "university": 6017,
      "unsuccessful": 6018,
      "rik": 6019,
      "resumed": 6020,
      "etch": 6021,
      "uty": 6022,
      "opposition": 6023,
      "share": 6024,
      "emb": 6025,
      "prosecut": 6026,
      "clash": 6027,
      "outbreak": 6028,
      "avia": 6029,
      "iana": 6030,
      "overseas": 6031,
      "essential": 6032,
      "Story": 6033,
      "Stones": 6034,
      "Stadium": 6035,
      "Heaven": 6036,
      "intent": 6037,
      "intention": 6038,
      "sche": 6039,
      "scient": 6040,
      "scope": 6041,
      "guil": 6042,
      "recalled": 6043,
      "compon": 6044,
      "compar": 6045,
      "afterwards": 6046,
      "Thail": 6047,
      "disput": 6048,
      "cris": 6049,
      "prep": 6050,
      "Robin": 6051,
      "icks": 6052,
      "underwent": 6053,
      "singing": 6054,
      "followers": 6055,
      "surve": 6056,
      "counts": 6057,
      "capac": 6058,
      "Who": 6059,
      "anniversary": 6060,
      "memory": 6061,
      "Assembly": 6062,
      "poll": 6063,
      "writes": 6064,
      "depth": 6065,
      "restored": 6066,
      "tribute": 6067,
      "leadership": 6068,
      "offices": 6069,
      "Forces": 6070,
      "prompted": 6071,
      "marri": 6072,
      "publications": 6073,
      "fields": 6074,
      "Coal": 6075,
      "simple": 6076,
      "inking": 6077,
      "autiful": 6078,
      "breaking": 6079,
      "Produ": 6080,
      "quez": 6081,
      "suggesting": 6082,
      "Headquarters": 6083,
      "CAT": 6084,
      "baseball": 6085,
      "patri": 6086,
      "Depression": 6087,
      "finds": 6088,
      "Years": 6089,
      "nyong": 6090,
      "Earth": 6091,
      "driving": 6092,
      "temporarily": 6093,
      "install": 6094,
      "Filip": 6095,
      "motion": 6096,
      "difficulty": 6097,
      "satellite": 6098,
      "technical": 6099,
      "garrison": 6100,
      "Bobby": 6101,
      "recognized": 6102,
      "Medway": 6103,
      "rooms": 6104,
      "improved": 6105,
      "credited": 6106,
      "keeping": 6107,
      "Peninsula": 6108,
      "extratropical": 6109,
      "predomin": 6110,
      "hills": 6111,
      "literature": 6112,
      "repaired": 6113,
      "powers": 6114,
      "Prior": 6115,
      "demonstrated": 6116,
      "picked": 6117,
      "source": 6118,
      "joining": 6119,
      "drove": 6120,
      "applied": 6121,
      "Magazine": 6122,
      "streets": 6123,
      "argues": 6124,
      "memorials": 6125,
      "filled": 6126,
      "territory": 6127,
      "attracted": 6128,
      "sacrif": 6129,
      "Territ": 6130,
      "Zrnyi": 6131,
      "rarely": 6132,
      "thirty": 6133,
      "Changnyong": 6134,
      "freedom": 6135,
      "opponents": 6136,
      "Ohio": 6137,
      "opportunity": 6138,
      "illustr": 6139,
      "Entertainment": 6140,
      "Welsh": 6141,
      "website": 6142,
      "Georgia": 6143,
      "institutions": 6144,
      "Catholic": 6145,
      "Mogadishu": 6146,
      "Grammy": 6147,
      "Ezra": 6148,
      "velopment": 6149,
      "Vienna": 6150,
      "Boulter": 6151,
      "amateur": 6152,
      "Thailand": 6153,
      "Bou": 6154,
      "Branch": 6155,
      "Cel": 6156,
      "Cze": 6157,
      "Cinem": 6158,
      "Der": 6159,
      "Ep": 6160,
      "Gord": 6161,
      "JN": 6162,
      "Kou": 6163,
      "Kansas": 6164,
      "Lew": 6165,
      "Lakes": 6166,
      "Mot": 6167,
      "Nash": 6168,
      "Pho": 6169,
      "Ret": 6170,
      "Rud": 6171,
      "Sche": 6172,
      "Stour": 6173,
      "Sorry": 6174,
      "UC": 6175,
      "Wes": 6176,
      "Wing": 6177,
      "Women": 6178,
      "crop": 6179,
      "da": 6180,
      "hou": 6181,
      "hus": 6182,
      "hier": 6183,
      "lined": 6184,
      "mess": 6185,
      "mud": 6186,
      "mint": 6187,
      "master": 6188,
      "muzz": 6189,
      "tle": 6190,
      "uct": 6191,
      "ugg": 6192,
      "vin": 6193,
      "vac": 6194,
      "wr": 6195,
      "yle": 6196,
      "analysis": 6197,
      "onica": 6198,
      "remarked": 6199,
      "resembl": 6200,
      "atures": 6201,
      "ensure": 6202,
      "arsenal": 6203,
      "itated": 6204,
      "icon": 6205,
      "iced": 6206,
      "ician": 6207,
      "accompl": 6208,
      "entially": 6209,
      "amor": 6210,
      "ambass": 6211,
      "bears": 6212,
      "beauty": 6213,
      "chor": 6214,
      "impl": 6215,
      "tetrap": 6216,
      "ults": 6217,
      "apes": 6218,
      "rifl": 6219,
      "oting": 6220,
      "resour": 6221,
      "opo": 6222,
      "shadow": 6223,
      "tru": 6224,
      "trail": 6225,
      "Institute": 6226,
      "illas": 6227,
      "pole": 6228,
      "permission": 6229,
      "perfect": 6230,
      "stronom": 6231,
      "aste": 6232,
      "ods": 6233,
      "mann": 6234,
      "ears": 6235,
      "inea": 6236,
      "owners": 6237,
      "Stork": 6238,
      "iff": 6239,
      "landsc": 6240,
      "containing": 6241,
      "recre": 6242,
      "Ann": 6243,
      "maintenance": 6244,
      "interaction": 6245,
      "ulture": 6246,
      "Arts": 6247,
      "someone": 6248,
      "somewhat": 6249,
      "whereas": 6250,
      "obtain": 6251,
      "locations": 6252,
      "dram": 6253,
      "Beatri": 6254,
      "ferry": 6255,
      "tribe": 6256,
      "triple": 6257,
      "appearing": 6258,
      "defences": 6259,
      "talk": 6260,
      "tolog": 6261,
      "Guard": 6262,
      "Guinea": 6263,
      "aimed": 6264,
      "chem": 6265,
      "simply": 6266,
      "membership": 6267,
      "visitors": 6268,
      "limit": 6269,
      "dense": 6270,
      "reviewer": 6271,
      "equal": 6272,
      "Charlie": 6273,
      "Love": 6274,
      "oxy": 6275,
      "Prime": 6276,
      "styles": 6277,
      "victories": 6278,
      "ruler": 6279,
      "approaching": 6280,
      "patron": 6281,
      "evacuated": 6282,
      "popularity": 6283,
      "clearly": 6284,
      "Buff": 6285,
      "Portland": 6286,
      "Belg": 6287,
      "residential": 6288,
      "multi": 6289,
      "Southeast": 6290,
      "credit": 6291,
      "Longacre": 6292,
      "prede": 6293,
      "steps": 6294,
      "Imagism": 6295,
      "Services": 6296,
      "carriers": 6297,
      "mounts": 6298,
      "lifted": 6299,
      "Queen": 6300,
      "committee": 6301,
      "schedule": 6302,
      "architectural": 6303,
      "sailors": 6304,
      "Campaign": 6305,
      "Veronica": 6306,
      "Booker": 6307,
      "archaeological": 6308,
      "Cambridge": 6309,
      "batteries": 6310,
      "throne": 6311,
      "stayed": 6312,
      "Similar": 6313,
      "feeling": 6314,
      "excavated": 6315,
      "bulk": 6316,
      "instrument": 6317,
      "split": 6318,
      "environmental": 6319,
      "Mike": 6320,
      "safe": 6321,
      "believing": 6322,
      "Studio": 6323,
      "liked": 6324,
      "Eliot": 6325,
      "Taiwan": 6326,
      "Broadway": 6327,
      "candidate": 6328,
      "convinced": 6329,
      "recommended": 6330,
      "Burnham": 6331,
      "bombardment": 6332,
      "Review": 6333,
      "fungus": 6334,
      "bridges": 6335,
      "rugby": 6336,
      "achieve": 6337,
      "Joshua": 6338,
      "Harken": 6339,
      "Venta": 6340,
      "Luzon": 6341,
      "prepare": 6342,
      "Coalition": 6343,
      "Czech": 6344,
      "Gordon": 6345,
      "muzzle": 6346,
      "Beatriz": 6347,
      "Agency": 6348,
      "Brist": 6349,
      "Cop": 6350,
      "Chad": 6351,
      "Dun": 6352,
      "Dio": 6353,
      "FL": 6354,
      "Fam": 6355,
      "Han": 6356,
      "Hon": 6357,
      "Hom": 6358,
      "Hel": 6359,
      "IJN": 6360,
      "Jam": 6361,
      "Jones": 6362,
      "Kem": 6363,
      "Knight": 6364,
      "Ly": 6365,
      "Mun": 6366,
      "Mod": 6367,
      "Moul": 6368,
      "Nam": 6369,
      "Ot": 6370,
      "Pan": 6371,
      "Pas": 6372,
      "Pier": 6373,
      "Prote": 6374,
      "Sk": 6375,
      "Simp": 6376,
      "TE": 6377,
      "Ta": 6378,
      "Tu": 6379,
      "Tan": 6380,
      "Win": 6381,
      "athe": 6382,
      "bout": 6383,
      "baland": 6384,
      "eg": 6385,
      "ease": 6386,
      "fine": 6387,
      "gent": 6388,
      "hall": 6389,
      "ias": 6390,
      "pes": 6391,
      "vard": 6392,
      "wave": 6393,
      "zer": 6394,
      "zen": 6395,
      "zher": 6396,
      "zog": 6397,
      "renew": 6398,
      "remember": 6399,
      "reagents": 6400,
      "enemies": 6401,
      "ardi": 6402,
      "tos": 6403,
      "touring": 6404,
      "leman": 6405,
      "admitted": 6406,
      "seal": 6407,
      "omo": 6408,
      "beating": 6409,
      "bels": 6410,
      "begun": 6411,
      "depos": 6412,
      "deterior": 6413,
      "igation": 6414,
      "imple": 6415,
      "imination": 6416,
      "impressed": 6417,
      "terrestrial": 6418,
      "concre": 6419,
      "confront": 6420,
      "rier": 6421,
      "rior": 6422,
      "ries": 6423,
      "plates": 6424,
      "neath": 6425,
      "propos": 6426,
      "proceed": 6427,
      "diver": 6428,
      "diame": 6429,
      "dialo": 6430,
      "illance": 6431,
      "aved": 6432,
      "acknow": 6433,
      "iven": 6434,
      "twelve": 6435,
      "Cho": 6436,
      "assess": 6437,
      "assumed": 6438,
      "awn": 6439,
      "uding": 6440,
      "aux": 6441,
      "reech": 6442,
      "spik": 6443,
      "offers": 6444,
      "Thak": 6445,
      "mont": 6446,
      "phil": 6447,
      "cessive": 6448,
      "crime": 6449,
      "Around": 6450,
      "anyone": 6451,
      "finals": 6452,
      "ogs": 6453,
      "USD": 6454,
      "shel": 6455,
      "mines": 6456,
      "warfare": 6457,
      "council": 6458,
      "Beth": 6459,
      "operational": 6460,
      "westward": 6461,
      "engagement": 6462,
      "Boss": 6463,
      "trie": 6464,
      "didn": 6465,
      "Sheela": 6466,
      "transl": 6467,
      "Steve": 6468,
      "ashion": 6469,
      "xture": 6470,
      "strikes": 6471,
      "planes": 6472,
      "ricts": 6473,
      "grounds": 6474,
      "solid": 6475,
      "Training": 6476,
      "retre": 6477,
      "Acropolis": 6478,
      "gliders": 6479,
      "cheek": 6480,
      "provides": 6481,
      "providing": 6482,
      "green": 6483,
      "humans": 6484,
      "targets": 6485,
      "representing": 6486,
      "Amun": 6487,
      "telling": 6488,
      "politics": 6489,
      "spirit": 6490,
      "Interstate": 6491,
      "Buin": 6492,
      "civilian": 6493,
      "penal": 6494,
      "association": 6495,
      "poetic": 6496,
      "instance": 6497,
      "loading": 6498,
      "coaching": 6499,
      "interests": 6500,
      "recognition": 6501,
      "recognised": 6502,
      "harbour": 6503,
      "threatened": 6504,
      "results": 6505,
      "violent": 6506,
      "Timbaland": 6507,
      "History": 6508,
      "withdrawn": 6509,
      "extension": 6510,
      "Pope": 6511,
      "printing": 6512,
      "routes": 6513,
      "repairs": 6514,
      "Triple": 6515,
      "replacing": 6516,
      "objects": 6517,
      "indicating": 6518,
      "Erzher": 6519,
      "archaeologists": 6520,
      "mobil": 6521,
      "mobile": 6522,
      "territories": 6523,
      "wrestling": 6524,
      "Croatia": 6525,
      "playoffs": 6526,
      "Howard": 6527,
      "Olympics": 6528,
      "surprise": 6529,
      "debate": 6530,
      "satisf": 6531,
      "challenged": 6532,
      "intersects": 6533,
      "Community": 6534,
      "Stephen": 6535,
      "nitro": 6536,
      "conventional": 6537,
      "Complex": 6538,
      "Virgin": 6539,
      "circumstances": 6540,
      "crisis": 6541,
      "predecess": 6542,
      "Bristol": 6543,
      "Moultrie": 6544,
      "diameter": 6545,
      "Erzherzog": 6546,
      "CH": 6547,
      "Cir": 6548,
      "Call": 6549,
      "DS": 6550,
      "Dvor": 6551,
      "Fame": 6552,
      "Flot": 6553,
      "FBI": 6554,
      "Gal": 6555,
      "Gro": 6556,
      "Games": 6557,
      "HD": 6558,
      "Hud": 6559,
      "Jay": 6560,
      "Ki": 6561,
      "Key": 6562,
      "LA": 6563,
      "Lan": 6564,
      "Lam": 6565,
      "Lord": 6566,
      "NG": 6567,
      "Ni": 6568,
      "Nu": 6569,
      "Never": 6570,
      "NBC": 6571,
      "Right": 6572,
      "Such": 6573,
      "Seven": 6574,
      "Sevent": 6575,
      "Tun": 6576,
      "Yax": 6577,
      "Yunn": 6578,
      "bard": 6579,
      "bud": 6580,
      "bond": 6581,
      "breech": 6582,
      "cold": 6583,
      "citing": 6584,
      "dden": 6585,
      "easy": 6586,
      "fashion": 6587,
      "jam": 6588,
      "lit": 6589,
      "mut": 6590,
      "oh": 6591,
      "oak": 6592,
      "pent": 6593,
      "pack": 6594,
      "pounder": 6595,
      "picture": 6596,
      "sle": 6597,
      "til": 6598,
      "tort": 6599,
      "tone": 6600,
      "ux": 6601,
      "thm": 6602,
      "inum": 6603,
      "inland": 6604,
      "inations": 6605,
      "rebuilt": 6606,
      "remix": 6607,
      "orai": 6608,
      "enh": 6609,
      "ensu": 6610,
      "encour": 6611,
      "stab": 6612,
      "itime": 6613,
      "islands": 6614,
      "icit": 6615,
      "acles": 6616,
      "seemed": 6617,
      "amid": 6618,
      "omine": 6619,
      "uri": 6620,
      "channel": 6621,
      "impression": 6622,
      "tels": 6623,
      "congreg": 6624,
      "agu": 6625,
      "agency": 6626,
      "usz": 6627,
      "opposed": 6628,
      "Indig": 6629,
      "neo": 6630,
      "estic": 6631,
      "lip": 6632,
      "exh": 6633,
      "attle": 6634,
      "aws": 6635,
      "ewise": 6636,
      "eval": 6637,
      "intense": 6638,
      "scream": 6639,
      "brigade": 6640,
      "Third": 6641,
      "phone": 6642,
      "nothing": 6643,
      "Unlike": 6644,
      "disrup": 6645,
      "dispatch": 6646,
      "arked": 6647,
      "creen": 6648,
      "pton": 6649,
      "ptions": 6650,
      "intermedi": 6651,
      "ictures": 6652,
      "amps": 6653,
      "minimum": 6654,
      "Shop": 6655,
      "energy": 6656,
      "symp": 6657,
      "product": 6658,
      "backs": 6659,
      "Beij": 6660,
      "elevation": 6661,
      "writings": 6662,
      "engage": 6663,
      "publish": 6664,
      "designation": 6665,
      "leads": 6666,
      "leaders": 6667,
      "defenders": 6668,
      "succeeded": 6669,
      "Conf": 6670,
      "Maria": 6671,
      "ska": 6672,
      "Polit": 6673,
      "ologist": 6674,
      "classes": 6675,
      "mayor": 6676,
      "retreat": 6677,
      "Burke": 6678,
      "Web": 6679,
      "strongest": 6680,
      "movements": 6681,
      "aulted": 6682,
      "oxaziridines": 6683,
      "influences": 6684,
      "invited": 6685,
      "Scot": 6686,
      "grams": 6687,
      "footage": 6688,
      "Operations": 6689,
      "gradually": 6690,
      "concerts": 6691,
      "Underground": 6692,
      "greatly": 6693,
      "bombers": 6694,
      "charts": 6695,
      "criticism": 6696,
      "Minnes": 6697,
      "lacked": 6698,
      "Liber": 6699,
      "Hotel": 6700,
      "bonus": 6701,
      "transported": 6702,
      "Final": 6703,
      "Goat": 6704,
      "View": 6705,
      "conclusion": 6706,
      "doub": 6707,
      "strategy": 6708,
      "ADF": 6709,
      "atrach": 6710,
      "nomination": 6711,
      "amphibious": 6712,
      "Krabs": 6713,
      "Sarah": 6714,
      "flowers": 6715,
      "aerial": 6716,
      "printed": 6717,
      "Singh": 6718,
      "digital": 6719,
      "altern": 6720,
      "southeastern": 6721,
      "exhibition": 6722,
      "chambers": 6723,
      "assistance": 6724,
      "reflect": 6725,
      "objective": 6726,
      "Supreme": 6727,
      "argued": 6728,
      "Officer": 6729,
      "interpret": 6730,
      "interpreted": 6731,
      "rescue": 6732,
      "premiere": 6733,
      "controversi": 6734,
      "galiths": 6735,
      "Hongorai": 6736,
      "opposite": 6737,
      "commemor": 6738,
      "Forest": 6739,
      "extremely": 6740,
      "ethnic": 6741,
      "faith": 6742,
      "incorporated": 6743,
      "Fairies": 6744,
      "rabbi": 6745,
      "smooth": 6746,
      "tunnel": 6747,
      "eliminated": 6748,
      "Secretary": 6749,
      "isolated": 6750,
      "guerrillas": 6751,
      "athletes": 6752,
      "Originally": 6753,
      "RFU": 6754,
      "modified": 6755,
      "narrative": 6756,
      "fixed": 6757,
      "vulner": 6758,
      "barricades": 6759,
      "capacity": 6760,
      "marriage": 6761,
      "Territory": 6762,
      "resources": 6763,
      "Buffalo": 6764,
      "concrete": 6765,
      "spikes": 6766,
      "Thakur": 6767,
      "Virginia": 6768,
      "Dvorak": 6769,
      "Yunnan": 6770,
      "Minnesota": 6771,
      "Basketball": 6772,
      "Core": 6773,
      "Cra": 6774,
      "Det": 6775,
      "DIS": 6776,
      "Fight": 6777,
      "Flight": 6778,
      "HS": 6779,
      "Jason": 6780,
      "Kin": 6781,
      "Kut": 6782,
      "Kings": 6783,
      "MTV": 6784,
      "Nk": 6785,
      "Part": 6786,
      "Plan": 6787,
      "Patri": 6788,
      "Rain": 6789,
      "Rail": 6790,
      "SMS": 6791,
      "Tres": 6792,
      "Treat": 6793,
      "TOT": 6794,
      "Ves": 6795,
      "Vick": 6796,
      "Vik": 6797,
      "Wol": 6798,
      "bore": 6799,
      "cance": 6800,
      "cinem": 6801,
      "cavalry": 6802,
      "driver": 6803,
      "fur": 6804,
      "glo": 6805,
      "gate": 6806,
      "hr": 6807,
      "iod": 6808,
      "kick": 6809,
      "mir": 6810,
      "mmet": 6811,
      "mund": 6812,
      "pas": 6813,
      "pale": 6814,
      "tight": 6815,
      "uge": 6816,
      "va": 6817,
      "vals": 6818,
      "votes": 6819,
      "winter": 6820,
      "wise": 6821,
      "yo": 6822,
      "zquez": 6823,
      "inth": 6824,
      "theaters": 6825,
      "ano": 6826,
      "eria": 6827,
      "remark": 6828,
      "reactions": 6829,
      "represents": 6830,
      "orb": 6831,
      "encing": 6832,
      "ici": 6833,
      "heat": 6834,
      "sect": 6835,
      "bee": 6836,
      "olitan": 6837,
      "veget": 6838,
      "imprison": 6839,
      "loose": 6840,
      "wider": 6841,
      "conversion": 6842,
      "constitution": 6843,
      "apore": 6844,
      "umes": 6845,
      "plate": 6846,
      "iston": 6847,
      "ophy": 6848,
      "abilities": 6849,
      "mospher": 6850,
      "nee": 6851,
      "ongoing": 6852,
      "akm": 6853,
      "sie": 6854,
      "sius": 6855,
      "sized": 6856,
      "ldogs": 6857,
      "exchange": 6858,
      "astic": 6859,
      "affil": 6860,
      "assists": 6861,
      "actual": 6862,
      "rituals": 6863,
      "owner": 6864,
      "portions": 6865,
      "prin": 6866,
      "merchant": 6867,
      "landers": 6868,
      "scattered": 6869,
      "parties": 6870,
      "ureau": 6871,
      "preserved": 6872,
      "rence": 6873,
      "blues": 6874,
      "dismissed": 6875,
      "cos": 6876,
      "speaking": 6877,
      "minimal": 6878,
      "Sho": 6879,
      "warship": 6880,
      "consol": 6881,
      "fourteen": 6882,
      "highways": 6883,
      "supposed": 6884,
      "Recording": 6885,
      "products": 6886,
      "ustler": 6887,
      "Beat": 6888,
      "operates": 6889,
      "Leon": 6890,
      "completion": 6891,
      "persisted": 6892,
      "receive": 6893,
      "northward": 6894,
      "Constitution": 6895,
      "poration": 6896,
      "Carter": 6897,
      "musicians": 6898,
      "Indies": 6899,
      "talks": 6900,
      "districts": 6901,
      "topped": 6902,
      "Guerr": 6903,
      "Blues": 6904,
      "organisation": 6905,
      "weekend": 6906,
      "gene": 6907,
      "famili": 6908,
      "tested": 6909,
      "casem": 6910,
      "humor": 6911,
      "visual": 6912,
      "titles": 6913,
      "Weevil": 6914,
      "communication": 6915,
      "Charlot": 6916,
      "Amend": 6917,
      "moderate": 6918,
      "refers": 6919,
      "Order": 6920,
      "statement": 6921,
      "Duke": 6922,
      "rules": 6923,
      "temnospondyl": 6924,
      "Bulldogs": 6925,
      "Exeter": 6926,
      "finding": 6927,
      "belt": 6928,
      "Corporation": 6929,
      "commerce": 6930,
      "Library": 6931,
      "treasure": 6932,
      "secured": 6933,
      "transportation": 6934,
      "commentary": 6935,
      "motor": 6936,
      "motif": 6937,
      "connection": 6938,
      "participate": 6939,
      "racing": 6940,
      "travel": 6941,
      "settlers": 6942,
      "practices": 6943,
      "Zealanders": 6944,
      "banks": 6945,
      "peton": 6946,
      "strikeout": 6947,
      "Mori": 6948,
      "atrical": 6949,
      "contribution": 6950,
      "portrait": 6951,
      "Horrible": 6952,
      "palace": 6953,
      "Brooke": 6954,
      "phase": 6955,
      "Valent": 6956,
      "measure": 6957,
      "Singapore": 6958,
      "Lieber": 6959,
      "acquired": 6960,
      "convicted": 6961,
      "Preclassic": 6962,
      "Support": 6963,
      "escaped": 6964,
      "Eleph": 6965,
      "younger": 6966,
      "extensively": 6967,
      "Akron": 6968,
      "Glass": 6969,
      "negative": 6970,
      "Hyga": 6971,
      "imagery": 6972,
      "concentrated": 6973,
      "Furthermore": 6974,
      "Zapata": 6975,
      "Zapotes": 6976,
      "restrict": 6977,
      "opposing": 6978,
      "Berlin": 6979,
      "volunteers": 6980,
      "Somal": 6981,
      "seeking": 6982,
      "knocked": 6983,
      "tactics": 6984,
      "Baby": 6985,
      "Freder": 6986,
      "Watson": 6987,
      "Jenny": 6988,
      "Krosa": 6989,
      "vicinity": 6990,
      "teorological": 6991,
      "Albums": 6992,
      "Against": 6993,
      "byrinthodon": 6994,
      "rhythm": 6995,
      "Hurricane": 6996,
      "arrangement": 6997,
      "Rossen": 6998,
      "virtually": 6999,
      "disputed": 7000,
      "Robinson": 7001,
      "husband": 7002,
      "tetrapods": 7003,
      "Beijing": 7004,
      "Nkomo": 7005,
      "Guerrero": 7006,
      "familiar": 7007,
      "Charlotte": 7008,
      "Ao": 7009,
      "Ald": 7010,
      "Age": 7011,
      "Bush": 7012,
      "Blood": 7013,
      "Cot": 7014,
      "Cem": 7015,
      "Dale": 7016,
      "Flanders": 7017,
      "Gambia": 7018,
      "Hin": 7019,
      "Hus": 7020,
      "Ich": 7021,
      "Kok": 7022,
      "Mall": 7023,
      "Power": 7024,
      "Pusan": 7025,
      "Rum": 7026,
      "Rem": 7027,
      "Randy": 7028,
      "Rules": 7029,
      "RDIS": 7030,
      "Sel": 7031,
      "Soon": 7032,
      "Va": 7033,
      "Vol": 7034,
      "Villa": 7035,
      "cab": 7036,
      "citiz": 7037,
      "dang": 7038,
      "eag": 7039,
      "fo": 7040,
      "hed": 7041,
      "hot": 7042,
      "mist": 7043,
      "mian": 7044,
      "ners": 7045,
      "pel": 7046,
      "rus": 7047,
      "riding": 7048,
      "rushed": 7049,
      "sam": 7050,
      "sop": 7051,
      "sunk": 7052,
      "soft": 7053,
      "tub": 7054,
      "uable": 7055,
      "vary": 7056,
      "ware": 7057,
      "wich": 7058,
      "wish": 7059,
      "warm": 7060,
      "whel": 7061,
      "ylide": 7062,
      "zones": 7063,
      "threw": 7064,
      "inas": 7065,
      "intr": 7066,
      "infr": 7067,
      "theatrical": 7068,
      "reput": 7069,
      "ora": 7070,
      "enforce": 7071,
      "sted": 7072,
      "stable": 7073,
      "arranged": 7074,
      "ingly": 7075,
      "itude": 7076,
      "iling": 7077,
      "ads": 7078,
      "accompany": 7079,
      "ented": 7080,
      "sevent": 7081,
      "beats": 7082,
      "urong": 7083,
      "chiral": 7084,
      "veloc": 7085,
      "immig": 7086,
      "ternal": 7087,
      "consc": 7088,
      "agencies": 7089,
      "apt": 7090,
      "riff": 7091,
      "owski": 7092,
      "elder": 7093,
      "romed": 7094,
      "romantic": 7095,
      "sudden": 7096,
      "shar": 7097,
      "abama": 7098,
      "allies": 7099,
      "trunk": 7100,
      "peaking": 7101,
      "express": 7102,
      "strict": 7103,
      "outing": 7104,
      "iano": 7105,
      "afts": 7106,
      "Chart": 7107,
      "assisted": 7108,
      "actress": 7109,
      "udo": 7110,
      "principal": 7111,
      "boards": 7112,
      "scan": 7113,
      "Author": 7114,
      "airspace": 7115,
      "pressing": 7116,
      "monsoon": 7117,
      "renov": 7118,
      "phal": 7119,
      "dispers": 7120,
      "Anth": 7121,
      "Anand": 7122,
      "mainland": 7123,
      "commune": 7124,
      "workers": 7125,
      "fled": 7126,
      "armies": 7127,
      "submitted": 7128,
      "warned": 7129,
      "Alan": 7130,
      "Along": 7131,
      "Alabama": 7132,
      "ropolitan": 7133,
      "Warren": 7134,
      "Warrior": 7135,
      "releases": 7136,
      "drug": 7137,
      "annually": 7138,
      "Beach": 7139,
      "naments": 7140,
      "viewers": 7141,
      "volcan": 7142,
      "ruins": 7143,
      "restoration": 7144,
      "calls": 7145,
      "decade": 7146,
      "perspect": 7147,
      "Marcus": 7148,
      "sketch": 7149,
      "Poles": 7150,
      "musician": 7151,
      "nationalist": 7152,
      "ologa": 7153,
      "classical": 7154,
      "Isis": 7155,
      "retire": 7156,
      "videos": 7157,
      "McK": 7158,
      "McMah": 7159,
      "specim": 7160,
      "ippy": 7161,
      "corps": 7162,
      "communities": 7163,
      "arrive": 7164,
      "refuge": 7165,
      "Prague": 7166,
      "Calakm": 7167,
      "similarly": 7168,
      "Andromed": 7169,
      "currency": 7170,
      "rocks": 7171,
      "Exit": 7172,
      "aboard": 7173,
      "Parker": 7174,
      "banned": 7175,
      "cussion": 7176,
      "incidents": 7177,
      "Nether": 7178,
      "expans": 7179,
      "graphic": 7180,
      "Ministry": 7181,
      "Engine": 7182,
      "Mexican": 7183,
      "broadside": 7184,
      "summit": 7185,
      "races": 7186,
      "uzov": 7187,
      "reveals": 7188,
      "platinum": 7189,
      "immediate": 7190,
      "clubs": 7191,
      "sauria": 7192,
      "Columbia": 7193,
      "stitutional": 7194,
      "happy": 7195,
      "Valley": 7196,
      "bourne": 7197,
      "Sunday": 7198,
      "commitment": 7199,
      "alyst": 7200,
      "Archae": 7201,
      "discussed": 7202,
      "independence": 7203,
      "secretary": 7204,
      "churches": 7205,
      "experiment": 7206,
      "possession": 7207,
      "severely": 7208,
      "linked": 7209,
      "chairman": 7210,
      "Appe": 7211,
      "Wrestling": 7212,
      "frigate": 7213,
      "grossing": 7214,
      "Lowe": 7215,
      "mortar": 7216,
      "Alexander": 7217,
      "AIM": 7218,
      "Winds": 7219,
      "temperature": 7220,
      "TARDIS": 7221,
      "administration": 7222,
      "navies": 7223,
      "trouble": 7224,
      "Provisional": 7225,
      "militia": 7226,
      "Goebel": 7227,
      "Hamilton": 7228,
      "Olivia": 7229,
      "Velzquez": 7230,
      "stretch": 7231,
      "amboo": 7232,
      "Critics": 7233,
      "guilty": 7234,
      "surveillance": 7235,
      "Filipino": 7236,
      "Lewis": 7237,
      "landscape": 7238,
      "Bosses": 7239,
      "penalty": 7240,
      "Nevertheless": 7241,
      "Seventeen": 7242,
      "budget": 7243,
      "exhaust": 7244,
      "controversial": 7245,
      "Kutuzov": 7246,
      "Frederick": 7247,
      "AoT": 7248,
      "Vastra": 7249,
      "velocity": 7250,
      "conscious": 7251,
      "McMahon": 7252,
      "Calakmul": 7253,
      "Ave": 7254,
      "Action": 7255,
      "Bin": 7256,
      "Bureau": 7257,
      "CN": 7258,
      "Cu": 7259,
      "Clo": 7260,
      "Ev": 7261,
      "Fr": 7262,
      "Form": 7263,
      "Flet": 7264,
      "Fring": 7265,
      "Flying": 7266,
      "Hg": 7267,
      "Jup": 7268,
      "LB": 7269,
      "MI": 7270,
      "Ming": 7271,
      "Mumb": 7272,
      "Nan": 7273,
      "Net": 7274,
      "Nev": 7275,
      "Nint": 7276,
      "Oro": 7277,
      "Pi": 7278,
      "Piz": 7279,
      "Patter": 7280,
      "Rel": 7281,
      "Sl": 7282,
      "Ster": 7283,
      "Sippy": 7284,
      "Tre": 7285,
      "Tat": 7286,
      "Tot": 7287,
      "ZA": 7288,
      "Zambia": 7289,
      "aire": 7290,
      "aquatic": 7291,
      "bab": 7292,
      "bird": 7293,
      "cage": 7294,
      "dac": 7295,
      "dreadn": 7296,
      "fishing": 7297,
      "gills": 7298,
      "hulls": 7299,
      "jury": 7300,
      "kins": 7301,
      "lig": 7302,
      "lap": 7303,
      "mel": 7304,
      "mate": 7305,
      "mature": 7306,
      "nie": 7307,
      "oo": 7308,
      "pine": 7309,
      "rings": 7310,
      "squ": 7311,
      "sank": 7312,
      "ti": 7313,
      "wy": 7314,
      "yield": 7315,
      "yellow": 7316,
      "inHg": 7317,
      "anime": 7318,
      "ontolog": 7319,
      "alignment": 7320,
      "stown": 7321,
      "stern": 7322,
      "ari": 7323,
      "iti": 7324,
      "icate": 7325,
      "icial": 7326,
      "adult": 7327,
      "sees": 7328,
      "lyph": 7329,
      "wasn": 7330,
      "bearing": 7331,
      "determ": 7332,
      "veter": 7333,
      "conserv": 7334,
      "cease": 7335,
      "usively": 7336,
      "rive": 7337,
      "owed": 7338,
      "eta": 7339,
      "etor": 7340,
      "elly": 7341,
      "eline": 7342,
      "utt": 7343,
      "plants": 7344,
      "istan": 7345,
      "istant": 7346,
      "shi": 7347,
      "trait": 7348,
      "Init": 7349,
      "proto": 7350,
      "diag": 7351,
      "ighters": 7352,
      "clust": 7353,
      "ichi": 7354,
      "estyle": 7355,
      "permitted": 7356,
      "exer": 7357,
      "external": 7358,
      "ghan": 7359,
      "oda": 7360,
      "manner": 7361,
      "maneu": 7362,
      "iants": 7363,
      "ackDown": 7364,
      "overwhel": 7365,
      "earch": 7366,
      "feud": 7367,
      "attained": 7368,
      "gry": 7369,
      "grass": 7370,
      "Stu": 7371,
      "Stand": 7372,
      "firm": 7373,
      "hero": 7374,
      "spons": 7375,
      "Then": 7376,
      "ranking": 7377,
      "okes": 7378,
      "noise": 7379,
      "Univers": 7380,
      "coordin": 7381,
      "uez": 7382,
      "ocaust": 7383,
      "Rob": 7384,
      "undertaken": 7385,
      "forehead": 7386,
      "headstones": 7387,
      "ampa": 7388,
      "raid": 7389,
      "colour": 7390,
      "carving": 7391,
      "highlight": 7392,
      "goes": 7393,
      "Development": 7394,
      "Wars": 7395,
      "Warner": 7396,
      "Warsaw": 7397,
      "iki": 7398,
      "download": 7399,
      "longest": 7400,
      "closure": 7401,
      "cancer": 7402,
      "signing": 7403,
      "gusts": 7404,
      "defending": 7405,
      "Mario": 7406,
      "southward": 7407,
      "maritime": 7408,
      "commanding": 7409,
      "Guild": 7410,
      "describing": 7411,
      "clean": 7412,
      "Coleman": 7413,
      "Airborne": 7414,
      "vention": 7415,
      "standards": 7416,
      "provin": 7417,
      "starring": 7418,
      "putting": 7419,
      "unders": 7420,
      "grapher": 7421,
      "corner": 7422,
      "Poet": 7423,
      "authors": 7424,
      "camps": 7425,
      "Harbor": 7426,
      "collect": 7427,
      "refere": 7428,
      "directors": 7429,
      "Strong": 7430,
      "Strax": 7431,
      "Organ": 7432,
      "studied": 7433,
      "domestic": 7434,
      "Russell": 7435,
      "Period": 7436,
      "Caldwell": 7437,
      "laws": 7438,
      "Represent": 7439,
      "Russians": 7440,
      "Mont": 7441,
      "moral": 7442,
      "Norway": 7443,
      "calm": 7444,
      "caliber": 7445,
      "campaigns": 7446,
      "Holocaust": 7447,
      "Barrow": 7448,
      "meetings": 7449,
      "employe": 7450,
      "surrounded": 7451,
      "preced": 7452,
      "preceding": 7453,
      "settled": 7454,
      "interested": 7455,
      "kilome": 7456,
      "commonly": 7457,
      "session": 7458,
      "bombing": 7459,
      "stores": 7460,
      "capturing": 7461,
      "Quar": 7462,
      "saurs": 7463,
      "Horus": 7464,
      "propaganda": 7465,
      "subjects": 7466,
      "Wilson": 7467,
      "tombs": 7468,
      "guitarist": 7469,
      "electro": 7470,
      "electric": 7471,
      "powder": 7472,
      "watching": 7473,
      "exception": 7474,
      "protests": 7475,
      "Keith": 7476,
      "quartered": 7477,
      "occasions": 7478,
      "references": 7479,
      "Melbourne": 7480,
      "nucle": 7481,
      "nuclear": 7482,
      "timber": 7483,
      "funds": 7484,
      "Karl": 7485,
      "collapse": 7486,
      "normally": 7487,
      "delayed": 7488,
      "emphasis": 7489,
      "believes": 7490,
      "depicting": 7491,
      "Jersey": 7492,
      "Songs": 7493,
      "airfields": 7494,
      "flagship": 7495,
      "wreck": 7496,
      "recruited": 7497,
      "documentary": 7498,
      "exclusively": 7499,
      "carbonaria": 7500,
      "Cornwall": 7501,
      "SmackDown": 7502,
      "maskray": 7503,
      "removal": 7504,
      "constantly": 7505,
      "Industry": 7506,
      "enjoyed": 7507,
      "melody": 7508,
      "Bhd": 7509,
      "HMAS": 7510,
      "instructions": 7511,
      "expedition": 7512,
      "easily": 7513,
      "shopping": 7514,
      "neighbor": 7515,
      "Independent": 7516,
      "IGN": 7517,
      "merely": 7518,
      "Guatemala": 7519,
      "Kidurong": 7520,
      "Snowmen": 7521,
      "opinion": 7522,
      "Petrick": 7523,
      "comparison": 7524,
      "ambassador": 7525,
      "stronomical": 7526,
      "Belgium": 7527,
      "Modern": 7528,
      "ardian": 7529,
      "acknowled": 7530,
      "auxili": 7531,
      "Flotilla": 7532,
      "ominee": 7533,
      "Craig": 7534,
      "Vickers": 7535,
      "Cemeter": 7536,
      "reputation": 7537,
      "Andromedae": 7538,
      "Netherlands": 7539,
      "expansion": 7540,
      "Fringe": 7541,
      "Mumbai": 7542,
      "Nintendo": 7543,
      "determine": 7544,
      "Ath": 7545,
      "Amy": 7546,
      "Agust": 7547,
      "Bes": 7548,
      "Blo": 7549,
      "CC": 7550,
      "CE": 7551,
      "Cur": 7552,
      "Cla": 7553,
      "Cather": 7554,
      "Catal": 7555,
      "Dah": 7556,
      "Daily": 7557,
      "Eight": 7558,
      "Fall": 7559,
      "Falls": 7560,
      "Festival": 7561,
      "Gre": 7562,
      "Got": 7563,
      "Garden": 7564,
      "Hed": 7565,
      "Hell": 7566,
      "Jr": 7567,
      "Jas": 7568,
      "Kum": 7569,
      "Kaz": 7570,
      "Len": 7571,
      "Mast": 7572,
      "Mess": 7573,
      "Mach": 7574,
      "MLB": 7575,
      "Now": 7576,
      "Ok": 7577,
      "Ple": 7578,
      "Run": 7579,
      "Rho": 7580,
      "Raid": 7581,
      "Sri": 7582,
      "Spr": 7583,
      "Saint": 7584,
      "Sdn": 7585,
      "TS": 7586,
      "Tomas": 7587,
      "Tondo": 7588,
      "Ups": 7589,
      "Wander": 7590,
      "Yu": 7591,
      "Zim": 7592,
      "bance": 7593,
      "crown": 7594,
      "dan": 7595,
      "dles": 7596,
      "data": 7597,
      "dressed": 7598,
      "fighters": 7599,
      "gay": 7600,
      "gone": 7601,
      "grown": 7602,
      "ience": 7603,
      "jew": 7604,
      "jazz": 7605,
      "litz": 7606,
      "mound": 7607,
      "math": 7608,
      "mount": 7609,
      "micro": 7610,
      "nations": 7611,
      "ole": 7612,
      "page": 7613,
      "rat": 7614,
      "rim": 7615,
      "rant": 7616,
      "sor": 7617,
      "save": 7618,
      "ske": 7619,
      "swe": 7620,
      "sitting": 7621,
      "tap": 7622,
      "tack": 7623,
      "tree": 7624,
      "tics": 7625,
      "tasked": 7626,
      "uit": 7627,
      "ugu": 7628,
      "uff": 7629,
      "zil": 7630,
      "thrown": 7631,
      "inery": 7632,
      "onia": 7633,
      "orer": 7634,
      "enix": 7635,
      "sters": 7636,
      "stance": 7637,
      "items": 7638,
      "roit": 7639,
      "ilon": 7640,
      "iled": 7641,
      "accus": 7642,
      "accounts": 7643,
      "beautiful": 7644,
      "forth": 7645,
      "urg": 7646,
      "uration": 7647,
      "del": 7648,
      "wid": 7649,
      "ayan": 7650,
      "context": 7651,
      "agi": 7652,
      "ager": 7653,
      "aground": 7654,
      "agoon": 7655,
      "elson": 7656,
      "elabor": 7657,
      "umns": 7658,
      "plus": 7659,
      "suicide": 7660,
      "shut": 7661,
      "shallow": 7662,
      "neut": 7663,
      "prove": 7664,
      "proceeded": 7665,
      "poison": 7666,
      "perce": 7667,
      "exact": 7668,
      "afford": 7669,
      "derdale": 7670,
      "Chap": 7671,
      "notably": 7672,
      "attor": 7673,
      "iferous": 7674,
      "achment": 7675,
      "boil": 7676,
      "lando": 7677,
      "scr": 7678,
      "answ": 7679,
      "partner": 7680,
      "spur": 7681,
      "brut": 7682,
      "brush": 7683,
      "shipped": 7684,
      "comprom": 7685,
      "aftermath": 7686,
      "desire": 7687,
      "desert": 7688,
      "iley": 7689,
      "formally": 7690,
      "bles": 7691,
      "okie": 7692,
      "disman": 7693,
      "displayed": 7694,
      "disabled": 7695,
      "crimes": 7696,
      "centra": 7697,
      "filed": 7698,
      "commenced": 7699,
      "intern": 7700,
      "ultane": 7701,
      "registered": 7702,
      "headquartered": 7703,
      "columns": 7704,
      "tonnes": 7705,
      "azon": 7706,
      "Alf": 7707,
      "charged": 7708,
      "gunfire": 7709,
      "millimet": 7710,
      "clock": 7711,
      "insisted": 7712,
      "inski": 7713,
      "identify": 7714,
      "persu": 7715,
      "Contin": 7716,
      "Marie": 7717,
      "skin": 7718,
      "skill": 7719,
      "striking": 7720,
      "Augustus": 7721,
      "courts": 7722,
      "courses": 7723,
      "prompt": 7724,
      "Carthy": 7725,
      "advice": 7726,
      "Juan": 7727,
      "barbet": 7728,
      "rounded": 7729,
      "sequences": 7730,
      "considering": 7731,
      "gling": 7732,
      "Johnny": 7733,
      "Edge": 7734,
      "Edmund": 7735,
      "McCarthy": 7736,
      "towns": 7737,
      "flew": 7738,
      "poster": 7739,
      "Allen": 7740,
      "formerly": 7741,
      "testim": 7742,
      "faces": 7743,
      "correct": 7744,
      "denomin": 7745,
      "communications": 7746,
      "initi": 7747,
      "Regard": 7748,
      "nevertheless": 7749,
      "ometric": 7750,
      "Orlando": 7751,
      "Parth": 7752,
      "Paris": 7753,
      "Parachute": 7754,
      "survive": 7755,
      "profit": 7756,
      "ruling": 7757,
      "looked": 7758,
      "blockade": 7759,
      "graphics": 7760,
      "risk": 7761,
      "Draft": 7762,
      "appointment": 7763,
      "maat": 7764,
      "inois": 7765,
      "motiv": 7766,
      "departure": 7767,
      "decisions": 7768,
      "precise": 7769,
      "rumors": 7770,
      "Hugh": 7771,
      "strengthe": 7772,
      "respective": 7773,
      "anchor": 7774,
      "engineer": 7775,
      "bombs": 7776,
      "petition": 7777,
      "nominations": 7778,
      "explosive": 7779,
      "materials": 7780,
      "weapon": 7781,
      "learning": 7782,
      "weakening": 7783,
      "darkness": 7784,
      "revolt": 7785,
      "educational": 7786,
      "altered": 7787,
      "Miri": 7788,
      "beaten": 7789,
      "Direction": 7790,
      "streams": 7791,
      "solely": 7792,
      "conflicts": 7793,
      "Overall": 7794,
      "model": 7795,
      "Archite": 7796,
      "Campbell": 7797,
      "bringing": 7798,
      "segments": 7799,
      "demanded": 7800,
      "observations": 7801,
      "legislation": 7802,
      "Democrats": 7803,
      "helicopter": 7804,
      "excavation": 7805,
      "sacred": 7806,
      "ordinary": 7807,
      "Armoured": 7808,
      "championships": 7809,
      "weighed": 7810,
      "hundreds": 7811,
      "earthqu": 7812,
      "safety": 7813,
      "Federalist": 7814,
      "Cassius": 7815,
      "stereospondy": 7816,
      "Flint": 7817,
      "pulled": 7818,
      "dissipated": 7819,
      "dissipating": 7820,
      "replica": 7821,
      "aksin": 7822,
      "criminal": 7823,
      "Industri": 7824,
      "Illinois": 7825,
      "distinguished": 7826,
      "Indonesia": 7827,
      "cannon": 7828,
      "mechanism": 7829,
      "Brazil": 7830,
      "thousands": 7831,
      "Stanley": 7832,
      "infra": 7833,
      "Marshal": 7834,
      "Budd": 7835,
      "Turkish": 7836,
      "uniform": 7837,
      "substantial": 7838,
      "demolished": 7839,
      "Lauderdale": 7840,
      "custom": 7841,
      "Ignace": 7842,
      "inspiration": 7843,
      "monitored": 7844,
      "scheme": 7845,
      "component": 7846,
      "rifles": 7847,
      "Lambert": 7848,
      "Indigenous": 7849,
      "intermediate": 7850,
      "Corey": 7851,
      "Detroit": 7852,
      "Treaty": 7853,
      "mospheric": 7854,
      "tubes": 7855,
      "Nevada": 7856,
      "diagno": 7857,
      "Upsilon": 7858,
      "AO": 7859,
      "Ale": 7860,
      "Bi": 7861,
      "Bell": 7862,
      "Born": 7863,
      "Brown": 7864,
      "Cub": 7865,
      "Cena": 7866,
      "Dam": 7867,
      "Dall": 7868,
      "Dem": 7869,
      "Dave": 7870,
      "Eric": 7871,
      "Every": 7872,
      "Flo": 7873,
      "Fast": 7874,
      "Feast": 7875,
      "Gid": 7876,
      "Gary": 7877,
      "Gree": 7878,
      "Gale": 7879,
      "Hindu": 7880,
      "Hustler": 7881,
      "Isa": 7882,
      "Jour": 7883,
      "Ka": 7884,
      "Kal": 7885,
      "Lab": 7886,
      "Much": 7887,
      "Near": 7888,
      "Op": 7889,
      "Oct": 7890,
      "PN": 7891,
      "Py": 7892,
      "Pat": 7893,
      "Pear": 7894,
      "Rom": 7895,
      "Rol": 7896,
      "Sud": 7897,
      "Sime": 7898,
      "TO": 7899,
      "Tow": 7900,
      "Ut": 7901,
      "Vin": 7902,
      "Vill": 7903,
      "VIII": 7904,
      "Vande": 7905,
      "Water": 7906,
      "Wiz": 7907,
      "Well": 7908,
      "Yet": 7909,
      "Your": 7910,
      "Yuan": 7911,
      "aud": 7912,
      "bounded": 7913,
      "bishop": 7914,
      "cro": 7915,
      "card": 7916,
      "eff": 7917,
      "egg": 7918,
      "fing": 7919,
      "fax": 7920,
      "ffect": 7921,
      "foss": 7922,
      "fasc": 7923,
      "kings": 7924,
      "lake": 7925,
      "mal": 7926,
      "pic": 7927,
      "pier": 7928,
      "push": 7929,
      "sity": 7930,
      "sight": 7931,
      "tail": 7932,
      "vies": 7933,
      "vital": 7934,
      "wart": 7935,
      "yang": 7936,
      "zco": 7937,
      "tho": 7938,
      "thin": 7939,
      "ining": 7940,
      "infil": 7941,
      "inscript": 7942,
      "anne": 7943,
      "onium": 7944,
      "rebel": 7945,
      "repul": 7946,
      "orche": 7947,
      "enthus": 7948,
      "assembly": 7949,
      "toler": 7950,
      "icy": 7951,
      "icians": 7952,
      "roster": 7953,
      "rolled": 7954,
      "adjust": 7955,
      "acing": 7956,
      "accom": 7957,
      "aman": 7958,
      "behalf": 7959,
      "democr": 7960,
      "oli": 7961,
      "irs": 7962,
      "igrap": 7963,
      "igenous": 7964,
      "unar": 7965,
      "conqu": 7966,
      "constitutional": 7967,
      "ctic": 7968,
      "apart": 7969,
      "rie": 7970,
      "owa": 7971,
      "resigned": 7972,
      "elli": 7973,
      "suited": 7974,
      "opho": 7975,
      "tra": 7976,
      "trun": 7977,
      "truck": 7978,
      "Invest": 7979,
      "empt": 7980,
      "emble": 7981,
      "clip": 7982,
      "aret": 7983,
      "aked": 7984,
      "estate": 7985,
      "existed": 7986,
      "sore": 7987,
      "outed": 7988,
      "ardin": 7989,
      "mental": 7990,
      "derived": 7991,
      "essay": 7992,
      "attan": 7993,
      "grade": 7994,
      "lowest": 7995,
      "ported": 7996,
      "aude": 7997,
      "landings": 7998,
      "offs": 7999
    },
    "merges": [
      [
        "t",
        "h"
      ],
      [
        "i",
        "n"
      ],
      [
        "th",
        "e"
      ],
      [
        "a",
        "n"
      ],
      [
        "e",
        "r"
      ],
      [
        "o",
        "n"
      ],
      [
        "e",
        "d"
      ],
      [
        "r",
        "e"
      ],
      [
        "a",
        "t"
      ],
      [
        "o",
        "r"
      ],
      [
        "e",
        "n"
      ],
      [
        "a",
        "l"
      ],
      [
        "s",
        "t"
      ],
      [
        "a",
        "r"
      ],
      [
        "o",
        "f"
      ],
      [
        "an",
        "d"
      ],
      [
        "a",
        "s"
      ],
      [
        "e",
        "s"
      ],
      [
        "in",
        "g"
      ],
      [
        "t",
        "o"
      ],
      [
        "i",
        "t"
      ],
      [
        "i",
        "s"
      ],
      [
        "o",
        "u"
      ],
      [
        "i",
        "c"
      ],
      [
        "i",
        "on"
      ],
      [
        "h",
        "e"
      ],
      [
        "r",
        "o"
      ],
      [
        "l",
        "e"
      ],
      [
        "i",
        "l"
      ],
      [
        "a",
        "d"
      ],
      [
        "a",
        "c"
      ],
      [
        "en",
        "t"
      ],
      [
        "s",
        "e"
      ],
      [
        "a",
        "m"
      ],
      [
        "l",
        "y"
      ],
      [
        "w",
        "as"
      ],
      [
        "o",
        "m"
      ],
      [
        "b",
        "e"
      ],
      [
        "f",
        "or"
      ],
      [
        "u",
        "r"
      ],
      [
        "d",
        "e"
      ],
      [
        "c",
        "h"
      ],
      [
        "o",
        "l"
      ],
      [
        "T",
        "he"
      ],
      [
        "i",
        "r"
      ],
      [
        "v",
        "e"
      ],
      [
        "i",
        "g"
      ],
      [
        "i",
        "m"
      ],
      [
        "l",
        "o"
      ],
      [
        "u",
        "n"
      ],
      [
        "v",
        "er"
      ],
      [
        "t",
        "er"
      ],
      [
        "w",
        "h"
      ],
      [
        "w",
        "i"
      ],
      [
        "a",
        "y"
      ],
      [
        "t",
        "e"
      ],
      [
        "c",
        "on"
      ],
      [
        "c",
        "e"
      ],
      [
        "at",
        "ion"
      ],
      [
        "wi",
        "th"
      ],
      [
        "i",
        "d"
      ],
      [
        "c",
        "t"
      ],
      [
        "a",
        "g"
      ],
      [
        "th",
        "at"
      ],
      [
        "b",
        "y"
      ],
      [
        "er",
        "e"
      ],
      [
        "u",
        "l"
      ],
      [
        "a",
        "p"
      ],
      [
        "u",
        "s"
      ],
      [
        "r",
        "i"
      ],
      [
        "o",
        "w"
      ],
      [
        "o",
        "t"
      ],
      [
        "re",
        "s"
      ],
      [
        "a",
        "in"
      ],
      [
        "e",
        "t"
      ],
      [
        "e",
        "l"
      ],
      [
        "u",
        "t"
      ],
      [
        "ro",
        "m"
      ],
      [
        "ou",
        "n"
      ],
      [
        "u",
        "m"
      ],
      [
        "c",
        "om"
      ],
      [
        "er",
        "s"
      ],
      [
        "p",
        "l"
      ],
      [
        "h",
        "is"
      ],
      [
        "i",
        "st"
      ],
      [
        "s",
        "u"
      ],
      [
        "o",
        "p"
      ],
      [
        "w",
        "ere"
      ],
      [
        "s",
        "h"
      ],
      [
        "a",
        "b"
      ],
      [
        "al",
        "l"
      ],
      [
        "m",
        "o"
      ],
      [
        "f",
        "rom"
      ],
      [
        "t",
        "r"
      ],
      [
        "I",
        "n"
      ],
      [
        "e",
        "m"
      ],
      [
        "at",
        "e"
      ],
      [
        "the",
        "r"
      ],
      [
        "n",
        "e"
      ],
      [
        "p",
        "ro"
      ],
      [
        "d",
        "i"
      ],
      [
        "ig",
        "h"
      ],
      [
        "c",
        "l"
      ],
      [
        "a",
        "re"
      ],
      [
        "p",
        "e"
      ],
      [
        "ar",
        "t"
      ],
      [
        "il",
        "l"
      ],
      [
        "b",
        "er"
      ],
      [
        "p",
        "o"
      ],
      [
        "on",
        "g"
      ],
      [
        "ic",
        "h"
      ],
      [
        "a",
        "k"
      ],
      [
        "s",
        "i"
      ],
      [
        "e",
        "st"
      ],
      [
        "at",
        "ed"
      ],
      [
        "l",
        "i"
      ],
      [
        "it",
        "y"
      ],
      [
        "l",
        "d"
      ],
      [
        "p",
        "er"
      ],
      [
        "q",
        "u"
      ],
      [
        "e",
        "x"
      ],
      [
        "s",
        "o"
      ],
      [
        "st",
        "r"
      ],
      [
        "or",
        "t"
      ],
      [
        "i",
        "es"
      ],
      [
        "en",
        "d"
      ],
      [
        "g",
        "h"
      ],
      [
        "ou",
        "t"
      ],
      [
        "a",
        "v"
      ],
      [
        "ar",
        "d"
      ],
      [
        "a",
        "st"
      ],
      [
        "h",
        "ad"
      ],
      [
        "m",
        "ent"
      ],
      [
        "is",
        "h"
      ],
      [
        "o",
        "d"
      ],
      [
        "i",
        "p"
      ],
      [
        "m",
        "an"
      ],
      [
        "ou",
        "r"
      ],
      [
        "i",
        "an"
      ],
      [
        "ac",
        "k"
      ],
      [
        "a",
        "f"
      ],
      [
        "d",
        "er"
      ],
      [
        "o",
        "ver"
      ],
      [
        "g",
        "e"
      ],
      [
        "on",
        "e"
      ],
      [
        "am",
        "e"
      ],
      [
        "e",
        "ar"
      ],
      [
        "ou",
        "gh"
      ],
      [
        "i",
        "v"
      ],
      [
        "an",
        "t"
      ],
      [
        "oun",
        "d"
      ],
      [
        "t",
        "w"
      ],
      [
        "wh",
        "ich"
      ],
      [
        "es",
        "s"
      ],
      [
        "C",
        "h"
      ],
      [
        "igh",
        "t"
      ],
      [
        "f",
        "e"
      ],
      [
        "as",
        "s"
      ],
      [
        "i",
        "al"
      ],
      [
        "ac",
        "t"
      ],
      [
        "n",
        "ot"
      ],
      [
        "ar",
        "y"
      ],
      [
        "at",
        "t"
      ],
      [
        "g",
        "r"
      ],
      [
        "lo",
        "w"
      ],
      [
        "o",
        "re"
      ],
      [
        "r",
        "it"
      ],
      [
        "in",
        "e"
      ],
      [
        "ow",
        "n"
      ],
      [
        "it",
        "s"
      ],
      [
        "i",
        "ve"
      ],
      [
        "a",
        "ve"
      ],
      [
        "b",
        "ut"
      ],
      [
        "S",
        "t"
      ],
      [
        "p",
        "ort"
      ],
      [
        "a",
        "w"
      ],
      [
        "or",
        "d"
      ],
      [
        "i",
        "f"
      ],
      [
        "e",
        "w"
      ],
      [
        "ac",
        "h"
      ],
      [
        "e",
        "v"
      ],
      [
        "H",
        "e"
      ],
      [
        "i",
        "a"
      ],
      [
        "u",
        "d"
      ],
      [
        "f",
        "ir"
      ],
      [
        "in",
        "t"
      ],
      [
        "p",
        "r"
      ],
      [
        "ic",
        "al"
      ],
      [
        "u",
        "p"
      ],
      [
        "ig",
        "n"
      ],
      [
        "the",
        "ir"
      ],
      [
        "d",
        "u"
      ],
      [
        "e",
        "p"
      ],
      [
        "ou",
        "ld"
      ],
      [
        "ct",
        "ion"
      ],
      [
        "b",
        "o"
      ],
      [
        "m",
        "er"
      ],
      [
        "al",
        "so"
      ],
      [
        "a",
        "u"
      ],
      [
        "ou",
        "s"
      ],
      [
        "v",
        "i"
      ],
      [
        "it",
        "ion"
      ],
      [
        "c",
        "k"
      ],
      [
        "ag",
        "e"
      ],
      [
        "l",
        "and"
      ],
      [
        "or",
        "k"
      ],
      [
        "im",
        "e"
      ],
      [
        "s",
        "c"
      ],
      [
        "A",
        "u"
      ],
      [
        "fir",
        "st"
      ],
      [
        "t",
        "ed"
      ],
      [
        "k",
        "e"
      ],
      [
        "om",
        "e"
      ],
      [
        "ur",
        "ing"
      ],
      [
        "h",
        "er"
      ],
      [
        "l",
        "l"
      ],
      [
        "re",
        "e"
      ],
      [
        "po",
        "s"
      ],
      [
        "o",
        "ther"
      ],
      [
        "an",
        "s"
      ],
      [
        "p",
        "art"
      ],
      [
        "h",
        "as"
      ],
      [
        "s",
        "p"
      ],
      [
        "tw",
        "o"
      ],
      [
        "of",
        "f"
      ],
      [
        "b",
        "r"
      ],
      [
        "u",
        "re"
      ],
      [
        "at",
        "er"
      ],
      [
        "s",
        "er"
      ],
      [
        "be",
        "en"
      ],
      [
        "g",
        "u"
      ],
      [
        "con",
        "t"
      ],
      [
        "h",
        "ave"
      ],
      [
        "m",
        "e"
      ],
      [
        "sh",
        "ip"
      ],
      [
        "a",
        "ir"
      ],
      [
        "te",
        "m"
      ],
      [
        "re",
        "c"
      ],
      [
        "p",
        "res"
      ],
      [
        "pl",
        "ay"
      ],
      [
        "com",
        "p"
      ],
      [
        "wh",
        "o"
      ],
      [
        "af",
        "ter"
      ],
      [
        "d",
        "es"
      ],
      [
        "T",
        "h"
      ],
      [
        "r",
        "an"
      ],
      [
        "i",
        "le"
      ],
      [
        "m",
        "on"
      ],
      [
        "re",
        "n"
      ],
      [
        "p",
        "h"
      ],
      [
        "v",
        "ed"
      ],
      [
        "al",
        "ly"
      ],
      [
        "en",
        "ce"
      ],
      [
        "t",
        "s"
      ],
      [
        "for",
        "m"
      ],
      [
        "th",
        "is"
      ],
      [
        "b",
        "l"
      ],
      [
        "o",
        "k"
      ],
      [
        "w",
        "e"
      ],
      [
        "n",
        "o"
      ],
      [
        "U",
        "n"
      ],
      [
        "d",
        "is"
      ],
      [
        "t",
        "ur"
      ],
      [
        "A",
        "n"
      ],
      [
        "ac",
        "e"
      ],
      [
        "in",
        "d"
      ],
      [
        "in",
        "cl"
      ],
      [
        "I",
        "t"
      ],
      [
        "i",
        "z"
      ],
      [
        "ad",
        "e"
      ],
      [
        "s",
        "ion"
      ],
      [
        "c",
        "o"
      ],
      [
        "the",
        "y"
      ],
      [
        "ar",
        "k"
      ],
      [
        "c",
        "es"
      ],
      [
        "c",
        "re"
      ],
      [
        "it",
        "e"
      ],
      [
        "t",
        "ime"
      ],
      [
        "in",
        "to"
      ],
      [
        "an",
        "ce"
      ],
      [
        "ic",
        "e"
      ],
      [
        "f",
        "f"
      ],
      [
        "ation",
        "s"
      ],
      [
        "s",
        "s"
      ],
      [
        "y",
        "ear"
      ],
      [
        "c",
        "r"
      ],
      [
        "c",
        "ent"
      ],
      [
        "or",
        "th"
      ],
      [
        "a",
        "il"
      ],
      [
        "el",
        "l"
      ],
      [
        "f",
        "il"
      ],
      [
        "m",
        "ain"
      ],
      [
        "p",
        "t"
      ],
      [
        "p",
        "re"
      ],
      [
        "r",
        "on"
      ],
      [
        "u",
        "e"
      ],
      [
        "c",
        "ed"
      ],
      [
        "o",
        "c"
      ],
      [
        "com",
        "m"
      ],
      [
        "in",
        "ter"
      ],
      [
        "w",
        "ay"
      ],
      [
        "w",
        "ork"
      ],
      [
        "it",
        "ed"
      ],
      [
        "ul",
        "t"
      ],
      [
        "R",
        "o"
      ],
      [
        "mo",
        "re"
      ],
      [
        "ab",
        "le"
      ],
      [
        "A",
        "r"
      ],
      [
        "ic",
        "k"
      ],
      [
        "mo",
        "st"
      ],
      [
        "d",
        "uring"
      ],
      [
        "i",
        "re"
      ],
      [
        "ou",
        "th"
      ],
      [
        "g",
        "an"
      ],
      [
        "incl",
        "ud"
      ],
      [
        "un",
        "der"
      ],
      [
        "n",
        "ing"
      ],
      [
        "w",
        "ould"
      ],
      [
        "ic",
        "an"
      ],
      [
        "e",
        "ver"
      ],
      [
        "ol",
        "d"
      ],
      [
        "r",
        "ough"
      ],
      [
        "f",
        "ore"
      ],
      [
        "ag",
        "ain"
      ],
      [
        "h",
        "im"
      ],
      [
        "r",
        "y"
      ],
      [
        "us",
        "ed"
      ],
      [
        "as",
        "ed"
      ],
      [
        "t",
        "y"
      ],
      [
        "re",
        "g"
      ],
      [
        "at",
        "es"
      ],
      [
        "or",
        "y"
      ],
      [
        "f",
        "l"
      ],
      [
        "an",
        "y"
      ],
      [
        "s",
        "pe"
      ],
      [
        "c",
        "i"
      ],
      [
        "w",
        "ard"
      ],
      [
        "ic",
        "t"
      ],
      [
        "l",
        "ar"
      ],
      [
        "p",
        "ed"
      ],
      [
        "f",
        "in"
      ],
      [
        "ct",
        "ed"
      ],
      [
        "O",
        "n"
      ],
      [
        "b",
        "u"
      ],
      [
        "fil",
        "m"
      ],
      [
        "is",
        "ion"
      ],
      [
        "as",
        "on"
      ],
      [
        "o",
        "g"
      ],
      [
        "be",
        "c"
      ],
      [
        "con",
        "d"
      ],
      [
        "U",
        "S"
      ],
      [
        "es",
        "e"
      ],
      [
        "i",
        "e"
      ],
      [
        "he",
        "ad"
      ],
      [
        "ar",
        "ch"
      ],
      [
        "am",
        "p"
      ],
      [
        "th",
        "ough"
      ],
      [
        "str",
        "u"
      ],
      [
        "as",
        "e"
      ],
      [
        "N",
        "o"
      ],
      [
        "s",
        "he"
      ],
      [
        "l",
        "es"
      ],
      [
        "ar",
        "m"
      ],
      [
        "t",
        "en"
      ],
      [
        "ol",
        "low"
      ],
      [
        "A",
        "mer"
      ],
      [
        "B",
        "rit"
      ],
      [
        "or",
        "s"
      ],
      [
        "C",
        "om"
      ],
      [
        "n",
        "ed"
      ],
      [
        "d",
        "ay"
      ],
      [
        "m",
        "in"
      ],
      [
        "on",
        "ly"
      ],
      [
        "ent",
        "s"
      ],
      [
        "ne",
        "w"
      ],
      [
        "r",
        "a"
      ],
      [
        "str",
        "al"
      ],
      [
        "b",
        "le"
      ],
      [
        "th",
        "ree"
      ],
      [
        "Au",
        "stral"
      ],
      [
        "t",
        "ain"
      ],
      [
        "ation",
        "al"
      ],
      [
        "c",
        "ol"
      ],
      [
        "n",
        "um"
      ],
      [
        "N",
        "ew"
      ],
      [
        "c",
        "ess"
      ],
      [
        "r",
        "ed"
      ],
      [
        "i",
        "ed"
      ],
      [
        "th",
        "rough"
      ],
      [
        "on",
        "d"
      ],
      [
        "the",
        "m"
      ],
      [
        "en",
        "s"
      ],
      [
        "wh",
        "ile"
      ],
      [
        "er",
        "ed"
      ],
      [
        "su",
        "b"
      ],
      [
        "s",
        "a"
      ],
      [
        "at",
        "ing"
      ],
      [
        "wh",
        "en"
      ],
      [
        "s",
        "ome"
      ],
      [
        "t",
        "on"
      ],
      [
        "u",
        "bl"
      ],
      [
        "s",
        "on"
      ],
      [
        "wh",
        "ere"
      ],
      [
        "a",
        "z"
      ],
      [
        "S",
        "h"
      ],
      [
        "e",
        "en"
      ],
      [
        "e",
        "f"
      ],
      [
        "o",
        "b"
      ],
      [
        "si",
        "de"
      ],
      [
        "c",
        "ar"
      ],
      [
        "w",
        "ar"
      ],
      [
        "l",
        "s"
      ],
      [
        "A",
        "l"
      ],
      [
        "en",
        "er"
      ],
      [
        "con",
        "s"
      ],
      [
        "s",
        "ing"
      ],
      [
        "an",
        "g"
      ],
      [
        "bu",
        "il"
      ],
      [
        "l",
        "ed"
      ],
      [
        "f",
        "our"
      ],
      [
        "h",
        "igh"
      ],
      [
        "er",
        "n"
      ],
      [
        "ab",
        "out"
      ],
      [
        "f",
        "ul"
      ],
      [
        "g",
        "o"
      ],
      [
        "se",
        "ason"
      ],
      [
        "b",
        "um"
      ],
      [
        "m",
        "ber"
      ],
      [
        "i",
        "ver"
      ],
      [
        "al",
        "s"
      ],
      [
        "l",
        "ater"
      ],
      [
        "s",
        "y"
      ],
      [
        "A",
        "f"
      ],
      [
        "in",
        "es"
      ],
      [
        "ro",
        "p"
      ],
      [
        "f",
        "ollow"
      ],
      [
        "te",
        "am"
      ],
      [
        "su",
        "p"
      ],
      [
        "th",
        "an"
      ],
      [
        "G",
        "er"
      ],
      [
        "ak",
        "e"
      ],
      [
        "f",
        "t"
      ],
      [
        "s",
        "ur"
      ],
      [
        "ing",
        "s"
      ],
      [
        "k",
        "n"
      ],
      [
        "R",
        "e"
      ],
      [
        "man",
        "y"
      ],
      [
        "at",
        "ch"
      ],
      [
        "pro",
        "du"
      ],
      [
        "be",
        "tw"
      ],
      [
        "betw",
        "een"
      ],
      [
        "s",
        "ong"
      ],
      [
        "lo",
        "c"
      ],
      [
        "c",
        "ur"
      ],
      [
        "c",
        "oun"
      ],
      [
        "u",
        "st"
      ],
      [
        "m",
        "ade"
      ],
      [
        "ion",
        "s"
      ],
      [
        "al",
        "bum"
      ],
      [
        "ro",
        "w"
      ],
      [
        "it",
        "ies"
      ],
      [
        "Brit",
        "ish"
      ],
      [
        "a",
        "th"
      ],
      [
        "b",
        "ack"
      ],
      [
        "D",
        "e"
      ],
      [
        "W",
        "ar"
      ],
      [
        "rec",
        "ord"
      ],
      [
        "num",
        "ber"
      ],
      [
        "se",
        "ver"
      ],
      [
        "se",
        "cond"
      ],
      [
        "c",
        "ap"
      ],
      [
        "again",
        "st"
      ],
      [
        "re",
        "le"
      ],
      [
        "g",
        "ame"
      ],
      [
        "W",
        "h"
      ],
      [
        "a",
        "j"
      ],
      [
        "ou",
        "p"
      ],
      [
        "be",
        "fore"
      ],
      [
        "c",
        "ial"
      ],
      [
        "be",
        "ing"
      ],
      [
        "over",
        "n"
      ],
      [
        "or",
        "ld"
      ],
      [
        "d",
        "r"
      ],
      [
        "u",
        "ary"
      ],
      [
        "ch",
        "ar"
      ],
      [
        "an",
        "n"
      ],
      [
        "c",
        "ity"
      ],
      [
        "m",
        "em"
      ],
      [
        "B",
        "e"
      ],
      [
        "A",
        "t"
      ],
      [
        "J",
        "o"
      ],
      [
        "u",
        "se"
      ],
      [
        "op",
        "er"
      ],
      [
        "tr",
        "y"
      ],
      [
        "m",
        "i"
      ],
      [
        "an",
        "k"
      ],
      [
        "g",
        "y"
      ],
      [
        "ch",
        "o"
      ],
      [
        "er",
        "o"
      ],
      [
        "i",
        "k"
      ],
      [
        "w",
        "ell"
      ],
      [
        "se",
        "l"
      ],
      [
        "Amer",
        "ican"
      ],
      [
        "ro",
        "ss"
      ],
      [
        "the",
        "re"
      ],
      [
        "ter",
        "s"
      ],
      [
        "cont",
        "in"
      ],
      [
        "e",
        "le"
      ],
      [
        "ul",
        "ar"
      ],
      [
        "A",
        "s"
      ],
      [
        "m",
        "is"
      ],
      [
        "M",
        "an"
      ],
      [
        "g",
        "un"
      ],
      [
        "n",
        "am"
      ],
      [
        "u",
        "al"
      ],
      [
        "the",
        "n"
      ],
      [
        "f",
        "er"
      ],
      [
        "m",
        "y"
      ],
      [
        "m",
        "il"
      ],
      [
        "j",
        "e"
      ],
      [
        "att",
        "ack"
      ],
      [
        "M",
        "ay"
      ],
      [
        "b",
        "att"
      ],
      [
        "d",
        "own"
      ],
      [
        "i",
        "el"
      ],
      [
        "vi",
        "ew"
      ],
      [
        "sever",
        "al"
      ],
      [
        "w",
        "est"
      ],
      [
        "re",
        "l"
      ],
      [
        "ap",
        "an"
      ],
      [
        "fe",
        "at"
      ],
      [
        "J",
        "apan"
      ],
      [
        "in",
        "ce"
      ],
      [
        "ad",
        "d"
      ],
      [
        "ap",
        "pe"
      ],
      [
        "av",
        "y"
      ],
      [
        "Un",
        "ited"
      ],
      [
        "ic",
        "s"
      ],
      [
        "d",
        "o"
      ],
      [
        "n",
        "ar"
      ],
      [
        "p",
        "ol"
      ],
      [
        "re",
        "at"
      ],
      [
        "pl",
        "ac"
      ],
      [
        "w",
        "rit"
      ],
      [
        "en",
        "g"
      ],
      [
        "st",
        "e"
      ],
      [
        "p",
        "ubl"
      ],
      [
        "v",
        "ol"
      ],
      [
        "kn",
        "own"
      ],
      [
        "B",
        "o"
      ],
      [
        "al",
        "ong"
      ],
      [
        "di",
        "v"
      ],
      [
        "m",
        "ill"
      ],
      [
        "bec",
        "ame"
      ],
      [
        "bo",
        "th"
      ],
      [
        "des",
        "ign"
      ],
      [
        "or",
        "m"
      ],
      [
        "ish",
        "ed"
      ],
      [
        "i",
        "ous"
      ],
      [
        "v",
        "en"
      ],
      [
        "li",
        "ke"
      ],
      [
        "includ",
        "ing"
      ],
      [
        "e",
        "k"
      ],
      [
        "po",
        "int"
      ],
      [
        "T",
        "his"
      ],
      [
        "de",
        "p"
      ],
      [
        "re",
        "main"
      ],
      [
        "su",
        "ch"
      ],
      [
        "o",
        "od"
      ],
      [
        "r",
        "u"
      ],
      [
        "is",
        "ed"
      ],
      [
        "if",
        "ic"
      ],
      [
        "N",
        "orth"
      ],
      [
        "l",
        "ong"
      ],
      [
        "ro",
        "ad"
      ],
      [
        "ve",
        "lo"
      ],
      [
        "c",
        "lo"
      ],
      [
        "or",
        "der"
      ],
      [
        "be",
        "gan"
      ],
      [
        "re",
        "st"
      ],
      [
        "un",
        "t"
      ],
      [
        "ow",
        "ever"
      ],
      [
        "c",
        "all"
      ],
      [
        "in",
        "s"
      ],
      [
        "at",
        "ive"
      ],
      [
        "c",
        "y"
      ],
      [
        "the",
        "se"
      ],
      [
        "se",
        "t"
      ],
      [
        "us",
        "ic"
      ],
      [
        "Austral",
        "ian"
      ],
      [
        "Af",
        "ter"
      ],
      [
        "un",
        "e"
      ],
      [
        "u",
        "ch"
      ],
      [
        "c",
        "an"
      ],
      [
        "t",
        "ri"
      ],
      [
        "L",
        "e"
      ],
      [
        "k",
        "m"
      ],
      [
        "id",
        "ent"
      ],
      [
        "ur",
        "y"
      ],
      [
        "af",
        "t"
      ],
      [
        "d",
        "id"
      ],
      [
        "i",
        "o"
      ],
      [
        "ou",
        "te"
      ],
      [
        "c",
        "ould"
      ],
      [
        "m",
        "et"
      ],
      [
        "u",
        "res"
      ],
      [
        "S",
        "he"
      ],
      [
        "g",
        "overn"
      ],
      [
        "h",
        "ist"
      ],
      [
        "l",
        "a"
      ],
      [
        "p",
        "ar"
      ],
      [
        "s",
        "ign"
      ],
      [
        "year",
        "s"
      ],
      [
        "appe",
        "ar"
      ],
      [
        "b",
        "all"
      ],
      [
        "re",
        "tur"
      ],
      [
        "as",
        "k"
      ],
      [
        "gu",
        "st"
      ],
      [
        "c",
        "er"
      ],
      [
        "tr",
        "ans"
      ],
      [
        "C",
        "ol"
      ],
      [
        "le",
        "ad"
      ],
      [
        "ist",
        "s"
      ],
      [
        "f",
        "ound"
      ],
      [
        "s",
        "m"
      ],
      [
        "i",
        "de"
      ],
      [
        "contin",
        "u"
      ],
      [
        "S",
        "te"
      ],
      [
        "de",
        "c"
      ],
      [
        "de",
        "velo"
      ],
      [
        "di",
        "re"
      ],
      [
        "end",
        "ed"
      ],
      [
        "ship",
        "s"
      ],
      [
        "comp",
        "le"
      ],
      [
        "l",
        "ight"
      ],
      [
        "s",
        "ed"
      ],
      [
        "pos",
        "ition"
      ],
      [
        "e",
        "ast"
      ],
      [
        "e",
        "y"
      ],
      [
        "ow",
        "er"
      ],
      [
        "m",
        "ed"
      ],
      [
        "il",
        "y"
      ],
      [
        "off",
        "ic"
      ],
      [
        "tem",
        "ber"
      ],
      [
        "S",
        "ep"
      ],
      [
        "it",
        "t"
      ],
      [
        "ur",
        "ch"
      ],
      [
        "de",
        "f"
      ],
      [
        "su",
        "c"
      ],
      [
        "ig",
        "in"
      ],
      [
        "ment",
        "s"
      ],
      [
        "S",
        "e"
      ],
      [
        "au",
        "se"
      ],
      [
        "Sep",
        "tember"
      ],
      [
        "l",
        "ine"
      ],
      [
        "J",
        "an"
      ],
      [
        "al",
        "e"
      ],
      [
        "am",
        "es"
      ],
      [
        "Ger",
        "man"
      ],
      [
        "p",
        "ers"
      ],
      [
        "si",
        "ve"
      ],
      [
        "gr",
        "oup"
      ],
      [
        "b",
        "ers"
      ],
      [
        "h",
        "o"
      ],
      [
        "m",
        "en"
      ],
      [
        "sa",
        "id"
      ],
      [
        "E",
        "n"
      ],
      [
        "c",
        "over"
      ],
      [
        "p",
        "op"
      ],
      [
        "st",
        "ate"
      ],
      [
        "per",
        "i"
      ],
      [
        "iel",
        "d"
      ],
      [
        "re",
        "ce"
      ],
      [
        "ear",
        "ly"
      ],
      [
        "lar",
        "ge"
      ],
      [
        "m",
        "atch"
      ],
      [
        "p",
        "ass"
      ],
      [
        "L",
        "es"
      ],
      [
        "n",
        "orth"
      ],
      [
        "pres",
        "ent"
      ],
      [
        "p",
        "le"
      ],
      [
        "C",
        "on"
      ],
      [
        "M",
        "ar"
      ],
      [
        "ne",
        "ar"
      ],
      [
        "s",
        "k"
      ],
      [
        "sel",
        "f"
      ],
      [
        "je",
        "ct"
      ],
      [
[...]
