{
  "version": "1.0",
  "truncation": null,
  "padding": {
    "strategy": "BatchLongest",
    "direction": "Right",
    "pad_to_multiple_of": null,
    "pad_id": 0,
    "pad_type_id": 0,
    "pad_token": "<pad>"
  },
  "added_tokens": [
    {
      "id": 0,
      "content": "<pad>",
      "single_word": false,
      "lstrip": false,
      "rstrip": false,
      "normalized": false,
      "special": true
    },
    {
      "id": 1,
      "content": "<bos>",
      "single_word": false,
      "lstrip": false,
      "rstrip": false,
      "normalized": false,
      "special": true
    },
    {
      "id": 2,
      "content": "<eos>",
      "single_word": false,
      "lstrip": false,
      "rstrip": false,
      "normalized": false,
      "special": true
    },
    {
      "id": 3,
      "content": "<unk>",
      "single_word": false,
      "lstrip": false,
      "rstrip": false,
      "normalized": false,
      "special": true
    }
  ],
  "normalizer": null,
  "pre_tokenizer": {
    "type": "ByteLevel",
    "add_prefix_space": false,
    "trim_offsets": true,
    "use_regex": true
  },
  "post_processor": {
    "type": "TemplateProcessing",
    "single": [
      {
        "SpecialToken": {
          "id": "<bos>",
          "type_id": 0
        }
      },
      {
        "Sequence": {
          "id": "A",
          "type_id": 0
        }
      },
      {
        "SpecialToken": {
          "id": "<eos>",
          "type_id": 0
        }
      }
    ],
    "pair": [
      {
        "Sequence": {
          "id": "A",
          "type_id": 0
        }
      },
      {
        "Sequence": {
          "id": "B",
          "type_id": 1
        }
      }
    ],
    "special_tokens": {
      "<bos>": {
        "id": "<bos>",
        "ids": [
          1
        ],
        "tokens": [
          "<bos>"
        ]
      },
      "<eos>": {
        "id": "<eos>",
        "ids": [
          2
        ],
        "tokens": [
          "<eos>"
        ]
      }
    }
  },
  "decoder": {
    "type": "ByteLevel",
    "add_prefix_space": true,
    "trim_offsets": true,
    "use_regex": true
  },
  "model": {
    "type": "BPE",
    "dropout": null,
    "unk_token": "<unk>",
    "continuing_subword_prefix": null,
    "end_of_word_suffix": null,
    "fuse_unk": false,
    "byte_fallback": false,
    "ignore_merges": false,
    "vocab": {
      "<pad>": 0,
      "<bos>": 1,
      "<eos>": 2,
      "<unk>": 3,
      "A": 4,
      "B": 5,
      "C": 6,
      "D": 7,
      "E": 8,
      "F": 9,
      "G": 10,
      "H": 11,
      "I": 12,
      "J": 13,
      "K": 14,
      "L": 15,
      "M": 16,
      "N": 17,
      "O": 18,
      "P": 19,
      "Q": 20,
      "R": 21,
      "S": 22,
      "T": 23,
      "U": 24,
      "V": 25,
      "W": 26,
      "X": 27,
      "Y": 28,
      "Z": 29,
      "a": 30,
      "b": 31,
      "c": 32,
      "d": 33,
      "e": 34,
      "f": 35,
      "g": 36,
      "h": 37,
      "i": 38,
      "j": 39,
      "k": 40,
      "l": 41,
      "m": 42,
      "n": 43,
      "o": 44,
      "p": 45,
      "q": 46,
      "r": 47,
      "s": 48,
      "t": 49,
      "u": 50,
      "v": 51,
      "w": 52,
      "x": 53,
      "y": 54,
      "z": 55,
      "Ġ": 56,
      "Ġt": 57,
      "he": 58,
      "Ġa": 59,
      "in": 60,
      "Ġthe": 61,
      "er": 62,
      "on": 63,
      "Ġs": 64,
      "ed": 65,
      "re": 66,
      "Ġw": 67,
      "Ġo": 68,
      "nd": 69,
      "at": 70,
      "or": 71,
      "it": 72,
      "Ġf": 73,
      "en": 74,
      "Ġc": 75,
      "es": 76,
      "ar": 77,
      "an": 78,
      "Ġof": 79,
      "is": 80,
      "Ġb": 81,
      "Ġin": 82,
      "al": 83,
      "ing": 84,
      "Ġp": 85,
      "as": 86,
      "Ġand": 87,
      "Ġto": 88,
      "ro": 89,
      "Ġm": 90,
      "ic": 91,
      "Ġd": 92,
      "Ġh": 93,
      "ion": 94,
      "ou": 95,
      "le": 96,
      "ĠT": 97,
      "Ġre": 98,
      "Ġth": 99,
      "il": 100,
      "ĠS": 101,
      "ĠA": 102,
      "ent": 103,
      "st": 104,
      "ad": 105,
      "Ġl": 106,
      "ĠC": 107,
      "Ġe": 108,
      "Ġn": 109,
      "ac": 110,
      "ly": 111,
      "am": 112,
      "om": 113,
      "Ġwas": 114,
      "ur": 115,
      "ĠM": 116,
      "ĠB": 117,
      "Ġon": 118,
      "ol": 119,
      "Ġbe": 120,
      "ir": 121,
      "id": 122,
      "Ġg": 123,
      "ve": 124,
      "ig": 125,
      "im": 126,
      "ter": 127,
      "Ġfor": 128,
      "ct": 129,
      "ĠThe": 130,
      "ot": 131,
      "ver": 132,
      "ut": 133,
      "ĠI": 134,
      "Ġas": 135,
      "Ġst": 136,
      "ow": 137,
      "ith": 138,
      "el": 139,
      "us": 140,
      "ay": 141,
      "ĠH": 142,
      "et": 143,
      "ce": 144,
      "Ġhe": 145,
      "ation": 146,
      "Ġwith": 147,
      "ĠR": 148,
      "ĠP": 149,
      "un": 150,
      "ĠN": 151,
      "ch": 152,
      "Ġthat": 153,
      "ul": 154,
      "Ġat": 155,
      "Ġal": 156,
      "Ġby": 157,
      "em": 158,
      "Ġcon": 159,
      "ĠD": 160,
      "Ġwh": 161,
      "ĠF": 162,
      "th": 163,
      "os": 164,
      "ra": 165,
      "ri": 166,
      "Ġis": 167,
      "ĠL": 168,
      "ĠW": 169,
      "Ġde": 170,
      "and": 171,
      "ĠJ": 172,
      "ĠG": 173,
      "Ġan": 174,
      "Ġse": 175,
      "rom": 176,
      "Ġit": 177,
      "ere": 178,
      "ist": 179,
      "um": 180,
      "ain": 181,
      "ers": 182,
      "her": 183,
      "est": 184,
      "ag": 185,
      "Ġwere": 186,
      "pp": 187,
      "od": 188,
      "ĠE": 189,
      "Ġfrom": 190,
      "ort": 191,
      "Ġcom": 192,
      "res": 193,
      "Ġr": 194,
      "ate": 195,
      "Ġhis": 196,
      "igh": 197,
      "ill": 198,
      "op": 199,
      "iv": 200,
      "Ġsu": 201,
      "ĠO": 202,
      "ber": 203,
      "if": 204,
      "ong": 205,
      "ld": 206,
      "ich": 207,
      "Ġpro": 208,
      "ore": 209,
      "ian": 210,
      "ew": 211,
      "ak": 212,
      "ies": 213,
      "ĠU": 214,
      "all": 215,
      "ap": 216,
      "ĠK": 217,
      "ated": 218,
      "rou": 219,
      "se": 220,
      "qu": 221,
      "ity": 222,
      "Ġv": 223,
      "oc": 224,
      "art": 225,
      "hi": 226,
      "Ġpl": 227,
      "ard": 228,
      "gh": 229,
      "te": 230,
      "ive": 231,
      "Ġhad": 232,
      "ant": 233,
      "ud": 234,
      "ust": 235,
      "Ġor": 236,
      "ack": 237,
      "Ġex": 238,
      "ment": 239,
      "our": 240,
      "ge": 241,
      "ear": 242,
      "cl": 243,
      "ab": 244,
      "Ġk": 245,
      "ame": 246,
      "ess": 247,
      "av": 248,
      "pe": 249,
      "Ġwhich": 250,
      "ast": 251,
      "ĠIn": 252,
      "Ġare": 253,
      "ight": 254,
      "Ġch": 255,
      "ial": 256,
      "ĠSt": 257,
      "ost": 258,
      "pt": 259,
      "Ġu": 260,
      "Ġnot": 261,
      "ish": 262,
      "ĠCh": 263,
      "rit": 264,
      "ary": 265,
      "Ġsh": 266,
      "ine": 267,
      "ia": 268,
      "Ġar": 269,
      "ord": 270,
      "nt": 271,
      "ru": 272,
      "Ġle": 273,
      "ther": 274,
      "ction": 275,
      "Ġy": 276,
      "Ġun": 277,
      "og": 278,
      "fter": 279,
      "ave": 280,
      "ide": 281,
      "ass": 282,
      "ond": 283,
      "so": 284,
      "ry": 285,
      "ĠHe": 286,
      "ical": 287,
      "per": 288,
      "wo": 289,
      "ell": 290,
      "ign": 291,
      "Ġtheir": 292,
      "pl": 293,
      "Ġfir": 294,
      "ould": 295,
      "Ġcont": 296,
      "The": 297,
      "cc": 298,
      "own": 299,
      "Ġint": 300,
      "out": 301,
      "ous": 302,
      "ue": 303,
      "ff": 304,
      "ĠV": 305,
      "Ġalso": 306,
      "Ġbut": 307,
      "ome": 308,
      "mer": 309,
      "ure": 310,
      "ition": 311,
      "low": 312,
      "ime": 313,
      "Ġits": 314,
      "ie": 315,
      "ork": 316,
      "ran": 317,
      "Ġwhe": 318,
      "hip": 319,
      "Ġcl": 320,
      "ree": 321,
      "orm": 322,
      "Ġfirst": 323,
      "Ġro": 324,
      "Ġab": 325,
      "Ġper": 326,
      "Ġag": 327,
      "ok": 328,
      "hed": 329,
      "Ġone": 330,
      "uring": 331,
      "ted": 332,
      "Ġad": 333,
      "ater": 334,
      "ved": 335,
      "Ġres": 336,
      "age": 337,
      "Ġtwo": 338,
      "ire": 339,
      "Ġbeen": 340,
      "Ġus": 341,
      "Ġcomp": 342,
      "Ġsc": 343,
      "ach": 344,
      "ens": 345,
      "Ġhas": 346,
      "Ġhave": 347,
      "ral": 348,
      "Ġte": 349,
      "ke": 350,
      "ub": 351,
      "Ġrec": 352,
      "Ġafter": 353,
      "iz": 354,
      "ough": 355,
      "ence": 356,
      "over": 357,
      "nder": 358,
      "Ġj": 359,
      "Ġpart": 360,
      "clud": 361,
      "ally": 362,
      "ult": 363,
      "Ġim": 364,
      "ĠY": 365,
      "Ġoff": 366,
      "ance": 367,
      "ng": 368,
      "ect": 369,
      "Ġover": 370,
      "Ġatt": 371,
      "aw": 372,
      "Ġthis": 373,
      "ĠIt": 374,
      "att": 375,
      "ĠTh": 376,
      "man": 377,
      "ron": 378,
      "ound": 379,
      "Ġher": 380,
      "Ġwho": 381,
      "Ġdes": 382,
      "Ġdis": 383,
      "Ġapp": 384,
      "Ġen": 385,
      "ount": 386,
      "Ġbec": 387,
      "ark": 388,
      "ations": 389,
      "ace": 390,
      "port": 391,
      "ade": 392,
      "Ġthey": 393,
      "round": 394,
      "ces": 395,
      "ress": 396,
      "Ġout": 397,
      "ph": 398,
      "ind": 399,
      "land": 400,
      "urn": 401,
      "Ġinclud": 402,
      "Ġcomm": 403,
      "ll": 404,
      "ward": 405,
      "orth": 406,
      "Ġman": 407,
      "Ġtime": 408,
      "act": 409,
      "rough": 410,
      "ec": 411,
      "Ġser": 412,
      "ice": 413,
      "ions": 414,
      "Ġplay": 415,
      "Ġev": 416,
      "are": 417,
      "ose": 418,
      "Ġinto": 419,
      "ced": 420,
      "ied": 421,
      "iss": 422,
      "ft": 423,
      "ove": 424,
      "du": 425,
      "Ġup": 426,
      "Ġyear": 427,
      "ric": 428,
      "int": 429,
      "Ġwe": 430,
      "ile": 431,
      "ib": 432,
      "we": 433,
      "Ġpre": 434,
      "ne": 435,
      "old": 436,
      "Ġother": 437,
      "Ġrem": 438,
      "ĠUn": 439,
      "outh": 440,
      "Ġfil": 441,
      "vi": 442,
      "ited": 443,
      "ite": 444,
      "ĠAust": 445,
      "Ġne": 446,
      "Ġwould": 447,
      "Ġinter": 448,
      "Ġduring": 449,
      "les": 450,
      "ased": 451,
      "Ġmore": 452,
      "Ġhim": 453,
      "Ġall": 454,
      "gan": 455,
      "one": 456,
      "ory": 457,
      "Ġagain": 458,
      "ors": 459,
      "ates": 460,
      "Ġsec": 461,
      "ons": 462,
      "ĠSe": 463,
      "ss": 464,
      "way": 465,
      "ines": 466,
      "ang": 467,
      "ered": 468,
      "amp": 469,
      "ĠDe": 470,
      "oy": 471,
      "Ġfilm": 472,
      "Ġpo": 473,
      "Ġear": 474,
      "vel": 475,
      "form": 476,
      "ase": 477,
      "ĠAr": 478,
      "iver": 479,
      "Ġshe": 480,
      "ĠBrit": 481,
      "Ġthem": 482,
      "Ġcons": 483,
      "ollow": 484,
      "Ġdef": 485,
      "uil": 486,
      "ents": 487,
      "ail": 488,
      "Ġspe": 489,
      "ning": 490,
      "Ġunder": 491,
      "Ġco": 492,
      "Ġthree": 493,
      "Ġwork": 494,
      "Ġfl": 495,
      "Ġonly": 496,
      "fer": 497,
      "ican": 498,
      "able": 499,
      "ts": 500,
      "Ġmost": 501,
      "Ġsp": 502,
      "ĠUS": 503,
      "Ġair": 504,
      "rib": 505,
      "ĠRe": 506,
      "Ġpos": 507,
      "ks": 508,
      "Ġbet": 509,
      "wn": 510,
      "reat": 511,
      "ĠCom": 512,
      "ision": 513,
      "ip": 514,
      "ason": 515,
      "ĠAmer": 516,
      "Ġret": 517,
      "Ġfe": 518,
      "oth": 519,
      "red": 520,
      "Ġcent": 521,
      "Ġass": 522,
      "ational": 523,
      "Ġend": 524,
      "Ġnum": 525,
      "ĠAustral": 526,
      "Ġnew": 527,
      "tern": 528,
      "Ġsub": 529,
      "ĠNew": 530,
      "ubl": 531,
      "Ġfin": 532,
      "olog": 533,
      "ob": 534,
      "Ġreg": 535,
      "Ġwhen": 536,
      "ick": 537,
      "ings": 538,
      "cted": 539,
      "ters": 540,
      "Ġthrough": 541,
      "ood": 542,
      "Ġabout": 543,
      "fore": 544,
      "Ġcol": 545,
      "Ġhead": 546,
      "Ġkn": 547,
      "ween": 548,
      "Ġme": 549,
      "aus": 550,
      "Ġpe": 551,
      "Ġday": 552,
      "az": 553,
      "ict": 554,
      "ual": 555,
      "Ġra": 556,
      "ren": 557,
      "ix": 558,
      "Ġfour": 559,
      "ans": 560,
      "mber": 561,
      "Ġlater": 562,
      "Ġtr": 563,
      "In": 564,
      "end": 565,
      "ug": 566,
      "ating": 567,
      "rop": 568,
      "Ġwhile": 569,
      "ake": 570,
      "ener": 571,
      "ĠMar": 572,
      "Ġsupp": 573,
      "aj": 574,
      "io": 575,
      "ember": 576,
      "ĠZ": 577,
      "Ġfollow": 578,
      "ĠGer": 579,
      "Ġam": 580,
      "Ġsome": 581,
      "Ġship": 582,
      "Ġwar": 583,
      "Ġinv": 584,
      "Ġwhere": 585,
      "Ġteam": 586,
      "Ġcar": 587,
      "Ġrel": 588,
      "ities": 589,
      "Ġmon": 590,
      "ĠAl": 591,
      "Ġlar": 592,
      "ike": 593,
      "Ġbuil": 594,
      "bum": 595,
      "Ġmade": 596,
      "ck": 597,
      "Ġsong": 598,
      "ĠBritish": 599,
      "Ġbetween": 600,
      "the": 601,
      "Ġsur": 602,
      "Ġform": 603,
      "ock": 604,
      "Ġthan": 605,
      "Ġsever": 606,
      "aid": 607,
      "ci": 608,
      "ĠInd": 609,
      "ĠWar": 610,
      "Ġarm": 611,
      "Ġact": 612,
      "overn": 613,
      "Ġpr": 614,
      "Ġbefore": 615,
      "Ġprodu": 616,
      "Ġseason": 617,
      "ĠGerman": 618,
      "ook": 619,
      "Ġnumber": 620,
      "Ġbeing": 621,
      "Ġrecord": 622,
      "Ġsecond": 623,
      "ik": 624,
      "ĠOn": 625,
      "ls": 626,
      "Ġcity": 627,
      "Ġhigh": 628,
      "ained": 629,
      "Ġagainst": 630,
      "als": 631,
      "Ġrele": 632,
      "Ġgame": 633,
      "ific": 634,
      "Ġloc": 635,
      "Ġthere": 636,
      "Ġused": 637,
      "orld": 638,
      "ĠAmerican": 639,
      "ross": 640,
      "Ġalbum": 641,
      "Ġchar": 642,
      "Ġacc": 643,
      "ĠSh": 644,
      "roup": 645,
      "ĠMan": 646,
      "rans": 647,
      "ever": 648,
      "Ġgun": 649,
      "avy": 650,
      "Ġinc": 651,
      "ĠJap": 652,
      "Ġattack": 653,
      "Ġac": 654,
      "Ġem": 655,
      "Ġbatt": 656,
      "ower": 657,
      "hes": 658,
      "ank": 659,
      "Ġso": 660,
      "Ġcontin": 661,
      "ov": 662,
      "ĠJapan": 663,
      "Ġrep": 664,
      "ular": 665,
      "ince": 666,
      "Ġno": 667,
      "Ġtra": 668,
      "ames": 669,
      "Ġseveral": 670,
      "ins": 671,
      "ians": 672,
      "Ġent": 673,
      "ath": 674,
      "velop": 675,
      "Ġoper": 676,
      "Ġback": 677,
      "ĠMay": 678,
      "emb": 679,
      "iel": 680,
      "ished": 681,
      "ĠAt": 682,
      "ĠLes": 683,
      "air": 684,
      "Ġpol": 685,
      "Ġmat": 686,
      "Ġalong": 687,
      "Ġsuch": 688,
      "Ġboth": 689,
      "Ġmet": 690,
      "ised": 691,
      "Ġind": 692,
      "ĠAs": 693,
      "though": 694,
      "Ġbecame": 695,
      "ven": 696,
      "ĠUnited": 697,
      "Ġsm": 698,
      "other": 699,
      "ined": 700,
      "Ġpubl": 701,
      "Ġthen": 702,
      "der": 703,
      "Ġwell": 704,
      "elf": 705,
      "Ġver": 706,
      "ese": 707,
      "Ġdesign": 708,
      "Ġincluding": 709,
      "pr": 710,
      "ious": 711,
      "Ġqu": 712,
      "ures": 713,
      "ĠCl": 714,
      "Ġcap": 715,
      "cial": 716,
      "Ġsy": 717,
      "Ġmany": 718,
      "Ġest": 719,
      "its": 720,
      "Ġperform": 721,
      "uch": 722,
      "Ġmain": 723,
      "Ġgovern": 724,
      "alled": 725,
      "ject": 726,
      "Ġmil": 727,
      "Ġdec": 728,
      "Ġadd": 729,
      "Ġbegan": 730,
      "ĠLe": 731,
      "une": 732,
      "au": 733,
      "itt": 734,
      "Ġbl": 735,
      "owever": 736,
      "ern": 737,
      "ury": 738,
      "ued": 739,
      "ĠAn": 740,
      "Ġele": 741,
      "ute": 742,
      "ĠNorth": 743,
      "Ġdep": 744,
      "Ġtrans": 745,
      "Ġcan": 746,
      "Ġsign": 747,
      "Ġwrit": 748,
      "ram": 749,
      "ten": 750,
      "aced": 751,
      "son": 752,
      "ero": 753,
      "oun": 754,
      "ists": 755,
      "Ġter": 756,
      "Ġcould": 757,
      "Ġthese": 758,
      "Ġmus": 759,
      "Ġdo": 760,
      "Ġdid": 761,
      "ull": 762,
      "Ġdevelop": 763,
      "ived": 764,
      "ise": 765,
      "Ġlong": 766,
      "ĠFe": 767,
      "Ġsing": 768,
      "Ġpres": 769,
      "ĠShe": 770,
      "Ġgroup": 771,
      "Ġknown": 772,
      "ton": 773,
      "Ġinf": 774,
      "stru": 775,
      "raft": 776,
      "ful": 777,
      "ative": 778,
      "Ġmill": 779,
      "ĠThis": 780,
      "Ġart": 781,
      "ober": 782,
      "Ġfound": 783,
      "ĠSept": 784,
      "ert": 785,
      "oss": 786,
      "Ġmin": 787,
      "Ġkm": 788,
      "Ġyears": 789,
      "ier": 790,
      "Ġrece": 791,
      "ily": 792,
      "ident": 793,
      "ics": 794,
      "ĠCol": 795,
      "ured": 796,
      "urch": 797,
      "Ġreturn": 798,
      "Ġnorth": 799,
      "igin": 800,
      "Ġdire": 801,
      "ets": 802,
      "ments": 803,
      "ale": 804,
      "Ġlike": 805,
      "Ġop": 806,
      "orn": 807,
      "Ġland": 808,
      "Ġlead": 809,
      "ĠComm": 810,
      "xt": 811,
      "Ġhist": 812,
      "ĠSeptember": 813,
      "nar": 814,
      "erv": 815,
      "Ġcomple": 816,
      "Ġearly": 817,
      "Ġfeat": 818,
      "Ġsaid": 819,
      "Ġbro": 820,
      "ipp": 821,
      "aking": 822,
      "Ġimp": 823,
      "Ġob": 824,
      "ane": 825,
      "ange": 826,
      "row": 827,
      "Ġsmall": 828,
      "Ġoffic": 829,
      "Ġcre": 830,
      "ĠPol": 831,
      "ople": 832,
      "up": 833,
      "iron": 834,
      "cient": 835,
      "Ġpop": 836,
      "ield": 837,
      "oh": 838,
      "Ġnear": 839,
      "Ġany": 840,
      "osp": 841,
      "Ġappear": 842,
      "ajor": 843,
      "ah": 844,
      "ep": 845,
      "Ġaround": 846,
      "ĠBl": 847,
      "ided": 848,
      "ĠPh": 849,
      "Ġshow": 850,
      "ĠAug": 851,
      "ause": 852,
      "Ġlarge": 853,
      "Ġset": 854,
      "led": 855,
      "oot": 856,
      "ĠAugust": 857,
      "pan": 858,
      "Ġtem": 859,
      "osed": 860,
      "ized": 861,
      "Ġgod": 862,
      "Ġarea": 863,
      "Ġseries": 864,
      "ool": 865,
      "ather": 866,
      "ctor": 867,
      "ually": 868,
      "ĠSte": 869,
      "ible": 870,
      "ned": 871,
      "Ġpers": 872,
      "Ġdif": 873,
      "Ġdown": 874,
      "Ġunt": 875,
      "Ġinst": 876,
      "ivision": 877,
      "tend": 878,
      "ty": 879,
      "ĠSouth": 880,
      "Ġep": 881,
      "side": 882,
      "ats": 883,
      "ĠOct": 884,
      "quad": 885,
      "Ġgo": 886,
      "rist": 887,
      "Ġstart": 888,
      "ĠJune": 889,
      "ccess": 890,
      "Ġsupport": 891,
      "Ġtook": 892,
      "ina": 893,
      "hen": 894,
      "ored": 895,
      "ĠAfter": 896,
      "ĠBe": 897,
      "Ġconc": 898,
      "oad": 899,
      "oved": 900,
      "Ġsouth": 901,
      "Ġprom": 902,
      "Ġforces": 903,
      "ode": 904,
      "ism": 905,
      "ĠCar": 906,
      "ropical": 907,
      "Ġcharac": 908,
      "Ġdisc": 909,
      "ĠJapanese": 910,
      "Ġuntil": 911,
      "Ġgu": 912,
      "ĠIs": 913,
      "ified": 914,
      "ĠCon": 915,
      "ĠLesnar": 916,
      "Ġcalled": 917,
      "Ġbo": 918,
      "Ġpass": 919,
      "ĠBatt": 920,
      "view": 921,
      "ting": 922,
      "Ġsix": 923,
      "Ġgener": 924,
      "ĠNove": 925,
      "Ġorigin": 926,
      "Ġposition": 927,
      "Ġopen": 928,
      "Ġdam": 929,
      "ĠAll": 930,
      "idge": 931,
      "imes": 932,
      "rench": 933,
      "Ġcrit": 934,
      "ars": 935,
      "Ġfollowing": 936,
      "crib": 937,
      "Ġocc": 938,
      "Ġstate": 939,
      "ung": 940,
      "Ġadv": 941,
      "ĠAustralian": 942,
      "oon": 943,
      "arch": 944,
      "ĠYork": 945,
      "Ġreleased": 946,
      "ple": 947,
      "yl": 948,
      "ĠFor": 949,
      "riv": 950,
      "ĠOctober": 951,
      "Ġprov": 952,
      "amed": 953,
      "ĠJan": 954,
      "Ġclass": 955,
      "ĠNovember": 956,
      "Ġstr": 957,
      "ivers": 958,
      "ler": 959,
      "my": 960,
      "ĠMe": 961,
      "ĠFrench": 962,
      "ops": 963,
      "oci": 964,
      "Ġexp": 965,
      "ball": 966,
      "ones": 967,
      "Ġwind": 968,
      "Ġfive": 969,
      "Ġport": 970,
      "Ġbel": 971,
      "wards": 972,
      "quadron": 973,
      "ai": 974,
      "urther": 975,
      "Ġdist": 976,
      "Ġplan": 977,
      "Ġuse": 978,
      "Ġincluded": 979,
      "craft": 980,
      "Ġsince": 981,
      "Ġreport": 982,
      "Ġcommand": 983,
      "ology": 984,
      "ax": 985,
      "ues": 986,
      "chool": 987,
      "Ġrun": 988,
      "Ġvar": 989,
      "ission": 990,
      "Ġdest": 991,
      "Ġeff": 992,
      "ately": 993,
      "ird": 994,
      "Ġtro": 995,
      "ĠAd": 996,
      "Ġkill": 997,
      "Ġgovernment": 998,
      "uary": 999,
      "Ġbr": 1000,
      "ives": 1001,
      "ĠStates": 1002,
      "Ġpeople": 1003,
      "gest": 1004,
      "Ġiron": 1005,
      "Ġcount": 1006,
      "ution": 1007,
      "Ġsuccess": 1008,
      "Ġplace": 1009,
      "by": 1010,
      "ek": 1011,
      "Ġsame": 1012,
      "Ġships": 1013,
      "Ġwin": 1014,
      "Ġmod": 1015,
      "uss": 1016,
      "ctions": 1017,
      "Ġbuilt": 1018,
      "ohn": 1019,
      "vent": 1020,
      "oute": 1021,
      "Ġconsid": 1022,
      "Ġmatch": 1023,
      "Ġmusic": 1024,
      "ged": 1025,
      "ired": 1026,
      "Ġstorm": 1027,
      "ĠWorld": 1028,
      "Ġann": 1029,
      "Ġyou": 1030,
      "gy": 1031,
      "empt": 1032,
      "Ġown": 1033,
      "ila": 1034,
      "Ġconf": 1035,
      "ife": 1036,
      "Ġepis": 1037,
      "ene": 1038,
      "ash": 1039,
      "ility": 1040,
      "Ġstud": 1041,
      "ĠNo": 1042,
      "Ġpublic": 1043,
      "ĠScient": 1044,
      "Ġeach": 1045,
      "Ġturn": 1046,
      "itary": 1047,
      "Ġtop": 1048,
      "Ġdescrib": 1049,
      "Ġspec": 1050,
      "ding": 1051,
      "Ġbas": 1052,
      "Ġref": 1053,
      "ĠBr": 1054,
      "Ġstre": 1055,
      "Ġstru": 1056,
      "ĠChrist": 1057,
      "Ġjust": 1058,
      "Ġreceived": 1059,
      "ble": 1060,
      "Ġthough": 1061,
      "Ġeast": 1062,
      "ains": 1063,
      "Ġsingle": 1064,
      "ĠJu": 1065,
      "ording": 1066,
      "Ġserv": 1067,
      "ĠPhil": 1068,
      "Ġpower": 1069,
      "Ġhal": 1070,
      "ĠEd": 1071,
      "ĠJanuary": 1072,
      "Ġcour": 1073,
      "Ġmajor": 1074,
      "ĠJohn": 1075,
      "pped": 1076,
      "ĠDece": 1077,
      "ĠAm": 1078,
      "ĠApr": 1079,
      "ĠRoute": 1080,
      "Ġvi": 1081,
      "Ġappro": 1082,
      "Ġplayed": 1083,
      "vious": 1084,
      "uro": 1085,
      "Ġty": 1086,
      "ently": 1087,
      "ached": 1088,
      "ides": 1089,
      "cept": 1090,
      "ĠNero": 1091,
      "Ġalthough": 1092,
      "Ġext": 1093,
      "Ġpartic": 1094,
      "ront": 1095,
      "Ġrest": 1096,
      "Ġled": 1097,
      "omin": 1098,
      "ement": 1099,
      "Ġleft": 1100,
      "Ġaircraft": 1101,
      "ĠApril": 1102,
      "ional": 1103,
      "ĠTe": 1104,
      "ild": 1105,
      "Ġheld": 1106,
      "ys": 1107,
      "Ġmay": 1108,
      "stem": 1109,
      "urre": 1110,
      "ĠThey": 1111,
      "Ġcontro": 1112,
      "Ġresp": 1113,
      "embers": 1114,
      "Ġed": 1115,
      "Ġfire": 1116,
      "Ġins": 1117,
      "Ġwithin": 1118,
      "antry": 1119,
      "aving": 1120,
      "Ġi": 1121,
      "Ġtri": 1122,
      "Ġmen": 1123,
      "Ġrepl": 1124,
      "els": 1125,
      "ĠMc": 1126,
      "ĠGu": 1127,
      "to": 1128,
      "Ġwest": 1129,
      "ĠAng": 1130,
      "Ġmillion": 1131,
      "ĠDecember": 1132,
      "ner": 1133,
      "roy": 1134,
      "ica": 1135,
      "Ġdue": 1136,
      "Ġpoint": 1137,
      "ared": 1138,
      "Ġeng": 1139,
      "Ġbecause": 1140,
      "Ġtrack": 1141,
      "Ġpost": 1142,
      "ĠNational": 1143,
      "ument": 1144,
      "ham": 1145,
      "Ġri": 1146,
      "Ġfurther": 1147,
      "Ġrequ": 1148,
      "ĠAir": 1149,
      "Ġever": 1150,
      "Ġattempt": 1151,
      "ger": 1152,
      "Ġband": 1153,
      "Ġnow": 1154,
      "ural": 1155,
      "ards": 1156,
      "ordan": 1157,
      "Ġeven": 1158,
      "Ġperson": 1159,
      "ms": 1160,
      "abl": 1161,
      "ĠJuly": 1162,
      "Ġsim": 1163,
      "Ġft": 1164,
      "enn": 1165,
      "Ġline": 1166,
      "Ġformer": 1167,
      "aken": 1168,
      "pect": 1169,
      "Ġguns": 1170,
      "Ġtroops": 1171,
      "Ġepisode": 1172,
      "orp": 1173,
      "Ġhand": 1174,
      "Ġorgan": 1175,
      "med": 1176,
      "Ġsold": 1177,
      "Ġph": 1178,
      "ically": 1179,
      "Ġside": 1180,
      "Ġcame": 1181,
      "arr": 1182,
      "Ġthird": 1183,
      "Ġanother": 1184,
      "isted": 1185,
      "Ġnext": 1186,
      "bo": 1187,
      "und": 1188,
      "alion": 1189,
      "ays": 1190,
      "Ġcentury": 1191,
      "Ġinvol": 1192,
      "iod": 1193,
      "Ġconstru": 1194,
      "aged": 1195,
      "iving": 1196,
      "Ġfinal": 1197,
      "Ġcontinued": 1198,
      "ittle": 1199,
      "ae": 1200,
      "Ġwon": 1201,
      "oll": 1202,
      "ĠHowever": 1203,
      "ĠEng": 1204,
      "ĠChurch": 1205,
      "Ġprevious": 1206,
      "Ġmembers": 1207,
      "Ġnort": 1208,
      "ĠMus": 1209,
      "rote": 1210,
      "Ġmuch": 1211,
      "Ġdem": 1212,
      "Ġname": 1213,
      "ulation": 1214,
      "ĠKore": 1215,
      "hile": 1216,
      "Ġincre": 1217,
      "aim": 1218,
      "ĠIm": 1219,
      "ĠRiver": 1220,
      "Ġhalf": 1221,
      "Ġcr": 1222,
      "uted": 1223,
      "Ġste": 1224,
      "ĠManila": 1225,
      "Ġcharacter": 1226,
      "ef": 1227,
      "ont": 1228,
      "read": 1229,
      "ison": 1230,
      "Ġdel": 1231,
      "Ġhome": 1232,
      "ĠPl": 1233,
      "Ġiss": 1234,
      "Ġke": 1235,
      "Ġresult": 1236,
      "Ġdefe": 1237,
      "Ġposs": 1238,
      "Ġbelie": 1239,
      "ads": 1240,
      "Ġallow": 1241,
      "ius": 1242,
      "ery": 1243,
      "ĠSc": 1244,
      "Ġlast": 1245,
      "Ġlight": 1246,
      "Ġhel": 1247,
      "ague": 1248,
      "bru": 1249,
      "rew": 1250,
      "ĠWe": 1251,
      "ploy": 1252,
      "Ġmilitary": 1253,
      "ospond": 1254,
      "rest": 1255,
      "Ġfam": 1256,
      "Ġcover": 1257,
      "alk": 1258,
      "Ġnamed": 1259,
      "min": 1260,
      "ness": 1261,
      "ycl": 1262,
      "Ġfew": 1263,
      "ouse": 1264,
      "ĠMer": 1265,
      "Ġwhat": 1266,
      "Ġcare": 1267,
      "ĠCan": 1268,
      "omet": 1269,
      "ĠMich": 1270,
      "ĠII": 1271,
      "ĠFran": 1272,
      "resent": 1273,
      "Ġrole": 1274,
      "ĠAustralia": 1275,
      "Ġaddition": 1276,
      "me": 1277,
      "ves": 1278,
      "Ġstill": 1279,
      "ĠDivision": 1280,
      "ideo": 1281,
      "Ġevent": 1282,
      "ĠFebru": 1283,
      "Ġaut": 1284,
      "Ġsent": 1285,
      "ĠBut": 1286,
      "Ġforce": 1287,
      "Ġdestroy": 1288,
      "ched": 1289,
      "Ġsl": 1290,
      "atter": 1291,
      "Ġcross": 1292,
      "Ġbeg": 1293,
      "Ġmonth": 1294,
      "lu": 1295,
      "Ġschool": 1296,
      "Ġmid": 1297,
      "leet": 1298,
      "Ġlate": 1299,
      "ĠRoad": 1300,
      "Ġcapt": 1301,
      "Ġdiffer": 1302,
      "On": 1303,
      "ĠQ": 1304,
      "Ġtropical": 1305,
      "Ġhum": 1306,
      "Ġord": 1307,
      "pend": 1308,
      "Ġdays": 1309,
      "Ġbased": 1310,
      "Ġpat": 1311,
      "ĠJordan": 1312,
      "ially": 1313,
      "Ġsystem": 1314,
      "iam": 1315,
      "ĠGener": 1316,
      "Ġexpl": 1317,
      "aval": 1318,
      "self": 1319,
      "eder": 1320,
      "ital": 1321,
      "Ġmark": 1322,
      "Ġmake": 1323,
      "Ġdeath": 1324,
      "Ġbattle": 1325,
      "Ġmoved": 1326,
      "ots": 1327,
      "ants": 1328,
      "oyal": 1329,
      "Ġestabl": 1330,
      "ĠFebruary": 1331,
      "of": 1332,
      "Ġsk": 1333,
      "ley": 1334,
      "lect": 1335,
      "ĠThese": 1336,
      "Ġright": 1337,
      "akes": 1338,
      "sequ": 1339,
      "hib": 1340,
      "aut": 1341,
      "Ġgr": 1342,
      "ĠGe": 1343,
      "Ġperiod": 1344,
      "Ġdescribed": 1345,
      "Ġes": 1346,
      "Ġequ": 1347,
      "iment": 1348,
      "etr": 1349,
      "ages": 1350,
      "ĠMarch": 1351,
      "cy": 1352,
      "eter": 1353,
      "Ġif": 1354,
      "ink": 1355,
      "ense": 1356,
      "isc": 1357,
      "Ġreview": 1358,
      "ulu": 1359,
      "ĠEm": 1360,
      "Ġred": 1361,
      "app": 1362,
      "ĠTown": 1363,
      "ĠSu": 1364,
      "ĠChar": 1365,
      "ensive": 1366,
      "Ġjo": 1367,
      "intulu": 1368,
      "ĠArmy": 1369,
      "Ġlocal": 1370,
      "Ġstrong": 1371,
      "ior": 1372,
      "Ġworld": 1373,
      "Ġmove": 1374,
      "ĠSp": 1375,
      "ĠKing": 1376,
      "ikal": 1377,
      "Ġhistory": 1378,
      "Ġgods": 1379,
      "Ġhour": 1380,
      "irc": 1381,
      "used": 1382,
      "Ġironcl": 1383,
      "ĠGeneral": 1384,
      "Ġway": 1385,
      "Ġold": 1386,
      "Ġbeh": 1387,
      "Ġgreat": 1388,
      "ety": 1389,
      "ĠState": 1390,
      "gypt": 1391,
      "par": 1392,
      "pite": 1393,
      "uc": 1394,
      "Ġtw": 1395,
      "Ġheavy": 1396,
      "raph": 1397,
      "ivil": 1398,
      "Ġarch": 1399,
      "Ġcontr": 1400,
      "Ġrepresent": 1401,
      "tended": 1402,
      "ling": 1403,
      "ship": 1404,
      "Ġtit": 1405,
      "ining": 1406,
      "ĠTikal": 1407,
      "ĠCity": 1408,
      "ĠBy": 1409,
      "ĠBintulu": 1410,
      "ĠRich": 1411,
      "ried": 1412,
      "ĠWill": 1413,
      "get": 1414,
      "Ġwrote": 1415,
      "Ġthose": 1416,
      "omb": 1417,
      "idian": 1418,
      "ĠPro": 1419,
      "Ġorder": 1420,
      "Ġcompan": 1421,
      "ression": 1422,
      "ĠPolish": 1423,
      "ĠScientology": 1424,
      "AA": 1425,
      "ead": 1426,
      "ox": 1427,
      "Ġopp": 1428,
      "atic": 1429,
      "ĠEgypt": 1430,
      "ĠPhilipp": 1431,
      "ches": 1432,
      "Ġmm": 1433,
      "elt": 1434,
      "iven": 1435,
      "mas": 1436,
      "Ġsite": 1437,
      "Ġfight": 1438,
      "Ġbar": 1439,
      "Ġdiv": 1440,
      "ilar": 1441,
      "Ġdeb": 1442,
      "hern": 1443,
      "Ġcomb": 1444,
      "Ġchild": 1445,
      "Ġkilled": 1446,
      "urope": 1447,
      "vens": 1448,
      "Ġfront": 1449,
      "Ġcaus": 1450,
      "ann": 1451,
      "Ġtot": 1452,
      "Ġlost": 1453,
      "aining": 1454,
      "Ġprog": 1455,
      "Ġclaim": 1456,
      "Ġcommun": 1457,
      "Ġnever": 1458,
      "ĠReg": 1459,
      "Ġfore": 1460,
      "Ġbook": 1461,
      "Ġinit": 1462,
      "astern": 1463,
      "Ġmi": 1464,
      "ĠCo": 1465,
      "ody": 1466,
      "ĠStre": 1467,
      "ization": 1468,
      "nospond": 1469,
      "ature": 1470,
      "itted": 1471,
      "Ġoften": 1472,
      "ĠSquadron": 1473,
      "ĠEurope": 1474,
      "Ġsuff": 1475,
      "Ġproject": 1476,
      "ances": 1477,
      "ille": 1478,
      "Ġgames": 1479,
      "ĠInf": 1480,
      "Ġshort": 1481,
      "augh": 1482,
      "hest": 1483,
      "ences": 1484,
      "Ġbest": 1485,
      "amb": 1486,
      "ney": 1487,
      "ampions": 1488,
      "fe": 1489,
      "vision": 1490,
      "Ġwater": 1491,
      "Ġcycl": 1492,
      "ĠCent": 1493,
      "urt": 1494,
      "ĠYou": 1495,
      "Ġremained": 1496,
      "Ġreturned": 1497,
      "Ġconsidered": 1498,
      "for": 1499,
      "field": 1500,
      "Ġpar": 1501,
      "Ġpur": 1502,
      "Ġmed": 1503,
      "Ġnight": 1504,
      "ĠThere": 1505,
      "Ġstand": 1506,
      "ĠHis": 1507,
      "Ġprop": 1508,
      "Ġhistor": 1509,
      "iqu": 1510,
      "heast": 1511,
      "reg": 1512,
      "ales": 1513,
      "Ġmar": 1514,
      "Ġlow": 1515,
      "ĠOr": 1516,
      "Ġexper": 1517,
      "ize": 1518,
      "Ġoperations": 1519,
      "Ġestim": 1520,
      "Ġdeveloped": 1521,
      "Ġpresent": 1522,
      "AS": 1523,
      "reen": 1524,
      "Ġcult": 1525,
      "Ġla": 1526,
      "ott": 1527,
      "vers": 1528,
      "ĠNavy": 1529,
      "Ġsug": 1530,
      "Ġlocated": 1531,
      "Ġpolit": 1532,
      "iversity": 1533,
      "Ġdifferent": 1534,
      "bor": 1535,
      "ium": 1536,
      "iers": 1537,
      "estern": 1538,
      "Ġlim": 1539,
      "emor": 1540,
      "Ġsignific": 1541,
      "yls": 1542,
      "Ġaway": 1543,
      "ination": 1544,
      "Ġcamp": 1545,
      "ask": 1546,
      "Ġtown": 1547,
      "Ġmount": 1548,
      "Ġreached": 1549,
      "ĠBur": 1550,
      "Ġvis": 1551,
      "Ġroad": 1552,
      "Ġprim": 1553,
      "Ġproduced": 1554,
      "Ġdirect": 1555,
      "cing": 1556,
      "Ġwill": 1557,
      "Ġhowever": 1558,
      "Ġreal": 1559,
      "ĠSan": 1560,
      "Ġstri": 1561,
      "Ġstated": 1562,
      "ĠPar": 1563,
      "Ġmetres": 1564,
      "Ġvery": 1565,
      "Ġinflu": 1566,
      "Ġwinds": 1567,
      "Ġreported": 1568,
      "ering": 1569,
      "ret": 1570,
      "ator": 1571,
      "ither": 1572,
      "Ġlife": 1573,
      "ĠCount": 1574,
      "Ġwithout": 1575,
      "ably": 1576,
      "Ġleg": 1577,
      "ĠIndian": 1578,
      "Ġcareer": 1579,
      "Ġtotal": 1580,
      "ampionship": 1581,
      "mar": 1582,
      "na": 1583,
      "Ġfig": 1584,
      "alth": 1585,
      "Ġdecl": 1586,
      "Ġseen": 1587,
      "Ġshot": 1588,
      "rict": 1589,
      "Ġformed": 1590,
      "ĠMeridian": 1591,
      "aul": 1592,
      "Ġmy": 1593,
      "Ġdra": 1594,
      "outher": 1595,
      "aying": 1596,
      "ĠNY": 1597,
      "ĠWh": 1598,
      "ĠJack": 1599,
      "Ġeffect": 1600,
      "ĠInfantry": 1601,
      "rum": 1602,
      "iter": 1603,
      "Ġcirc": 1604,
      "Ġhaving": 1605,
      "Ġstat": 1606,
      "Ġstar": 1607,
      "ccording": 1608,
      "ferred": 1609,
      "Ġsurv": 1610,
      "Ġacross": 1611,
      "Ġsuggest": 1612,
      "ges": 1613,
      "Ġtimes": 1614,
      "erry": 1615,
      "Ġmaking": 1616,
      "stit": 1617,
      "ĠHigh": 1618,
      "ĠFl": 1619,
      "ĠWhen": 1620,
      "ape": 1621,
      "ways": 1622,
      "Ġactiv": 1623,
      "pany": 1624,
      "ĠIsland": 1625,
      "hor": 1626,
      "vol": 1627,
      "Ġfre": 1628,
      "ices": 1629,
      "ĠAnd": 1630,
      "oman": 1631,
      "Ġgra": 1632,
      "imately": 1633,
      "ĠOff": 1634,
      "Ġvideo": 1635,
      "Ġweek": 1636,
      "ĠStevens": 1637,
      "Ġevery": 1638,
      "haw": 1639,
      "Ġer": 1640,
      "ara": 1641,
      "Ġpain": 1642,
      "ĠAg": 1643,
      "Ġisland": 1644,
      "Ġrange": 1645,
      "ought": 1646,
      "Ġamong": 1647,
      "Ġvers": 1648,
      "be": 1649,
      "dition": 1650,
      "yle": 1651,
      "Ġround": 1652,
      "Ġcas": 1653,
      "anks": 1654,
      "ister": 1655,
      "ĠCal": 1656,
      "ĠRuss": 1657,
      "Ġplaced": 1658,
      "Ġimport": 1659,
      "Ġspecial": 1660,
      "ĠGermany": 1661,
      "Ġoriginal": 1662,
      "Ġdamage": 1663,
      "oe": 1664,
      "Ġsit": 1665,
      "ention": 1666,
      "Ġvict": 1667,
      "Ġtele": 1668,
      "ĠBattle": 1669,
      "Ġcountry": 1670,
      "Ġhelp": 1671,
      "Ġsignificant": 1672,
      "Ġfoot": 1673,
      "Ġbre": 1674,
      "Ġbase": 1675,
      "Ġpit": 1676,
      "Ġput": 1677,
      "Ġnational": 1678,
      "Ġgl": 1679,
      "Ġgiven": 1680,
      "Ġstory": 1681,
      "ela": 1682,
      "bert": 1683,
      "ively": 1684,
      "Ġunits": 1685,
      "reek": 1686,
      "Ġusing": 1687,
      "action": 1688,
      "Ġtrad": 1689,
      "Ġemb": 1690,
      "Ġperformance": 1691,
      "Ġview": 1692,
      "Ġve": 1693,
      "iness": 1694,
      "Ġwent": 1695,
      "Ġfr": 1696,
      "Ġpress": 1697,
      "ĠAss": 1698,
      "Ġel": 1699,
      "ĠRoyal": 1700,
      "ĠDuring": 1701,
      "ript": 1702,
      "Ġprof": 1703,
      "Ġevac": 1704,
      "Ġregion": 1705,
      "Ġrelig": 1706,
      "Ġbuilding": 1707,
      "Ġmodern": 1708,
      "Ġaction": 1709,
      "eng": 1710,
      "ĠHar": 1711,
      "Ġlevel": 1712,
      "ference": 1713,
      "Ġpromot": 1714,
      "ĠWilliam": 1715,
      "outhern": 1716,
      "con": 1717,
      "cess": 1718,
      "ki": 1719,
      "Ġtest": 1720,
      "Ġtake": 1721,
      "Ġcut": 1722,
      "Ġmiss": 1723,
      "ĠSec": 1724,
      "endes": 1725,
      "Ġobs": 1726,
      "ĠChristmas": 1727,
      "aur": 1728,
      "go": 1729,
      "atch": 1730,
      "Ġfav": 1731,
      "Ġtoo": 1732,
      "eth": 1733,
      "ĠRh": 1734,
      "ĠPer": 1735,
      "ĠPark": 1736,
      "riend": 1737,
      "send": 1738,
      "Ġhimself": 1739,
      "ailed": 1740,
      "Ġparticular": 1741,
      "Ġsimilar": 1742,
      "fic": 1743,
      "mond": 1744,
      "ny": 1745,
      "ĠAf": 1746,
      "Ġlaw": 1747,
      "ĠHill": 1748,
      "ĠWith": 1749,
      "Ġagre": 1750,
      "ports": 1751,
      "Ġserved": 1752,
      "Ġpeak": 1753,
      "ĠFey": 1754,
      "ĠBattalion": 1755,
      "ev": 1756,
      "tic": 1757,
      "Ġnd": 1758,
      "ream": 1759,
      "Ġfac": 1760,
      "Ġdet": 1761,
      "Ġey": 1762,
      "Ġground": 1763,
      "ush": 1764,
      "ĠAlthough": 1765,
      "Ġofficial": 1766,
      "Ġsuccessful": 1767,
      "Ġconstruction": 1768,
      "Ġbehind": 1769,
      "less": 1770,
      "here": 1771,
      "Ġaff": 1772,
      "enes": 1773,
      "enced": 1774,
      "Ġcle": 1775,
      "Ġhig": 1776,
      "Ġeight": 1777,
      "ĠBo": 1778,
      "ĠOne": 1779,
      "Ġclose": 1780,
      "eck": 1781,
      "ĠDep": 1782,
      "Ġmiles": 1783,
      "Ġpopulation": 1784,
      "ĠChurchill": 1785,
      "bs": 1786,
      "cher": 1787,
      "eal": 1788,
      "ns": 1789,
      "ration": 1790,
      "Ġav": 1791,
      "onic": 1792,
      "Ġsound": 1793,
      "Ġwant": 1794,
      "Ġfind": 1795,
      "rodu": 1796,
      "lected": 1797,
      "Ġflo": 1798,
      "Ġcrew": 1799,
      "Ġhuman": 1800,
      "ĠStreet": 1801,
      "ĠCounty": 1802,
      "dom": 1803,
      "pir": 1804,
      "tain": 1805,
      "Ġide": 1806,
      "inted": 1807,
      "ĠSo": 1808,
      "Ġstage": 1809,
      "ĠDes": 1810,
      "ĠJew": 1811,
      "Ġleast": 1812,
      "Ġtemnospond": 1813,
      "Ġcourt": 1814,
      "ederal": 1815,
      "ring": 1816,
      "Ġmor": 1817,
      "ĠRec": 1818,
      "ĠDu": 1819,
      "ĠLond": 1820,
      "Ġrad": 1821,
      "Ġprote": 1822,
      "Ġshould": 1823,
      "rick": 1824,
      "ĠUniversity": 1825,
      "ĠRep": 1826,
      "Ġsubsequ": 1827,
      "Ġrecorded": 1828,
      "Ġcontrol": 1829,
      "Ġsoldiers": 1830,
      "most": 1831,
      "rated": 1832,
      "uation": 1833,
      "work": 1834,
      "Ġwa": 1835,
      "ising": 1836,
      "Ġmov": 1837,
      "ĠSl": 1838,
      "ado": 1839,
      "acy": 1840,
      "Ġget": 1841,
      "Ġgave": 1842,
      "Ġgold": 1843,
      "rior": 1844,
      "ĠWest": 1845,
      "Ġroute": 1846,
      "Ġfollowed": 1847,
      "Ġvarious": 1848,
      "Ġinvolved": 1849,
      "Ġtitle": 1850,
      "aign": 1851,
      "eks": 1852,
      "ma": 1853,
      "Ġsaw": 1854,
      "atives": 1855,
      "Ġbus": 1856,
      "ĠSy": 1857,
      "Ġnaval": 1858,
      "lythe": 1859,
      "urg": 1860,
      "ĠMount": 1861,
      "ĠBro": 1862,
      "igan": 1863,
      "rang": 1864,
      "Ġplayer": 1865,
      "ounter": 1866,
      "Ġannoun": 1867,
      "Ġfamily": 1868,
      "ĠPhilippines": 1869,
      "epend": 1870,
      "ient": 1871,
      "men": 1872,
      "itar": 1873,
      "Ġface": 1874,
      "Ġmember": 1875,
      "ĠMal": 1876,
      "ĠMendes": 1877,
      "ria": 1878,
      "ograph": 1879,
      "Ġbecome": 1880,
      "ĠAmerica": 1881,
      "Ġproduction": 1882,
      "Ġrelease": 1883,
      "ĠLeague": 1884,
      "Ġdevelopment": 1885,
      "Ġcritic": 1886,
      "ps": 1887,
      "ving": 1888,
      "itive": 1889,
      "Ġtour": 1890,
      "ĠRock": 1891,
      "ĠPort": 1892,
      "ershaw": 1893,
      "ĠEl": 1894,
      "Ġrul": 1895,
      "Ġchart": 1896,
      "phoon": 1897,
      "ĠTownsend": 1898,
      "com": 1899,
      "Ġcivil": 1900,
      "ĠMark": 1901,
      "utes": 1902,
      "ayer": 1903,
      "aves": 1904,
      "Ġscul": 1905,
      "ĠBritain": 1906,
      "Ġthroughout": 1907,
      "cent": 1908,
      "ford": 1909,
      "por": 1910,
      "Ġwide": 1911,
      "Ġwood": 1912,
      "asion": 1913,
      "Ġhit": 1914,
      "Ġhold": 1915,
      "lying": 1916,
      "ĠPe": 1917,
      "ĠPr": 1918,
      "chn": 1919,
      "ĠEast": 1920,
      "artment": 1921,
      "ĠCompany": 1922,
      "Ġbattles": 1923,
      "Ġstarted": 1924,
      "Ġdiscover": 1925,
      "Ġyoung": 1926,
      "ole": 1927,
      "inning": 1928,
      "Ġfleet": 1929,
      "arly": 1930,
      "Ġless": 1931,
      "umb": 1932,
      "Ġvol": 1933,
      "ords": 1934,
      "Ġintens": 1935,
      "Ġcompet": 1936,
      "Ġearl": 1937,
      "ollowing": 1938,
      "Ġcentral": 1939,
      "Ġwritten": 1940,
      "ĠLondon": 1941,
      "line": 1942,
      "yn": 1943,
      "Ġfun": 1944,
      "Ġfather": 1945,
      "Ġfelt": 1946,
      "Ġcase": 1947,
      "Ġpra": 1948,
      "Ġmph": 1949,
      "Ġdoll": 1950,
      "Ġreb": 1951,
      "ĠAccording": 1952,
      "Ġstyle": 1953,
      "Ġwithd": 1954,
      "Ġchang": 1955,
      "Ġworks": 1956,
      "Ġpolice": 1957,
      "Ġfeatures": 1958,
      "urrent": 1959,
      "Ġrespons": 1960,
      "ĠMcC": 1961,
      "ĠCanad": 1962,
      "ĠGeor": 1963,
      "Ġsculpt": 1964,
      "aff": 1965,
      "ga": 1966,
      "ying": 1967,
      "ald": 1968,
      "Ġmur": 1969,
      "Ġhom": 1970,
      "urity": 1971,
      "ĠMad": 1972,
      "ĠNB": 1973,
      "ems": 1974,
      "ĠJames": 1975,
      "Ġsee": 1976,
      "ĠUnder": 1977,
      "Ġheads": 1978,
      "Ġrain": 1979,
      "Ġpublished": 1980,
      "fall": 1981,
      "Ġtre": 1982,
      "Ġsw": 1983,
      "Ġbomb": 1984,
      "Ġpie": 1985,
      "Ġtowards": 1986,
      "ico": 1987,
      "Ġdied": 1988,
      "ĠAward": 1989,
      "ids": 1990,
      "emy": 1991,
      "pper": 1992,
      "pping": 1993,
      "ĠEx": 1994,
      "ivid": 1995,
      "ĠOper": 1996,
      "abor": 1997,
      "ĠHead": 1998,
      "Ġscene": 1999,
      "Ġsongs": 2000,
      "Ġoriginally": 2001,
      "Ġspecies": 2002,
      "Ġstruct": 2003,
      "Ġpolitical": 2004,
      "ience": 2005,
      "mb": 2006,
      "tar": 2007,
      "Ġten": 2008,
      "Ġfriend": 2009,
      "Ġhost": 2010,
      "ĠSen": 2011,
      "Ġlack": 2012,
      "Ġonce": 2013,
      "iding": 2014,
      "ĠRad": 2015,
      "osing": 2016,
      "ries": 2017,
      "oph": 2018,
      "Ġnoted": 2019,
      "igned": 2020,
      "Ġmonument": 2021,
      "ĠLester": 2022,
      "Ġdestroyed": 2023,
      "Ġestimated": 2024,
      "eum": 2025,
      "sh": 2026,
      "ata": 2027,
      "ators": 2028,
      "Ġfar": 2029,
      "ington": 2030,
      "ĠSpan": 2031,
      "ades": 2032,
      "ĠCreek": 2033,
      "urb": 2034,
      "ĠMin": 2035,
      "ĠBest": 2036,
      "ĠBlythe": 2037,
      "istic": 2038,
      "ples": 2039,
      "Ġabove": 2040,
      "ĠItal": 2041,
      "Ġneed": 2042,
      "Ġcolon": 2043,
      "Ġhighway": 2044,
      "Ġoccup": 2045,
      "ĠMex": 2046,
      "Ġriver": 2047,
      "Ġauthor": 2048,
      "ground": 2049,
      "Ġslow": 2050,
      "Ġsquadron": 2051,
      "Ġinj": 2052,
      "aster": 2053,
      "Ġmag": 2054,
      "let": 2055,
      "ĠSome": 2056,
      "Ġloss": 2057,
      "aces": 2058,
      "irst": 2059,
      "play": 2060,
      "Ġable": 2061,
      "ĠYear": 2062,
      "Ġpoet": 2063,
      "Ġcreated": 2064,
      "Ġpopular": 2065,
      "Ġservice": 2066,
      "ĠKorean": 2067,
      "Ġimportant": 2068,
      "ael": 2069,
      "iber": 2070,
      "nel": 2071,
      "ency": 2072,
      "Ġdivision": 2073,
      "Ġhow": 2074,
      "Ġlist": 2075,
      "Ġfort": 2076,
      "ĠRaj": 2077,
      "ĠPo": 2078,
      "Ġcondu": 2079,
      "ĠGreat": 2080,
      "odes": 2081,
      "ĠOl": 2082,
      "alls": 2083,
      "ourt": 2084,
      "ressed": 2085,
      "Ġinclude": 2086,
      "Ġentire": 2087,
      "Ġdesigned": 2088,
      "Ġsigned": 2089,
      "Ġinstead": 2090,
      "Ġoccur": 2091,
      "ĠMichigan": 2092,
      "Ġesc": 2093,
      "Ġcaused": 2094,
      "gr": 2095,
      "west": 2096,
      "Ġfull": 2097,
      "ened": 2098,
      "Ġce": 2099,
      "Ġcru": 2100,
      "Ġdi": 2101,
      "ĠSm": 2102,
      "ĠBul": 2103,
      "ĠLittle": 2104,
      "Ġcommer": 2105,
      "iva": 2106,
      "Ġareas": 2107,
      "Ġarri": 2108,
      "Ġtechn": 2109,
      "ounded": 2110,
      "Ġplayers": 2111,
      "ĠUnion": 2112,
      "Ġintern": 2113,
      "Ġcoast": 2114,
      "Ġadded": 2115,
      "Ġbroad": 2116,
      "Ġappeared": 2117,
      "Ġdefeated": 2118,
      "Ġordered": 2119,
      "Ġestablished": 2120,
      "etrarch": 2121,
      "ividual": 2122,
      "RA": 2123,
      "ault": 2124,
      "Ġaward": 2125,
      "Ġfif": 2126,
      "ĠAc": 2127,
      "Ġlo": 2128,
      "Ġlook": 2129,
      "Ġeither": 2130,
      "ĠHer": 2131,
      "ulf": 2132,
      "ĠWhile": 2133,
      "ĠGA": 2134,
      "illo": 2135,
      "Ġunit": 2136,
      "inese": 2137,
      "Ġcoll": 2138,
      "Ġmeet": 2139,
      "Ġsurround": 2140,
      "Ġdecided": 2141,
      "Ġboats": 2142,
      "ĠForce": 2143,
      "Ġnorthern": 2144,
      "Ġtemnospondyls": 2145,
      "ĠSpanish": 2146,
      "hu": 2147,
      "Ġtaken": 2148,
      "Ġaud": 2149,
      "asing": 2150,
      "ĠTy": 2151,
      "ĠTem": 2152,
      "Ġlive": 2153,
      "omen": 2154,
      "Ġconv": 2155,
      "ĠDo": 2156,
      "wood": 2157,
      "Ġenc": 2158,
      "Ġfeet": 2159,
      "Ġquick": 2160,
      "Ġcomplete": 2161,
      "Ġmonths": 2162,
      "Ġcompany": 2163,
      "Ġannounced": 2164,
      "co": 2165,
      "cast": 2166,
      "ris": 2167,
      "su": 2168,
      "ville": 2169,
      "Ġsouthern": 2170,
      "ories": 2171,
      "Ġfact": 2172,
      "ster": 2173,
      "ĠMiss": 2174,
      "ĠBar": 2175,
      "ĠBel": 2176,
      "ĠNe": 2177,
      "ope": 2178,
      "ĠChinese": 2179,
      "ĠVict": 2180,
      "Ġcolle": 2181,
      "ification": 2182,
      "Ġfeatured": 2183,
      "Ġgeneral": 2184,
      "Ġstruck": 2185,
      "Ġthought": 2186,
      "Ġreplaced": 2187,
      "ĠRichmond": 2188,
      "ties": 2189,
      "Ġsomet": 2190,
      "Ġcert": 2191,
      "iser": 2192,
      "ĠTru": 2193,
      "ential": 2194,
      "Ġlittle": 2195,
      "Ġdeities": 2196,
      "Ġdeploy": 2197,
      "Ġseven": 2198,
      "ishing": 2199,
      "Ġcenter": 2200,
      "Ġassoci": 2201,
      "ĠCommand": 2202,
      "ĠBlack": 2203,
      "Ġdiffic": 2204,
      "Ġhours": 2205,
      "uz": 2206,
      "Ġaver": 2207,
      "Ġsum": 2208,
      "oring": 2209,
      "itect": 2210,
      "Ġfoc": 2211,
      "Ġfell": 2212,
      "Ġcou": 2213,
      "ĠTr": 2214,
      "ĠTwo": 2215,
      "ĠTetrarch": 2216,
      "ĠCro": 2217,
      "ament": 2218,
      "Ġgen": 2219,
      "etball": 2220,
      "ĠPac": 2221,
      "ĠLa": 2222,
      "ested": 2223,
      "Ġcomment": 2224,
      "illery": 2225,
      "aps": 2226,
      "sec": 2227,
      "arty": 2228,
      "Ġkil": 2229,
      "aching": 2230,
      "lled": 2231,
      "ĠShiva": 2232,
      "Ġperformed": 2233,
      "Ġwriting": 2234,
      "Ġcompleted": 2235,
      "Ġimpro": 2236,
      "Ġopening": 2237,
      "Ġpoints": 2238,
      "board": 2239,
      "Ġprogram": 2240,
      "Ġtradition": 2241,
      "dle": 2242,
      "sp": 2243,
      "uck": 2244,
      "ĠX": 2245,
      "Ġident": 2246,
      "Ġcal": 2247,
      "Ġthreat": 2248,
      "ĠMon": 2249,
      "ĠMed": 2250,
      "ĠGl": 2251,
      "iffe": 2252,
      "Ġbecom": 2253,
      "rought": 2254,
      "Ġdefend": 2255,
      "Ġfourth": 2256,
      "Ġindividual": 2257,
      "ĠCommission": 2258,
      "Ġcomplex": 2259,
      "Ġeffort": 2260,
      "Ġstudio": 2261,
      "medi": 2262,
      "ĠRepubl": 2263,
      "cer": 2264,
      "off": 2265,
      "oice": 2266,
      "atin": 2267,
      "iral": 2268,
      "ĠHol": 2269,
      "ĠNaz": 2270,
      "Ġprot": 2271,
      "ĠKe": 2272,
      "rying": 2273,
      "peror": 2274,
      "Ġevents": 2275,
      "Ġcarried": 2276,
      "Ġtraining": 2277,
      "Ġprovided": 2278,
      "Ġstreng": 2279,
      "Ġparticip": 2280,
      "ĠEngland": 2281,
      "Ġcontract": 2282,
      "ique": 2283,
      "Ġlaun": 2284,
      "Ġcampaign": 2285,
      "Ġbusiness": 2286,
      "Ġmurder": 2287,
      "Ġage": 2288,
      "iting": 2289,
      "Ġcurrent": 2290,
      "Ġhon": 2291,
      "Ġhouse": 2292,
      "Ġren": 2293,
      "ĠAnt": 2294,
      "ĠMor": 2295,
      "Ġalmost": 2296,
      "Ġant": 2297,
      "Ġsection": 2298,
      "Ġrank": 2299,
      "Ġprocess": 2300,
      "Ġvoc": 2301,
      "ogn": 2302,
      "perial": 2303,
      "Ġappo": 2304,
      "Ġoutside": 2305,
      "ological": 2306,
      "Ġbuild": 2307,
      "Ġarmour": 2308,
      "Ġgoal": 2309,
      "Ġdamaged": 2310,
      "Ġbelieved": 2311,
      "ĠKingdom": 2312,
      "St": 2313,
      "jillo": 2314,
      "ka": 2315,
      "now": 2316,
      "Ġtank": 2317,
      "Ġfree": 2318,
      "Ġcast": 2319,
      "Ġmix": 2320,
      "icted": 2321,
      "Ġhy": 2322,
      "oul": 2323,
      "ĠCare": 2324,
      "urric": 2325,
      "idence": 2326,
      "ĠDay": 2327,
      "Ġval": 2328,
      "Ġking": 2329,
      "ecess": 2330,
      "Ġweeks": 2331,
      "Ġothers": 2332,
      "Ġinvest": 2333,
      "Ġemploy": 2334,
      "Ġofficers": 2335,
      "Ġpossible": 2336,
      "emorial": 2337,
      "Ġtelevision": 2338,
      "ĠAfric": 2339,
      "ĠJewish": 2340,
      "Ġdifficult": 2341,
      "ken": 2342,
      "ony": 2343,
      "Ġmot": 2344,
      "aded": 2345,
      "ĠCourt": 2346,
      "ĠBill": 2347,
      "imin": 2348,
      "ĠPat": 2349,
      "ĠDan": 2350,
      "ĠUK": 2351,
      "Ġshoot": 2352,
      "Ġintrodu": 2353,
      "Ġimage": 2354,
      "Ġlargest": 2355,
      "Ġvari": 2356,
      "auty": 2357,
      "Ġversion": 2358,
      "Ġche": 2359,
      "Ġcor": 2360,
      "Ġcreat": 2361,
      "Ġpriv": 2362,
      "Ġdri": 2363,
      "Ġreve": 2364,
      "ĠAct": 2365,
      "Ġeastern": 2366,
      "ĠBig": 2367,
      "Ġbelow": 2368,
      "Ġstone": 2369,
      "ĠFu": 2370,
      "Ġsepar": 2371,
      "Ġcome": 2372,
      "Ġru": 2373,
      "ĠChina": 2374,
      "ellig": 2375,
      "Ġrock": 2376,
      "Ġrecogn": 2377,
      "Ġcommon": 2378,
      "Ġprevent": 2379,
      "ĠMarine": 2380,
      "Ġarmy": 2381,
      "Ġgroups": 2382,
      "Ġartillery": 2383,
      "Ġturned": 2384,
      "Ġironclads": 2385,
      "Ġfloor": 2386,
      "ĠVictor": 2387,
      "gg": 2388,
      "ming": 2389,
      "tle": 2390,
      "win": 2391,
      "Ġsol": 2392,
      "Ġdou": 2393,
      "ĠTra": 2394,
      "ĠMong": 2395,
      "Ġstra": 2396,
      "ĠGib": 2397,
      "ĠUB": 2398,
      "anta": 2399,
      "pecial": 2400,
      "ĠChampionship": 2401,
      "ected": 2402,
      "Ġaccept": 2403,
      "venue": 2404,
      "Ġtransport": 2405,
      "Ġminute": 2406,
      "Ġleading": 2407,
      "erva": 2408,
      "Ġfighting": 2409,
      "Ġagreed": 2410,
      "Ġarrived": 2411,
      "Ġturre": 2412,
      "inc": 2413,
      "ino": 2414,
      "Ġfield": 2415,
      "Ġfederal": 2416,
      "Ġborn": 2417,
      "Ġpil": 2418,
      "ĠTim": 2419,
      "Ġlif": 2420,
      "Ġlines": 2421,
      "Ġnine": 2422,
      "acing": 2423,
      "ĠBall": 2424,
      "igade": 2425,
      "Ġsto": 2426,
      "ceed": 2427,
      "ĠPet": 2428,
      "Ġwhite": 2429,
      "ĠWW": 2430,
      "ĠOther": 2431,
      "Ġprob": 2432,
      "Ġexist": 2433,
      "cliffe": 2434,
      "assic": 2435,
      "Ġcontrib": 2436,
      "Ġdiss": 2437,
      "Ġremoved": 2438,
      "ĠAustralians": 2439,
      "Ġattacked": 2440,
      "Ġengine": 2441,
      "ĠButler": 2442,
      "Ġjoined": 2443,
      "AAF": 2444,
      "urricane": 2445,
      "After": 2446,
      "MA": 2447,
      "uel": 2448,
      "Ġz": 2449,
      "head": 2450,
      "onna": 2451,
      "ati": 2452,
      "esh": 2453,
      "arily": 2454,
      "Ġmult": 2455,
      "Ġdro": 2456,
      "ĠTo": 2457,
      "Ġgood": 2458,
      "ĠRAAF": 2459,
      "ĠFin": 2460,
      "ĠGra": 2461,
      "Ġproble": 2462,
      "ĠKershaw": 2463,
      "ights": 2464,
      "Ġclub": 2465,
      "Ġadap": 2466,
      "Ġscored": 2467,
      "Ġupon": 2468,
      "ĠAtt": 2469,
      "Ġdoes": 2470,
      "Ġviol": 2471,
      "Ġpreviously": 2472,
      "Ġbeginning": 2473,
      "Ġironclad": 2474,
      "Ġchildren": 2475,
      "Ġsuffered": 2476,
      "Ġbattleship": 2477,
      "ĠNBA": 2478,
      "ĠMongol": 2479,
      "NA": 2480,
      "can": 2481,
      "de": 2482,
      "aters": 2483,
      "itz": 2484,
      "aring": 2485,
      "Ġpen": 2486,
      "Ġpast": 2487,
      "Ġmass": 2488,
      "Ġreaction": 2489,
      "ĠSch": 2490,
      "ĠAb": 2491,
      "Ġnove": 2492,
      "Ġgrow": 2493,
      "Ġforced": 2494,
      "ote": 2495,
      "Ġask": 2496,
      "ĠPres": 2497,
      "Ġcondition": 2498,
      "ĠFil": 2499,
      "ĠFirst": 2500,
      "uments": 2501,
      "Ġridge": 2502,
      "arent": 2503,
      "angu": 2504,
      "Ġshell": 2505,
      "Ġconspir": 2506,
      "Ġindust": 2507,
      "Ġcharacters": 2508,
      "ĠEngl": 2509,
      "Ġnortheast": 2510,
      "ĠEgyptian": 2511,
      "Ġbreak": 2512,
      "Ġavail": 2513,
      "FC": 2514,
      "Ġtanks": 2515,
      "Ġson": 2516,
      "Ġbrought": 2517,
      "Ġmater": 2518,
      "ilities": 2519,
      "ĠMa": 2520,
      "idents": 2521,
      "ĠPal": 2522,
      "ĠDon": 2523,
      "ocr": 2524,
      "Ġknow": 2525,
      "azine": 2526,
      "ĠMusic": 2527,
      "Ġdeliver": 2528,
      "Ġeventually": 2529,
      "ĠRegiment": 2530,
      "ĠAssoci": 2531,
      "Ġsubsequently": 2532,
      "ĠOperation": 2533,
      "ĠRajne": 2534,
      "ĠTrujillo": 2535,
      "ĠPacific": 2536,
      "Ġtaking": 2537,
      "Ġself": 2538,
      "edo": 2539,
      "Ġbad": 2540,
      "Ġden": 2541,
      "Ġha": 2542,
      "leg": 2543,
      "Ġread": 2544,
      "ste": 2545,
      "change": 2546,
      "emeter": 2547,
      "Ġdeter": 2548,
      "Ġanim": 2549,
      "Ġsex": 2550,
      "ĠEn": 2551,
      "ateg": 2552,
      "quar": 2553,
      "Ġrespect": 2554,
      "Ġscript": 2555,
      "ibility": 2556,
      "Ġsecurity": 2557,
      "ologists": 2558,
      "Ġappearance": 2559,
      "Ġbask": 2560,
      "Ġallowed": 2561,
      "ĠQu": 2562,
      "ĠRussian": 2563,
      "Ġfavor": 2564,
      "porary": 2565,
      "Ġwithdra": 2566,
      "ĠMexico": 2567,
      "bon": 2568,
      "Ġinform": 2569,
      "Ġpair": 2570,
      "ili": 2571,
      "Ġlatter": 2572,
      "Ġstation": 2573,
      "ĠHist": 2574,
      "unk": 2575,
      "ĠDod": 2576,
      "ĠDav": 2577,
      "rap": 2578,
      "Ġdeal": 2579,
      "Ġsuper": 2580,
      "alling": 2581,
      "teen": 2582,
      "ogue": 2583,
      "ranch": 2584,
      "key": 2585,
      "Ġmanag": 2586,
      "Ġremain": 2587,
      "ample": 2588,
      "Ġworked": 2589,
      "Ġsubject": 2590,
      "Ġfinished": 2591,
      "Ġoperation": 2592,
      "Ġindic": 2593,
      "Ġinfantry": 2594,
      "Ġstrike": 2595,
      "Ġprofess": 2596,
      "ĠSovi": 2597,
      "ĠDespite": 2598,
      "Ġcommercial": 2599,
      "ĠDoctor": 2600,
      "AR": 2601,
      "day": 2602,
      "Ġtons": 2603,
      "Ġaw": 2604,
      "ona": 2605,
      "oned": 2606,
      "Ġsaying": 2607,
      "Ġfo": 2608,
      "Ġinch": 2609,
      "Ġmach": 2610,
      "Ġhous": 2611,
      "ĠTen": 2612,
      "Ġnames": 2613,
      "ĠHM": 2614,
      "Ġheav": 2615,
      "ĠGovern": 2616,
      "erson": 2617,
      "Ġrd": 2618,
      "quare": 2619,
      "aby": 2620,
      "pected": 2621,
      "Ġyards": 2622,
      "Ġplaying": 2623,
      "Ġremaining": 2624,
      "Ġinterse": 2625,
      "Ġsyn": 2626,
      "ĠAnother": 2627,
      "Ġcritics": 2628,
      "Ġtyphoon": 2629,
      "ĠCharl": 2630,
      "ĠCharles": 2631,
      "Ġinitially": 2632,
      "Ġcasual": 2633,
      "ĠMississ": 2634,
      "Ġinvestig": 2635,
      "elligence": 2636,
      "As": 2637,
      "During": 2638,
      "af": 2639,
      "mp": 2640,
      "Ġwit": 2641,
      "Ġcost": 2642,
      "anc": 2643,
      "anced": 2644,
      "Ġintended": 2645,
      "Ġdon": 2646,
      "ĠSer": 2647,
      "ĠSar": 2648,
      "ĠSonic": 2649,
      "Ġlangu": 2650,
      "ĠMet": 2651,
      "ĠBu": 2652,
      "utive": 2653,
      "ĠRick": 2654,
      "ĠRoman": 2655,
      "ĠDist": 2656,
      "ĠLong": 2657,
      "Ġrather": 2658,
      "oren": 2659,
      "aprang": 2660,
      "ĠKn": 2661,
      "Ġvill": 2662,
      "Ġexc": 2663,
      "assy": 2664,
      "ffic": 2665,
      "Ġenv": 2666,
      "Ġweap": 2667,
      "ibr": 2668,
      "Ġassass": 2669,
      "Ġsuppl": 2670,
      "Ġaccom": 2671,
      "Ġqual": 2672,
      "Ġblack": 2673,
      "Ġdepression": 2674,
      "Ġpositions": 2675,
      "Ġrequired": 2676,
      "Ġpatro": 2677,
      "ĠCenter": 2678,
      "Ġearlier": 2679,
      "Ġquickly": 2680,
      "ĠWWE": 2681,
      "ĠEnglish": 2682,
      "Ġbasketball": 2683,
      "die": 2684,
      "phib": 2685,
      "ray": 2686,
      "tr": 2687,
      "Ġult": 2688,
      "Ġsail": 2689,
      "Ġfem": 2690,
      "Ġtow": 2691,
      "rog": 2692,
      "Ġrevol": 2693,
      "stant": 2694,
      "ĠMajor": 2695,
      "ĠHall": 2696,
      "ĠNak": 2697,
      "Ġwhose": 2698,
      "ĠWales": 2699,
      "ĠWestern": 2700,
      "Ġdead": 2701,
      "ĠEarly": 2702,
      "Ġexec": 2703,
      "ĠIntern": 2704,
      "Ġchange": 2705,
      "ĠVi": 2706,
      "raltar": 2707,
      "Ġfilms": 2708,
      "Ġflood": 2709,
      "Ġinvasion": 2710,
      "Ġpract": 2711,
      "Ġdecision": 2712,
      "Ġelect": 2713,
      "Ġdirected": 2714,
      "Ġbrother": 2715,
      "ippi": 2716,
      "Ġconcern": 2717,
      "ĠCarol": 2718,
      "Ġtyp": 2719,
      "Ġcaptured": 2720,
      "Ġdebut": 2721,
      "Ġcommunity": 2722,
      "eckham": 2723,
      "Ġwanted": 2724,
      "Ġmorning": 2725,
      "pire": 2726,
      "Ġtorp": 2727,
      "Ġaer": 2728,
      "edy": 2729,
      "Ġwounded": 2730,
      "Ġox": 2731,
      "ena": 2732,
      "Ġbody": 2733,
      "aled": 2734,
      "icles": 2735,
      "ĠSim": 2736,
      "enth": 2737,
      "Ġnon": 2738,
      "oti": 2739,
      "ĠRed": 2740,
      "ĠPre": 2741,
      "unt": 2742,
      "ĠNerva": 2743,
      "Ġconn": 2744,
      "Ġvess": 2745,
      "ĠInt": 2746,
      "ĠStra": 2747,
      "order": 2748,
      "ĠThom": 2749,
      "Ġended": 2750,
      "Ġrap": 2751,
      "Ġarmor": 2752,
      "Ġpolic": 2753,
      "Ġblock": 2754,
      "Ġpassed": 2755,
      "ociety": 2756,
      "Ġcommander": 2757,
      "ĠScott": 2758,
      "Ġhighest": 2759,
      "ĠDepartment": 2760,
      "Ġdollar": 2761,
      "ĠMississippi": 2762,
      "gra": 2763,
      "hing": 2764,
      "oo": 2765,
      "Ġpurch": 2766,
      "Ġprior": 2767,
      "Ġmight": 2768,
      "ĠAD": 2769,
      "Ġly": 2770,
      "Ġnomin": 2771,
      "ĠHu": 2772,
      "ĠHung": 2773,
      "ĠNort": 2774,
      "ula": 2775,
      "ulated": 2776,
      "thing": 2777,
      "ĠJim": 2778,
      "ĠGold": 2779,
      "Ġsequ": 2780,
      "ests": 2781,
      "ocks": 2782,
      "ourn": 2783,
      "ĠVal": 2784,
      "Ġitself": 2785,
      "Ġimmedi": 2786,
      "Ġweaken": 2787,
      "Ġneg": 2788,
      "Ġcoach": 2789,
      "Ġmostly": 2790,
      "Ġterm": 2791,
      "ossal": 2792,
      "Ġminutes": 2793,
      "Ġopened": 2794,
      "Ġissued": 2795,
      "Ġkey": 2796,
      "Ġarchitect": 2797,
      "ships": 2798,
      "Ġprimary": 2799,
      "Ġreligious": 2800,
      "ĠSecond": 2801,
      "Ġaverage": 2802,
      "Ġmaterial": 2803,
      "ĠDistrict": 2804,
      "Ġtorpedo": 2805,
      "burg": 2806,
      "ey": 2807,
      "tion": 2808,
      "onse": 2809,
      "Ġsus": 2810,
      "aton": 2811,
      "atory": 2812,
      "Ġflying": 2813,
      "arian": 2814,
      "Ġpal": 2815,
      "asons": 2816,
      "Ġrein": 2817,
      "Ġrear": 2818,
      "ĠSw": 2819,
      "ĠServ": 2820,
      "ĠCorp": 2821,
      "ĠHor": 2822,
      "ĠPaul": 2823,
      "Ġalread": 2824,
      "ĠFleet": 2825,
      "Ġdeep": 2826,
      "umn": 2827,
      "eway": 2828,
      "ĠUFC": 2829,
      "Ġexam": 2830,
      "Ġexample": 2831,
      "Ġarg": 2832,
      "Ġlet": 2833,
      "ampion": 2834,
      "Ġspeed": 2835,
      "Ġsubmar": 2836,
      "Ġregular": 2837,
      "Ġmeas": 2838,
      "ĠZeal": 2839,
      "Ġrelations": 2840,
      "Ġattacks": 2841,
      "Ġbattalion": 2842,
      "Ġsoon": 2843,
      "Ġadvance": 2844,
      "Ġplanned": 2845,
      "ĠAngel": 2846,
      "Ġincreased": 2847,
      "Ġkeep": 2848,
      "ĠMichael": 2849,
      "Ġredu": 2850,
      "Ġlimited": 2851,
      "Ġembassy": 2852,
      "conom": 2853,
      "Ġeye": 2854,
      "Ġpraised": 2855,
      "Ġappointed": 2856,
      "ĠGibraltar": 2857,
      "Ġprobably": 2858,
      "Ġnovel": 2859,
      "Ġtrib": 2860,
      "hel": 2861,
      "Ġsat": 2862,
      "Ġsil": 2863,
      "Ġsides": 2864,
      "Ġsize": 2865,
      "Ġtold": 2866,
      "Ġdark": 2867,
      "iles": 2868,
      "ĠCR": 2869,
      "ama": 2870,
      "ulted": 2871,
      "ĠFollowing": 2872,
      "ĠJose": 2873,
      "ĠGore": 2874,
      "ĠGame": 2875,
      "ago": 2876,
      "Ġrace": 2877,
      "ival": 2878,
      "ĠOs": 2879,
      "hief": 2880,
      "clus": 2881,
      "Ġund": 2882,
      "elling": 2883,
      "Ġaband": 2884,
      "ĠSea": 2885,
      "Ġbetter": 2886,
      "Ġaccording": 2887,
      "Ġtransferred": 2888,
      "Ġterms": 2889,
      "Ġdirector": 2890,
      "Ġsupported": 2891,
      "Ġresponse": 2892,
      "ĠAngle": 2893,
      "Ġdefeat": 2894,
      "Ġfigure": 2895,
      "ĠGeorge": 2896,
      "Ġprivate": 2897,
      "Ġavailable": 2898,
      "ĠRajneesh": 2899,
      "miral": 2900,
      "uk": 2901,
      "zo": 2902,
      "Ġens": 2903,
      "erous": 2904,
      "reme": 2905,
      "Ġwife": 2906,
      "itors": 2907,
      "Ġcop": 2908,
      "ros": 2909,
      "ĠTro": 2910,
      "ĠSchool": 2911,
      "ĠMost": 2912,
      "imum": 2913,
      "Ġforward": 2914,
      "ĠHit": 2915,
      "chie": 2916,
      "rie": 2917,
      "Ġselected": 2918,
      "aper": 2919,
      "ude": 2920,
      "Ġclosed": 2921,
      "Ġoffered": 2922,
      "Ġworking": 2923,
      "Ġteams": 2924,
      "ĠIndia": 2925,
      "itting": 2926,
      "ĠBeauty": 2927,
      "Ġguitar": 2928,
      "Ġapproach": 2929,
      "Ġattempted": 2930,
      "alky": 2931,
      "aughter": 2932,
      "ĠYoung": 2933,
      "ĠRhodes": 2934,
      "ĠItalian": 2935,
      "ĠCarey": 2936,
      "At": 2937,
      "nes": 2938,
      "uing": 2939,
      "van": 2940,
      "ze": 2941,
      "Ġwestern": 2942,
      "Ġball": 2943,
      "Ġpred": 2944,
      "oud": 2945,
      "str": 2946,
      "Ġliter": 2947,
      "amar": 2948,
      "cend": 2949,
      "ĠFort": 2950,
      "ĠFour": 2951,
      "rian": 2952,
      "rial": 2953,
      "rief": 2954,
      "illa": 2955,
      "aker": 2956,
      "allen": 2957,
      "Ġplot": 2958,
      "orks": 2959,
      "Ġadop": 2960,
      "Ġscenes": 2961,
      "ĠThat": 2962,
      "Ġdespite": 2963,
      "Ġdisp": 2964,
      "Ġcommission": 2965,
      "Ġrepair": 2966,
      "Ġconcert": 2967,
      "Ġruns": 2968,
      "Ġwinning": 2969,
      "Ġpersonal": 2970,
      "Ġclaimed": 2971,
      "force": 2972,
      "Ġparticularly": 2973,
      "stein": 2974,
      "Ġlanguage": 2975,
      "Ġalready": 2976,
      "ĠZealand": 2977,
      "br": 2978,
      "cil": 2979,
      "den": 2980,
      "sen": 2981,
      "sel": 2982,
      "Ġtar": 2983,
      "Ġap": 2984,
      "inent": 2985,
      "Ġsch": 2986,
      "Ġwomen": 2987,
      "Ġple": 2988,
      "Ġdomin": 2989,
      "ĠAvenue": 2990,
      "Ġeconom": 2991,
      "ĠMir": 2992,
      "Ġconclud": 2993,
      "agan": 2994,
      "ills": 2995,
      "Ġplat": 2996,
      "ability": 2997,
      "itions": 2998,
      "imeter": 2999,
      "Ġabs": 3000,
      "oney": 3001,
      "Ġrail": 3002,
      "Ġamphib": 3003,
      "Ġentered": 3004,
      "Ġmatches": 3005,
      "ĠClub": 3006,
      "Ġelements": 3007,
      "atively": 3008,
      "Ġminor": 3009,
      "Ġpersonnel": 3010,
      "Ġincreasing": 3011,
      "ĠFrance": 3012,
      "Ġschools": 3013,
      "Ġmovement": 3014,
      "Ġdiscovered": 3015,
      "Ġintensity": 3016,
      "ĠRadcliffe": 3017,
      "ĠDavid": 3018,
      "Ġcasualties": 3019,
      "Ġrapid": 3020,
      "ximately": 3021,
      "Ġsout": 3022,
      "Ġfailed": 3023,
      "Ġcounter": 3024,
      "Ġtoget": 3025,
      "Ġmer": 3026,
      "Ġhard": 3027,
      "lex": 3028,
      "stand": 3029,
      "ador": 3030,
      "irid": 3031,
      "cts": 3032,
      "ĠDem": 3033,
      "ĠLatin": 3034,
      "ĠWil": 3035,
      "ĠWash": 3036,
      "ĠEaton": 3037,
      "berg": 3038,
      "Ġexcept": 3039,
      "ĠValky": 3040,
      "Ġcommit": 3041,
      "Ġtrade": 3042,
      "Ġlarger": 3043,
      "Ġaccess": 3044,
      "ĠBlue": 3045,
      "rival": 3046,
      "Ġconfl": 3047,
      "ĠEddie": 3048,
      "Ġmajority": 3049,
      "ĠTeam": 3050,
      "Ġeduc": 3051,
      "Ġadditional": 3052,
      "ĠQue": 3053,
      "Ġpurp": 3054,
      "Ġactivities": 3055,
      "Ġclear": 3056,
      "Ġwooden": 3057,
      "Ġstrength": 3058,
      "Ġasked": 3059,
      "II": 3060,
      "Man": 3061,
      "ex": 3062,
      "ging": 3063,
      "la": 3064,
      "mit": 3065,
      "vis": 3066,
      "val": 3067,
      "Ġill": 3068,
      "atal": 3069,
      "Ġcred": 3070,
      "Ġpot": 3071,
      "ases": 3072,
      "Ġhor": 3073,
      "Ġhurricane": 3074,
      "ĠTre": 3075,
      "ĠTurn": 3076,
      "Ġload": 3077,
      "ĠCap": 3078,
      "ĠCamp": 3079,
      "ĠMy": 3080,
      "ĠMil": 3081,
      "ĠMart": 3082,
      "ĠBra": 3083,
      "ĠBeckham": 3084,
      "eton": 3085,
      "ĠNatives": 3086,
      "Ġalways": 3087,
      "ĠDerry": 3088,
      "ĠLater": 3089,
      "ĠJMA": 3090,
      "Ġran": 3091,
      "ify": 3092,
      "aped": 3093,
      "tee": 3094,
      "Ġfired": 3095,
      "Ġscreen": 3096,
      "Ġenough": 3097,
      "ĠDev": 3098,
      "Ġspent": 3099,
      "Ġpositive": 3100,
      "Ġamount": 3101,
      "ĠColumb": 3102,
      "ĠAdmiral": 3103,
      "ĠBrigade": 3104,
      "ĠMuseum": 3105,
      "ĠKoreans": 3106,
      "ĠImperial": 3107,
      "Ġissue": 3108,
      "ĠIII": 3109,
      "Ġreviews": 3110,
      "urtado": 3111,
      "ength": 3112,
      "ĠSenate": 3113,
      "Ġlaunched": 3114,
      "ĠPresident": 3115,
      "ĠAssociation": 3116,
      "ĠSoviet": 3117,
      "Ġtogether": 3118,
      "ĠWashington": 3119,
      "bar": 3120,
      "bers": 3121,
      "ez": 3122,
      "ean": 3123,
      "like": 3124,
      "tained": 3125,
      "Ġachie": 3126,
      "erved": 3127,
      "Ġbur": 3128,
      "Ġbrief": 3129,
      "Ġpow": 3130,
      "Ġmother": 3131,
      "Ġthink": 3132,
      "Ġstates": 3133,
      "emporary": 3134,
      "Ġconve": 3135,
      "ĠDr": 3136,
      "oses": 3137,
      "Ġsearch": 3138,
      "odies": 3139,
      "hik": 3140,
      "ĠHeavy": 3141,
      "Ġprem": 3142,
      "Ġprep": 3143,
      "Ġinterview": 3144,
      "Ġtheme": 3145,
      "Ġconsisted": 3146,
      "Ġmean": 3147,
      "Ġsurf": 3148,
      "Ġforms": 3149,
      "Ġcapital": 3150,
      "Ġcann": 3151,
      "Ġbroken": 3152,
      "minist": 3153,
      "Ġcombined": 3154,
      "Ġfootball": 3155,
      "ynast": 3156,
      "Ġoccurred": 3157,
      "Ġfifth": 3158,
      "graf": 3159,
      "Al": 3160,
      "hat": 3161,
      "jona": 3162,
      "oly": 3163,
      "Ġtru": 3164,
      "Ġcm": 3165,
      "Ġcemeter": 3166,
      "rown": 3167,
      "icle": 3168,
      "Ġnecess": 3169,
      "ĠMid": 3170,
      "oted": 3171,
      "ĠHouse": 3172,
      "ĠRober": 3173,
      "ĠGroup": 3174,
      "istance": 3175,
      "Ġproper": 3176,
      "aven": 3177,
      "ĠStarr": 3178,
      "Ġshown": 3179,
      "Ġevidence": 3180,
      "Ġflight": 3181,
      "Ġfinally": 3182,
      "Ġregard": 3183,
      "Ġdepart": 3184,
      "ouncil": 3185,
      "Ġlanding": 3186,
      "ĠConf": 3187,
      "Ġrunning": 3188,
      "Ġconsider": 3189,
      "Ġphot": 3190,
      "Ġsteam": 3191,
      "Ġsteel": 3192,
      "Ġdraw": 3193,
      "Ġvictory": 3194,
      "Ġradio": 3195,
      "Ġultimately": 3196,
      "ĠInternational": 3197,
      "down": 3198,
      "mec": 3199,
      "sc": 3200,
      "Ġfan": 3201,
      "ening": 3202,
      "Ġhol": 3203,
      "ĠTor": 3204,
      "ĠSing": 3205,
      "Ġlength": 3206,
      "acted": 3207,
      "olis": 3208,
      "imb": 3209,
      "otes": 3210,
      "Ġstaff": 3211,
      "osaur": 3212,
      "rag": 3213,
      "rain": 3214,
      "rapped": 3215,
      "ĠLie": 3216,
      "ĠLoren": 3217,
      "ands": 3218,
      "ĠEr": 3219,
      "ocial": 3220,
      "Ġleague": 3221,
      "oke": 3222,
      "Ġresulted": 3223,
      "Ġsched": 3224,
      "Ġjud": 3225,
      "Ġoverall": 3226,
      "osek": 3227,
      "weight": 3228,
      "oys": 3229,
      "Ġraised": 3230,
      "Ġdesignated": 3231,
      "Ġgovernor": 3232,
      "Ġnearly": 3233,
      "ĠStein": 3234,
      "Ġgenerally": 3235,
      "Ġbring": 3236,
      "Ġconstructed": 3237,
      "Ġslight": 3238,
      "Ġrepresented": 3239,
      "Ġstatus": 3240,
      "Ġpitcher": 3241,
      "Ġsculpture": 3242,
      "Ġconducted": 3243,
      "ĠSmith": 3244,
      "Ġassociated": 3245,
      "Ġbecoming": 3246,
      "Ġwithdraw": 3247,
      "ĠRicky": 3248,
      "ĠThomas": 3249,
      "Ġlyric": 3250,
      "ĠValkyria": 3251,
      "ĠTurner": 3252,
      "Ch": 3253,
      "OT": 3254,
      "gers": 3255,
      "iest": 3256,
      "light": 3257,
      "mitted": 3258,
      "well": 3259,
      "while": 3260,
      "Ġsour": 3261,
      "atural": 3262,
      "Ġfans": 3263,
      "Ġpay": 3264,
      "Ġhapp": 3265,
      "ĠBook": 3266,
      "olay": 3267,
      "Ġgre": 3268,
      "Ġgot": 3269,
      "ushed": 3270,
      "unction": 3271,
      "Ġconver": 3272,
      "ĠFurtado": 3273,
      "ĠLou": 3274,
      "Ġdev": 3275,
      "Ġsevent": 3276,
      "umed": 3277,
      "Ġcompl": 3278,
      "ongs": 3279,
      "ĠVer": 3280,
      "Ġserious": 3281,
      "Ġremains": 3282,
      "ĠDef": 3283,
      "Ġpoor": 3284,
      "ĠArjona": 3285,
      "nings": 3286,
      "Ġending": 3287,
      "Ġheadquar": 3288,
      "Ġlocation": 3289,
      "Ġcontinues": 3290,
      "Ġalongside": 3291,
      "ĠClark": 3292,
      "Ġnorthwest": 3293,
      "Ġshows": 3294,
      "Ġgoing": 3295,
      "Ġdiscuss": 3296,
      "Ġprovide": 3297,
      "ĠImag": 3298,
      "ĠFrank": 3299,
      "Ġmarked": 3300,
      "ĠEuropean": 3301,
      "ĠCentral": 3302,
      "Ġfrequ": 3303,
      "Ġstructure": 3304,
      "Ġkilomet": 3305,
      "Ġranked": 3306,
      "Ġbattleships": 3307,
      "ĠJoseph": 3308,
      "back": 3309,
      "bour": 3310,
      "fact": 3311,
      "ha": 3312,
      "his": 3313,
      "Ġtreat": 3314,
      "oration": 3315,
      "itor": 3316,
      "Ġcam": 3317,
      "aries": 3318,
      "ana": 3319,
      "isl": 3320,
      "isers": 3321,
      "Ġpan": 3322,
      "Ġmouth": 3323,
      "Ġhar": 3324,
      "ĠSaprang": 3325,
      "ĠAwards": 3326,
      "Ġlower": 3327,
      "ĠMel": 3328,
      "ĠBh": 3329,
      "ĠBond": 3330,
      "ĠBob": 3331,
      "ider": 3332,
      "uture": 3333,
      "ĠHow": 3334,
      "ĠPen": 3335,
      "ĠPeter": 3336,
      "ĠNosek": 3337,
      "Ġattend": 3338,
      "ĠDar": 3339,
      "Ġwhom": 3340,
      "ĠFrom": 3341,
      "ĠOreg": 3342,
      "ĠStar": 3343,
      "rance": 3344,
      "Ġparty": 3345,
      "Ġdism": 3346,
      "ipal": 3347,
      "Ġnumbers": 3348,
      "Ġamb": 3349,
      "Ġrelie": 3350,
      "Ġmetal": 3351,
      "Ġsmaller": 3352,
      "ĠAllied": 3353,
      "ĠBridge": 3354,
      "Ġcovered": 3355,
      "Ġcrossing": 3356,
      "Ġgrad": 3357,
      "ĠEmpire": 3358,
      "Ġcyclone": 3359,
      "Ġproposed": 3360,
      "ĠWhite": 3361,
      "Ġobserv": 3362,
      "ĠCanada": 3363,
      "Ġmagazine": 3364,
      "ĠTetrarchs": 3365,
      "Ġanti": 3366,
      "ĠBillboard": 3367,
      "ĠVictoria": 3368,
      "Ġdouble": 3369,
      "Ġenviron": 3370,
      "Ġweapons": 3371,
      "ĠLorenzo": 3372,
      "gal": 3373,
      "lin": 3374,
      "ror": 3375,
      "Ġere": 3376,
      "Ġaim": 3377,
      "inth": 3378,
      "Ġsen": 3379,
      "Ġsem": 3380,
      "Ġflow": 3381,
      "Ġbill": 3382,
      "ils": 3383,
      "ĠSal": 3384,
      "ented": 3385,
      "ĠMo": 3386,
      "ĠMatt": 3387,
      "Ġstep": 3388,
      "ows": 3389,
      "ĠHam": 3390,
      "ully": 3391,
      "emed": 3392,
      "eman": 3393,
      "Ġcomedy": 3394,
      "ĠKent": 3395,
      "Ġexhib": 3396,
      "Ġchampionship": 3397,
      "Ġupper": 3398,
      "Ġlear": 3399,
      "ĠIts": 3400,
      "Ġenemy": 3401,
      "lands": 3402,
      "viation": 3403,
      "ĠArt": 3404,
      "ĠArch": 3405,
      "Ġconsist": 3406,
      "Ġassigned": 3407,
      "ologist": 3408,
      "Ġmonuments": 3409,
      "ĠIndepend": 3410,
      "Ġactive": 3411,
      "Ġhighly": 3412,
      "Ġcontinue": 3413,
      "Ġtermin": 3414,
      "ĠCommon": 3415,
      "Ġobject": 3416,
      "rowd": 3417,
      "ospital": 3418,
      "Ġbridge": 3419,
      "Ġannual": 3420,
      "Ġapproximately": 3421,
      "Ġpattern": 3422,
      "Ġcombat": 3423,
      "Ġexperi": 3424,
      "Ġinfluence": 3425,
      "Ġfigures": 3426,
      "Ġidea": 3427,
      "Ġprotect": 3428,
      "Ġresponsible": 3429,
      "Ġinternational": 3430,
      "ĠTemple": 3431,
      "Ġimmediately": 3432,
      "Ġrelationship": 3433,
      "lam": 3434,
      "uous": 3435,
      "was": 3436,
      "Ġsal": 3437,
      "rea": 3438,
      "Ġword": 3439,
      "Ġfund": 3440,
      "Ġbi": 3441,
      "Ġbatter": 3442,
      "Ġmention": 3443,
      "Ġdate": 3444,
      "ĠTur": 3445,
      "Ġrefer": 3446,
      "Ġthick": 3447,
      "Ġthings": 3448,
      "enty": 3449,
      "ĠCold": 3450,
      "ĠCivil": 3451,
      "Ġemer": 3452,
      "Ġonto": 3453,
      "iday": 3454,
      "ayed": 3455,
      "ĠRob": 3456,
      "chan": 3457,
      "ĠDire": 3458,
      "ĠLo": 3459,
      "ĠWal": 3460,
      "Ġdeg": 3461,
      "ĠKaw": 3462,
      "Ġplans": 3463,
      "Ġleaving": 3464,
      "Ġcompared": 3465,
      "Ġimm": 3466,
      "Ġassault": 3467,
      "Ġpeace": 3468,
      "ĠAli": 3469,
      "Ġacqu": 3470,
      "Ġtravel": 3471,
      "ĠAtl": 3472,
      "Ġmeth": 3473,
      "Ġquar": 3474,
      "ĠLead": 3475,
      "Ġpresence": 3476,
      "Ġleader": 3477,
      "Ġfeature": 3478,
      "ĠPoland": 3479,
      "Ġrefused": 3480,
      "Ġcourse": 3481,
      "Ġtracks": 3482,
      "Ġorganization": 3483,
      "Ġincrease": 3484,
      "Ġmiddle": 3485,
      "ĠOlmec": 3486,
      "ĠType": 3487,
      "Ġsometimes": 3488,
      "ĠRepublic": 3489,
      "Ġprofessional": 3490,
      "selves": 3491,
      "aud": 3492,
      "gas": 3493,
      "mese": 3494,
      "tt": 3495,
      "Ġut": 3496,
      "Ġtell": 3497,
      "inct": 3498,
      "era": 3499,
      "erve": 3500,
      "Ġsays": 3501,
      "orney": 3502,
      "ites": 3503,
      "Ġfaced": 3504,
      "Ġtoward": 3505,
      "Ġdraft": 3506,
      "Ġhi": 3507,
      "ĠTour": 3508,
      "ĠTimes": 3509,
      "ĠAk": 3510,
      "ĠBC": 3511,
      "ĠNor": 3512,
      "ements": 3513,
      "osa": 3514,
      "anded": 3515,
      "Ġsea": 3516,
      "ump": 3517,
      "ership": 3518,
      "aguch": 3519,
      "Ġsust": 3520,
      "ift": 3521,
      "Ġrow": 3522,
      "Ġability": 3523,
      "Ġparts": 3524,
      "arked": 3525,
      "Ġdefense": 3526,
      "Ġflank": 3527,
      "Ġregime": 3528,
      "Ġmeant": 3529,
      "ansas": 3530,
      "Ġactually": 3531,
      "Ġrecording": 3532,
      "Ġaccount": 3533,
      "Ġtraffic": 3534,
      "Ġlonger": 3535,
      "Ġofficer": 3536,
      "Ġnearby": 3537,
      "Ġlargely": 3538,
      "Ġportion": 3539,
      "Ġhands": 3540,
      "Ġphys": 3541,
      "Ġpossess": 3542,
      "Ġestablish": 3543,
      "Ġarchae": 3544,
      "Ġculture": 3545,
      "Ġsuggested": 3546,
      "stitution": 3547,
      "Ġpaint": 3548,
      "Ġsituation": 3549,
      "Ġpressure": 3550,
      "Ġdetail": 3551,
      "ĠRecords": 3552,
      "ĠBulls": 3553,
      "ĠAcad": 3554,
      "Ġfocus": 3555,
      "ĠCroat": 3556,
      "Ġproblems": 3557,
      "Ġhouses": 3558,
      "Ġheavily": 3559,
      "ibrary": 3560,
      "ĠCarolina": 3561,
      "ĠNorthern": 3562,
      "ĠHitler": 3563,
      "ĠDemocr": 3564,
      "ĠOregon": 3565,
      "aguchi": 3566,
      "NL": 3567,
      "bb": 3568,
      "mend": 3569,
      "mission": 3570,
      "pre": 3571,
      "tong": 3572,
      "Ġtheat": 3573,
      "edic": 3574,
      "Ġwides": 3575,
      "Ġfuture": 3576,
      "Ġcrowd": 3577,
      "Ġbass": 3578,
      "alions": 3579,
      "Ġdoc": 3580,
      "ĠTropical": 3581,
      "ĠTNA": 3582,
      "acon": 3583,
      "ams": 3584,
      "ĠMag": 3585,
      "ĠBon": 3586,
      "ĠBay": 3587,
      "ĠBost": 3588,
      "ĠHot": 3589,
      "Ġconsec": 3590,
      "ĠDream": 3591,
      "ĠFI": 3592,
      "ĠLl": 3593,
      "ĠGr": 3594,
      "agogue": 3595,
      "ĠOver": 3596,
      "ĠUp": 3597,
      "ĠStud": 3598,
      "pted": 3599,
      "Ġyet": 3600,
      "Ġoffice": 3601,
      "Ġattr": 3602,
      "Ġappl": 3603,
      "lling": 3604,
      "Ġsecret": 3605,
      "Ġassemb": 3606,
      "Ġsupply": 3607,
      "Ġsevere": 3608,
      "struction": 3609,
      "Ġbroke": 3610,
      "Ġextr": 3611,
      "ĠSuper": 3612,
      "Ġdivine": 3613,
      "ography": 3614,
      "Ġrainfall": 3615,
      "Ġsurrounding": 3616,
      "Ġcertain": 3617,
      "Ġvariety": 3618,
      "Ġpolicy": 3619,
      "Ġschol": 3620,
      "Ġlyrics": 3621,
      "ĠKawaguchi": 3622,
      "BC": 3623,
      "dress": 3624,
      "han": 3625,
      "ky": 3626,
      "mitt": 3627,
      "ya": 3628,
      "yram": 3629,
      "Ġess": 3630,
      "Ġwall": 3631,
      "Ġcaves": 3632,
      "arth": 3633,
      "Ġborder": 3634,
      "Ġmakes": 3635,
      "oug": 3636,
      "ĠTom": 3637,
      "Ġreferred": 3638,
      "Ġnar": 3639,
      "Ġnature": 3640,
      "ĠMr": 3641,
      "ĠBoth": 3642,
      "Ġgiving": 3643,
      "ĠPress": 3644,
      "ĠFer": 3645,
      "ĠField": 3646,
      "ĠLos": 3647,
      "ĠLight": 3648,
      "ĠJane": 3649,
      "ĠGo": 3650,
      "ivity": 3651,
      "ĠStorm": 3652,
      "ĠStone": 3653,
      "ishop": 3654,
      "Ġshr": 3655,
      "elled": 3656,
      "ĠVar": 3657,
      "Ġclos": 3658,
      "Ġimag": 3659,
      "wealth": 3660,
      "Ġprec": 3661,
      "Ġinterest": 3662,
      "Ġthemselves": 3663,
      "Ġfeel": 3664,
      "Ġprison": 3665,
      "Ġperformances": 3666,
      "Ġcritical": 3667,
      "riving": 3668,
      "iversary": 3669,
      "Ġallowing": 3670,
      "Ġespecial": 3671,
      "Ġcompanies": 3672,
      "aught": 3673,
      "Ġmedia": 3674,
      "Ġcultural": 3675,
      "ĠBurmese": 3676,
      "Ġdeclared": 3677,
      "ĠHighway": 3678,
      "ĠOffic": 3679,
      "ĠOffice": 3680,
      "Ġera": 3681,
      "Ġhelped": 3682,
      "Ġpromoted": 3683,
      "ĠMountain": 3684,
      "ĠMarkgraf": 3685,
      "Ġchanges": 3686,
      "Ġhomes": 3687,
      "Ġaudience": 3688,
      "Ġdeployed": 3689,
      "Ġseparate": 3690,
      "Ġstrikeout": 3691,
      "Ġvillage": 3692,
      "Ġassassination": 3693,
      "ĠAngeles": 3694,
      "hikamar": 3695,
      "ynasty": 3696,
      "chest": 3697,
      "cript": 3698,
      "mun": 3699,
      "phi": 3700,
      "pired": 3701,
      "yles": 3702,
      "Ġtim": 3703,
      "Ġshi": 3704,
      "Ġsquare": 3705,
      "orated": 3706,
      "Ġfitted": 3707,
      "Ġfought": 3708,
      "enc": 3709,
      "anes": 3710,
      "ancial": 3711,
      "isions": 3712,
      "Ġban": 3713,
      "Ġpound": 3714,
      "road": 3715,
      "Ġmemorial": 3716,
      "Ġdram": 3717,
      "Ġhop": 3718,
      "ĠTrans": 3719,
      "adel": 3720,
      "Ġlaid": 3721,
      "Ġliving": 3722,
      "tere": 3723,
      "ĠIron": 3724,
      "Ġstating": 3725,
      "ithic": 3726,
      "ĠHen": 3727,
      "ĠFoot": 3728,
      "anda": 3729,
      "Ġanal": 3730,
      "ume": 3731,
      "ĠEnd": 3732,
      "resh": 3733,
      "Ġvia": 3734,
      "Ġarrest": 3735,
      "Ġscore": 3736,
      "Ġrecover": 3737,
      "Ġwhole": 3738,
      "Ġearth": 3739,
      "Ġwarships": 3740,
      "Ġrelated": 3741,
      "Ġarmed": 3742,
      "Ġrecords": 3743,
      "ĠSholay": 3744,
      "Ġemperor": 3745,
      "Ġindepend": 3746,
      "Ġwriter": 3747,
      "fully": 3748,
      "ĠColle": 3749,
      "Ġpassing": 3750,
      "Ġplanning": 3751,
      "Ġturns": 3752,
      "Ġextensive": 3753,
      "Ġresulting": 3754,
      "Ġequip": 3755,
      "Ġtwenty": 3756,
      "Ġinitial": 3757,
      "Ġevacu": 3758,
      "Ġmoving": 3759,
      "ĠPeople": 3760,
      "Ġchanged": 3761,
      "Ġpieces": 3762,
      "Ġencounter": 3763,
      "Ġdeterm": 3764,
      "Ġsupplies": 3765,
      "Ġslightly": 3766,
      "ĠCommonwealth": 3767,
      "Ġespecially": 3768,
      "hikamaru": 3769,
      "een": 3770,
      "gress": 3771,
      "ij": 3772,
      "mon": 3773,
      "oid": 3774,
      "pread": 3775,
      "ta": 3776,
      "uan": 3777,
      "Ġtax": 3778,
      "Ġactions": 3779,
      "Ġwoman": 3780,
      "ita": 3781,
      "Ġfast": 3782,
      "Ġfail": 3783,
      "Ġcer": 3784,
      "isters": 3785,
      "Ġbene": 3786,
      "Ġma": 3787,
      "Ġmoney": 3788,
      "icop": 3789,
      "Ġreach": 3790,
      "ĠSom": 3791,
      "Ġlosing": 3792,
      "Ġeas": 3793,
      "aches": 3794,
      "tered": 3795,
      "ĠIre": 3796,
      "ĠPagan": 3797,
      "emic": 3798,
      "osition": 3799,
      "ĠLake": 3800,
      "Ġdeck": 3801,
      "ĠJe": 3802,
      "ĠJul": 3803,
      "ĠJos": 3804,
      "Ġancient": 3805,
      "ods": 3806,
      "ption": 3807,
      "ĠChron": 3808,
      "assador": 3809,
      "ĠVideo": 3810,
      "rania": 3811,
      "Ġroom": 3812,
      "Ġusually": 3813,
      "Ġcomposed": 3814,
      "ension": 3815,
      "ĠThrough": 3816,
      "Ġupgr": 3817,
      "Ġpoems": 3818,
      "Ġearned": 3819,
      "uilding": 3820,
      "Ġcoins": 3821,
      "iple": 3822,
      "Ġcolossal": 3823,
      "azirid": 3824,
      "Ġcarved": 3825,
      "Ġalbums": 3826,
      "ĠMany": 3827,
      "Ġbattalions": 3828,
      "ĠMaya": 3829,
      "ĠLee": 3830,
      "ernand": 3831,
      "Ġpresident": 3832,
      "Ġartists": 3833,
      "Ġlikely": 3834,
      "Ġguard": 3835,
      "ĠConference": 3836,
      "ĠChristian": 3837,
      "Ġtype": 3838,
      "Ġedge": 3839,
      "Ġtrial": 3840,
      "Ġdemon": 3841,
      "Ġissues": 3842,
      "Ġgreatest": 3843,
      "Ġcontrast": 3844,
      "ĠRichard": 3845,
      "Ġdivided": 3846,
      "Ġpurs": 3847,
      "ASA": 3848,
      "Ġinfluenced": 3849,
      "Ġsurviving": 3850,
      "ĠIslands": 3851,
      "Ġfreeway": 3852,
      "Ġreligion": 3853,
      "ĠSlayer": 3854,
      "ĠCanadian": 3855,
      "Ġsummer": 3856,
      "Ġcommented": 3857,
      "ĠAfrica": 3858,
      "ĠHistor": 3859,
      "Ġsynagogue": 3860,
      "Ġfemale": 3861,
      "ĠNaktong": 3862,
      "ĠCorps": 3863,
      "ĠLouis": 3864,
      "Ġkilometres": 3865,
      "lo": 3866,
      "ufact": 3867,
      "yan": 3868,
      "Ġtakes": 3869,
      "err": 3870,
      "Ġwi": 3871,
      "Ġwrest": 3872,
      "Ġoil": 3873,
      "Ġour": 3874,
      "Ġfully": 3875,
      "Ġca": 3876,
      "Ġcur": 3877,
      "Ġcave": 3878,
      "Ġbott": 3879,
      "Ġpick": 3880,
      "icts": 3881,
      "Ġdaughter": 3882,
      "ĠSur": 3883,
      "Ġlink": 3884,
      "Ġnet": 3885,
      "acement": 3886,
      "ĠMass": 3887,
      "Ġgive": 3888,
      "Ġgrew": 3889,
      "uten": 3890,
      "ether": 3891,
      "ette": 3892,
      "ĠRif": 3893,
      "thur": 3894,
      "iforn": 3895,
      "anti": 3896,
      "ears": 3897,
      "ĠInter": 3898,
      "Ġchap": 3899,
      "Ġchallen": 3900,
      "ĠChan": 3901,
      "Ġunc": 3902,
      "Ġcontemporary": 3903,
      "Ġintelligence": 3904,
      "Ġrout": 3905,
      "Ġresidents": 3906,
      "achus": 3907,
      "Ġprepar": 3908,
      "Ġdefence": 3909,
      "aily": 3910,
      "Ġnewly": 3911,
      "aza": 3912,
      "iction": 3913,
      "ĠAsia": 3914,
      "Ġsynt": 3915,
      "Ġelection": 3916,
      "Ġterrit": 3917,
      "Ġartist": 3918,
      "ĠColon": 3919,
      "Ġsett": 3920,
      "ĠMean": 3921,
      "Ġconfir": 3922,
      "Ġinspired": 3923,
      "Ġprimarily": 3924,
      "Ġevacuation": 3925,
      "Ġofficials": 3926,
      "ĠMcCarty": 3927,
      "Ġcele": 3928,
      "Ġmixed": 3929,
      "Ġaccepted": 3930,
      "Ġconditions": 3931,
      "Ġtower": 3932,
      "ournal": 3933,
      "ĠRobert": 3934,
      "ĠClarkson": 3935,
      "Ġconsecutive": 3936,
      "ifornia": 3937,
      "Works": 3938,
      "ech": 3939,
      "gn": 3940,
      "gin": 3941,
      "lers": 3942,
      "och": 3943,
      "Ġrough": 3944,
      "Ġtal": 3945,
      "Ġtask": 3946,
      "Ġaid": 3947,
      "Ġsun": 3948,
      "Ġwors": 3949,
      "Ġwaters": 3950,
      "itation": 3951,
      "Ġbones": 3952,
      "asc": 3953,
      "Ġtouch": 3954,
      "Ġmob": 3955,
      "Ġmax": 3956,
      "Ġdone": 3957,
      "Ġlove": 3958,
      "Ġlik": 3959,
      "Ġnorm": 3960,
      "ĠMac": 3961,
      "ĠBat": 3962,
      "ola": 3963,
      "irt": 3964,
      "Ġgam": 3965,
      "utions": 3966,
      "ownt": 3967,
      "ĠHy": 3968,
      "ĠHed": 3969,
      "ĠHong": 3970,
      "unity": 3971,
      "unte": 3972,
      "andy": 3973,
      "ĠGall": 3974,
      "Ġseg": 3975,
      "odrom": 3976,
      "aks": 3977,
      "ĠKra": 3978,
      "anted": 3979,
      "antic": 3980,
      "ruit": 3981,
      "Ġrecon": 3982,
      "arker": 3983,
      "phas": 3984,
      "ĠSever": 3985,
      "Ġshear": 3986,
      "Ġcentre": 3987,
      "ĠZap": 3988,
      "ĠAmericans": 3989,
      "Ġoperated": 3990,
      "Ġtransfer": 3991,
      "Ġappears": 3992,
      "Ġsetting": 3993,
      "Ġtemple": 3994,
      "Ġprominent": 3995,
      "Ġboard": 3996,
      "Ġcounty": 3997,
      "Ġtried": 3998,
      "Ġrequest": 3999,
      "arrison": 4000,
      "undred": 4001,
      "Ġhelicop": 4002,
      "ĠFranc": 4003,
      "Ġprogress": 4004,
      "borne": 4005,
      "ĠCalifornia": 4006,
      "Ġpiece": 4007,
      "Ġinjury": 4008,
      "Ġawarded": 4009,
      "Ġgenus": 4010,
      "ĠNazi": 4011,
      "Ġintroduced": 4012,
      "Ġstraight": 4013,
      "Ġweakened": 4014,
      "ĠService": 4015,
      "Ġreduced": 4016,
      "Ġrapidly": 4017,
      "Ġconflict": 4018,
      "ĠHeavyweight": 4019,
      "Ġenvironment": 4020,
      "bra": 4021,
      "ee": 4022,
      "Ġtact": 4023,
      "Ġwor": 4024,
      "Ġwins": 4025,
      "enburg": 4026,
      "ises": 4027,
      "Ġbul": 4028,
      "alle": 4029,
      "Ġpark": 4030,
      "Ġtomb": 4031,
      "Ġmom": 4032,
      "Ġmel": 4033,
      "Ġmale": 4034,
      "ĠTV": 4035,
      "Ġreact": 4036,
      "Ġreason": 4037,
      "ĠSam": 4038,
      "Ġnation": 4039,
      "acan": 4040,
      "Ġbeat": 4041,
      "cture": 4042,
      "use": 4043,
      "etween": 4044,
      "cean": 4045,
      "Ġhealth": 4046,
      "Ġattended": 4047,
      "ĠFree": 4048,
      "ĠFurther": 4049,
      "ander": 4050,
      "ĠJoe": 4051,
      "Ġring": 4052,
      "ĠOly": 4053,
      "ĠUrania": 4054,
      "ĠKir": 4055,
      "Ġextended": 4056,
      "Ġexpected": 4057,
      "ĠChris": 4058,
      "Ġleave": 4059,
      "Ġperimeter": 4060,
      "Ġuses": 4061,
      "Ġdisplay": 4062,
      "Ġapparent": 4063,
      "inds": 4064,
      "Ġincludes": 4065,
      "ecause": 4066,
      "issance": 4067,
      "ĠArm": 4068,
      "Ġheaddress": 4069,
      "Ġmeans": 4070,
      "Ġrare": 4071,
      "Ġarms": 4072,
      "ĠClassic": 4073,
      "Ġdoor": 4074,
      "Ġfeaturing": 4075,
      "Ġcreate": 4076,
      "Ġstarting": 4077,
      "Ġsixth": 4078,
      "Ġdistinct": 4079,
      "Ġowned": 4080,
      "Ġservices": 4081,
      "Ġpowerful": 4082,
      "ĠAngela": 4083,
      "Ġrights": 4084,
      "Ġcommunic": 4085,
      "Ġshortly": 4086,
      "Ġlegisl": 4087,
      "Ġvictim": 4088,
      "ĠHarry": 4089,
      "enesis": 4090,
      "Ġcolonial": 4091,
      "Ġoccupied": 4092,
      "Ġmeeting": 4093,
      "Ġimprove": 4094,
      "Ġtraditional": 4095,
      "Ġparticipated": 4096,
      "Ġvocal": 4097,
      "Ġconspiracy": 4098,
      "Ġvessels": 4099,
      "Ġcopies": 4100,
      "senal": 4101,
      "Ġconvection": 4102,
      "ĠColdrum": 4103,
      "Ġsustained": 4104,
      "Ġwidespread": 4105,
      "ĠBoston": 4106,
      "phia": 4107,
      "ĠFootball": 4108,
      "Ġequipment": 4109,
      "ĠIreland": 4110,
      "utenant": 4111,
      "Bob": 4112,
      "TW": 4113,
      "right": 4114,
      "Ġsac": 4115,
      "orado": 4116,
      "Ġfro": 4117,
      "Ġfle": 4118,
      "Ġbu": 4119,
      "Ġbig": 4120,
      "Ġpyram": 4121,
      "Ġder": 4122,
      "Ġdrum": 4123,
      "Ġhill": 4124,
      "ĠTag": 4125,
      "ĠTower": 4126,
      "ĠSince": 4127,
      "ĠSpr": 4128,
      "ĠShikamaru": 4129,
      "ĠAy": 4130,
      "ĠApp": 4131,
      "ĠCle": 4132,
      "urst": 4133,
      "olk": 4134,
      "iring": 4135,
      "ima": 4136,
      "ĠPop": 4137,
      "ĠFre": 4138,
      "ĠLock": 4139,
      "ĠJTW": 4140,
      "ĠEle": 4141,
      "Ġsuit": 4142,
      "ĠUN": 4143,
      "apa": 4144,
      "Ġexit": 4145,
      "Ġunable": 4146,
      "Ġunsu": 4147,
      "Ġperman": 4148,
      "Ġscoring": 4149,
      "Ġaftern": 4150,
      "Ġinterchange": 4151,
      "Ġnews": 4152,
      "Ġnewsp": 4153,
      "Ġfinancial": 4154,
      "Ġrelatively": 4155,
      "Ġarmored": 4156,
      "Ġproducer": 4157,
      "Ġemphas": 4158,
      "Ġentrance": 4159,
      "ĠClara": 4160,
      "ullen": 4161,
      "Ġsinger": 4162,
      "ipped": 4163,
      "ĠIsra": 4164,
      "Ġboat": 4165,
      "utionary": 4166,
      "ĠScientologists": 4167,
      "Ġspecific": 4168,
      "Ġreflect": 4169,
      "Ġcontrovers": 4170,
      "Ġcrossed": 4171,
      "Ġbegins": 4172,
      "Ġorders": 4173,
      "ĠJackson": 4174,
      "Ġstarred": 4175,
      "Ġeyes": 4176,
      "Ġhigher": 4177,
      "Ġmovie": 4178,
      "Ġhosted": 4179,
      "Ġhonor": 4180,
      "Ġvocals": 4181,
      "Ġbuildings": 4182,
      "ĠAfrican": 4183,
      "Ġshooting": 4184,
      "Ġpilot": 4185,
      "Ġdissip": 4186,
      "Ġrespectively": 4187,
      "Ġmachine": 4188,
      "ĠGovernment": 4189,
      "Ġwitness": 4190,
      "Ġexcav": 4191,
      "track": 4192,
      "ĠHungarian": 4193,
      "Ġconcluded": 4194,
      "Ġplatform": 4195,
      "Ġpotential": 4196,
      "Ġbillion": 4197,
      "adelphia": 4198,
      "Ġsynthes": 4199,
      "Ġmaximum": 4200,
      "owntown": 4201,
      "ĠOlymp": 4202,
      "ĠJTWC": 4203,
      "ahi": 4204,
      "bury": 4205,
      "eg": 4206,
      "hab": 4207,
      "kn": 4208,
      "more": 4209,
      "nam": 4210,
      "sy": 4211,
      "ses": 4212,
      "wa": 4213,
      "writ": 4214,
      "inem": 4215,
      "Ġspl": 4216,
      "Ġsports": 4217,
      "Ġsocial": 4218,
      "Ġfall": 4219,
      "Ġbodies": 4220,
      "Ġpun": 4221,
      "Ġmort": 4222,
      "Ġdance": 4223,
      "Ġdynasty": 4224,
      "ĠTri": 4225,
      "Ġreally": 4226,
      "Ġthus": 4227,
      "ĠSun": 4228,
      "ĠSum": 4229,
      "Ġlab": 4230,
      "ĠCamb": 4231,
      "ĠCouncil": 4232,
      "amber": 4233,
      "ĠBurn": 4234,
      "ĠBacon": 4235,
      "ida": 4236,
      "Ġgross": 4237,
      "vey": 4238,
      "cting": 4239,
      "ĠIra": 4240,
      "ĠHome": 4241,
      "ĠRA": 4242,
      "ĠPot": 4243,
      "ĠDut": 4244,
      "ĠDel": 4245,
      "ĠFit": 4246,
      "osen": 4247,
      "ĠLow": 4248,
      "ĠWrest": 4249,
      "ĠGod": 4250,
      "aging": 4251,
      "ĠEastern": 4252,
      "Ġrate": 4253,
      "ĠKar": 4254,
      "Ġnotes": 4255,
      "ĠChang": 4256,
      "Ġcontains": 4257,
      "Ġroof": 4258,
      "enses": 4259,
      "Ġoffensive": 4260,
      "Ġattention": 4261,
      "ĠThree": 4262,
      "ĠNews": 4263,
      "ĠMarines": 4264,
      "ĠZr": 4265,
      "Ġproduce": 4266,
      "Ġelev": 4267,
      "ĠColorado": 4268,
      "Ġadvanced": 4269,
      "Ġturning": 4270,
      "ĠTex": 4271,
      "Ġexplos": 4272,
      "ĠEmperor": 4273,
      "ucle": 4274,
      "Ġforeign": 4275,
      "Ġbooks": 4276,
      "Ġdirectly": 4277,
      "Ġeffects": 4278,
      "Ġveh": 4279,
      "Ġfrig": 4280,
      "Ġpoetry": 4281,
      "Ġhyd": 4282,
      "Ġrevealed": 4283,
      "Ġadapted": 4284,
      "Ġindustry": 4285,
      "Ġinformation": 4286,
      "ĠHMS": 4287,
      "Ġabandoned": 4288,
      "Ġsurface": 4289,
      "Ġcemeteries": 4290,
      "Ġgreater": 4291,
      "Ġquarter": 4292,
      "ĠAcademy": 4293,
      "Ġnarrow": 4294,
      "ĠChronicles": 4295,
      "ĠIsrael": 4296,
      "ĠIraq": 4297,
      "Following": 4298,
      "Sh": 4299,
      "fect": 4300,
      "gu": 4301,
      "po": 4302,
      "hew": 4303,
      "reak": 4304,
      "rell": 4305,
      "Ġwords": 4306,
      "nding": 4307,
      "atio": 4308,
      "Ġcities": 4309,
      "Ġburn": 4310,
      "Ġinn": 4311,
      "Ġinside": 4312,
      "ĠTai": 4313,
      "Ġrev": 4314,
      "Ġrepe": 4315,
      "Ġreign": 4316,
      "ĠSpe": 4317,
      "Ġlay": 4318,
      "ĠCa": 4319,
      "Ġnatural": 4320,
      "acher": 4321,
      "amm": 4322,
      "ĠMemorial": 4323,
      "ĠBase": 4324,
      "uty": 4325,
      "Ġaspect": 4326,
      "eless": 4327,
      "ett": 4328,
      "ĠPenn": 4329,
      "ĠNot": 4330,
      "ĠDomin": 4331,
      "ĠFox": 4332,
      "ĠFernand": 4333,
      "ĠWrapped": 4334,
      "ĠJust": 4335,
      "ĠGaz": 4336,
      "agre": 4337,
      "Ġsuc": 4338,
      "ĠOut": 4339,
      "onge": 4340,
      "Ġplain": 4341,
      "Ġplaces": 4342,
      "geh": 4343,
      "Ġchoice": 4344,
      "Ġyour": 4345,
      "Ġpercent": 4346,
      "Ġdescend": 4347,
      "ĠAustro": 4348,
      "Ġdefensive": 4349,
      "Ġspread": 4350,
      "ĠUSS": 4351,
      "ributed": 4352,
      "ĠRevol": 4353,
      "Ġactors": 4354,
      "ĠShow": 4355,
      "Ġgoals": 4356,
      "Ġconcent": 4357,
      "Ġadvant": 4358,
      "Ġstrateg": 4359,
      "Ġstudy": 4360,
      "ĠEdson": 4361,
      "Ġextreme": 4362,
      "Ġrespond": 4363,
      "Ġattempts": 4364,
      "Ġbelief": 4365,
      "Ġskull": 4366,
      "ĠPhilippine": 4367,
      "Ġmedical": 4368,
      "ĠJackets": 4369,
      "Ġactivity": 4370,
      "Ġgrand": 4371,
      "Ġmissing": 4372,
      "nyi": 4373,
      "Ġvolunte": 4374,
      "ĠMadero": 4375,
      "Ġstructures": 4376,
      "ĠMinister": 4377,
      "Ġtechnique": 4378,
      "Ġsomething": 4379,
      "Ġturret": 4380,
      "Ġturrets": 4381,
      "Ġdropped": 4382,
      "ĠFilm": 4383,
      "ĠDodgers": 4384,
      "Ġmanager": 4385,
      "Ġadopted": 4386,
      "Ġerected": 4387,
      "He": 4388,
      "VD": 4389,
      "hy": 4390,
      "ores": 4391,
      "pass": 4392,
      "rs": 4393,
      "ridge": 4394,
      "under": 4395,
      "war": 4396,
      "xford": 4397,
      "ym": 4398,
      "Ġsought": 4399,
      "Ġstere": 4400,
      "nds": 4401,
      "itual": 4402,
      "isation": 4403,
      "Ġbank": 4404,
      "ala": 4405,
      "Ġpaid": 4406,
      "Ġmust": 4407,
      "Ġdig": 4408,
      "Ġho": 4409,
      "Ġhang": 4410,
      "Ġhundred": 4411,
      "ounder": 4412,
      "ĠTer": 4413,
      "iling": 4414,
      "ĠSil": 4415,
      "Ġlob": 4416,
      "Ġlives": 4417,
      "ĠCong": 4418,
      "ĠCook": 4419,
      "ĠChief": 4420,
      "uries": 4421,
      "ĠMen": 4422,
      "ĠMore": 4423,
      "ĠBer": 4424,
      "ĠBen": 4425,
      "iders": 4426,
      "igen": 4427,
      "imate": 4428,
      "ĠHay": 4429,
      "etts": 4430,
      "ulls": 4431,
      "ĠWin": 4432,
      "ĠGir": 4433,
      "ĠGreen": 4434,
      "Ġanc": 4435,
      "Ġseasons": 4436,
      "eston": 4437,
      "Ġcoming": 4438,
      "illed": 4439,
      "hire": 4440,
      "claim": 4441,
      "ĠChic": 4442,
      "Ġshape": 4443,
      "ruction": 4444,
      "Ġyouth": 4445,
      "Ġuns": 4446,
      "Ġwhether": 4447,
      "izations": 4448,
      "Ġjob": 4449,
      "awak": 4450,
      "acey": 4451,
      "Ġplayoff": 4452,
      "Ġcoin": 4453,
      "Ġflag": 4454,
      "ĠUSA": 4455,
      "Ġairfield": 4456,
      "Ġretired": 4457,
      "ublic": 4458,
      "Ġcolumn": 4459,
      "ĠMarc": 4460,
      "Ġcarrying": 4461,
      "Ġsurre": 4462,
      "Ġsurpr": 4463,
      "Ġinches": 4464,
      "Ġacad": 4465,
      "inson": 4466,
      "Ġverte": 4467,
      "Ġmuseum": 4468,
      "Ġimpact": 4469,
      "ledge": 4470,
      "Ġreports": 4471,
      "Ġkilling": 4472,
      "ĠAmb": 4473,
      "Ġrequested": 4474,
      "ĠPlay": 4475,
      "Ġcapture": 4476,
      "Ġmarket": 4477,
      "ĠSponge": 4478,
      "Ġhistorians": 4479,
      "Ġexperience": 4480,
      "ĠMountains": 4481,
      "Ġtrees": 4482,
      "mbol": 4483,
      "Ġloan": 4484,
      "Ġfocused": 4485,
      "Ġindividuals": 4486,
      "Ġcurrently": 4487,
      "Ġrule": 4488,
      "Ġshells": 4489,
      "Ġdelivered": 4490,
      "Ġbadly": 4491,
      "abyr": 4492,
      "ĠSarawak": 4493,
      "Ġaerodrom": 4494,
      "Ġreinforce": 4495,
      "ĠTrout": 4496,
      "standing": 4497,
      "Ġeducation": 4498,
      "Ġnecessary": 4499,
      "ĠLieutenant": 4500,
      "Ġschedul": 4501,
      "Ġconverted": 4502,
      "Ġseventh": 4503,
      "ongsan": 4504,
      "Ġheadquarters": 4505,
      "ĠDreamWorks": 4506,
      "Ġupgraded": 4507,
      "ĠColonel": 4508,
      "Ġconfirmed": 4509,
      "Ġafternoon": 4510,
      "ĠGazan": 4511,
      "gehog": 4512,
      "Les": 4513,
      "dess": 4514,
      "fire": 4515,
      "kes": 4516,
      "net": 4517,
      "uge": 4518,
      "Ġton": 4519,
      "Ġtry": 4520,
      "Ġsociety": 4521,
      "Ġfood": 4522,
      "Ġcat": 4523,
      "ingu": 4524,
      "Ġmem": 4525,
      "Ġmile": 4526,
      "Ġmission": 4527,
      "Ġhot": 4528,
      "Ġhull": 4529,
      "Ġrese": 4530,
      "Ġreaching": 4531,
      "ĠAlex": 4532,
      "ston": 4533,
      "stead": 4534,
      "adal": 4535,
      "ĠCorn": 4536,
      "uri": 4537,
      "ĠMort": 4538,
      "olf": 4539,
      "olithic": 4540,
      "vement": 4541,
      "Ġheart": 4542,
      "ĠRa": 4543,
      "ĠRo": 4544,
      "ĠProm": 4545,
      "unn": 4546,
      "ching": 4547,
      "Ġconstant": 4548,
      "ĠDen": 4549,
      "ĠDVD": 4550,
      "Ġsector": 4551,
      "Ġsections": 4552,
      "ĠEll": 4553,
      "ĠEven": 4554,
      "orted": 4555,
      "ivan": 4556,
      "Ġproceed": 4557,
      "ĠKurt": 4558,
      "antly": 4559,
      "earing": 4560,
      "ĠHend": 4561,
      "ously": 4562,
      "uees": 4563,
      "Ġroles": 4564,
      "Ġroads": 4565,
      "Ġtext": 4566,
      "Ġoffer": 4567,
      "Ġdispl": 4568,
      "Ġweak": 4569,
      "Ġremn": 4570,
      "Ġthemes": 4571,
      "Ġregiment": 4572,
      "Ġcarbon": 4573,
      "Ġprint": 4574,
      "Ġsecondary": 4575,
      "Ġcharges": 4576,
      "Ġquest": 4577,
      "Ġdirection": 4578,
      "Ġsettle": 4579,
      "Ġtemper": 4580,
      "ĠCaroly": 4581,
      "Ġpasses": 4582,
      "Ġrif": 4583,
      "Ġevening": 4584,
      "Ġorganized": 4585,
      "Ġdeliber": 4586,
      "ĠWeek": 4587,
      "Ġtwice": 4588,
      "Ġsites": 4589,
      "Ġfacing": 4590,
      "Ġsubsequent": 4591,
      "iente": 4592,
      "ĠGeorg": 4593,
      "ĠMadonna": 4594,
      "Ġbombard": 4595,
      "Ġcompletely": 4596,
      "onnaissance": 4597,
      "ĠGraves": 4598,
      "canal": 4599,
      "ĠDonald": 4600,
      "Ġsexual": 4601,
      "Ġconnect": 4602,
      "Ġsubmarine": 4603,
      "Ġsoutheast": 4604,
      "Ġbriefly": 4605,
      "Ġexperienced": 4606,
      "ĠHenry": 4607,
      "achusetts": 4608,
      "ĠSeveral": 4609,
      "abyrinth": 4610,
      "An": 4611,
      "ban": 4612,
      "che": 4613,
      "ds": 4614,
      "eke": 4615,
      "iot": 4616,
      "je": 4617,
      "lor": 4618,
      "ux": 4619,
      "ule": 4620,
      "wide": 4621,
      "xts": 4622,
      "Ġice": 4623,
      "Ġrival": 4624,
      "inated": 4625,
      "Ġsulf": 4626,
      "Ġwatch": 4627,
      "orida": 4628,
      "iti": 4629,
      "Ġfant": 4630,
      "Ġcore": 4631,
      "Ġcalling": 4632,
      "Ġbra": 4633,
      "Ġinstru": 4634,
      "rose": 4635,
      "Ġdu": 4636,
      "Ġdedic": 4637,
      "Ġdowntown": 4638,
      "ĠTree": 4639,
      "Ġreag": 4640,
      "ĠSM": 4641,
      "ĠSull": 4642,
      "ĠSNL": 4643,
      "ĠAI": 4644,
      "adium": 4645,
      "Ġlived": 4646,
      "Ġlisted": 4647,
      "ĠChe": 4648,
      "ĠCup": 4649,
      "Ġnucle": 4650,
      "lywood": 4651,
      "ĠMain": 4652,
      "ĠMary": 4653,
      "ĠMax": 4654,
      "ĠBor": 4655,
      "ĠBishop": 4656,
      "Ġgather": 4657,
      "iments": 4658,
      "vert": 4659,
      "ĠIRA": 4660,
      "Ġstones": 4661,
      "usion": 4662,
      "ĠRes": 4663,
      "ĠRome": 4664,
      "ĠNative": 4665,
      "Ġalle": 4666,
      "Ġconcept": 4667,
      "Ġconference": 4668,
      "ĠFar": 4669,
      "ĠFore": 4670,
      "ĠFederal": 4671,
      "rier": 4672,
      "ĠLand": 4673,
      "ĠWat": 4674,
      "Ġsect": 4675,
      "istant": 4676,
      "istry": 4677,
      "aint": 4678,
      "ĠEst": 4679,
      "Ġcomes": 4680,
      "ĠOf": 4681,
      "ĠOld": 4682,
      "iant": 4683,
      "ĠUl": 4684,
      "allow": 4685,
      "usted": 4686,
      "acks": 4687,
      "ĠChampion": 4688,
      "ĠHey": 4689,
      "Ġcloud": 4690,
      "Ġimages": 4691,
      "ĠYongsan": 4692,
      "Ġcommemor": 4693,
      "Ġmanufact": 4694,
      "ibly": 4695,
      "ĠArk": 4696,
      "rible": 4697,
      "Ġheaded": 4698,
      "ropri": 4699,
      "Ġcarry": 4700,
      "ĠIndust": 4701,
      "ĠWars": 4702,
      "Ġseconds": 4703,
      "Ġincident": 4704,
      "Ġattacking": 4705,
      "Ġtrain": 4706,
      "Ġtrave": 4707,
      "Ġenter": 4708,
      "Ġcapable": 4709,
      "Ġperforming": 4710,
      "Ġmusical": 4711,
      "Ġshowed": 4712,
      "ylvan": 4713,
      "Ġdisturb": 4714,
      "Ġedition": 4715,
      "Ġkept": 4716,
      "Ġcrosses": 4717,
      "Ġjoin": 4718,
      "Ġoppon": 4719,
      "Ġmarried": 4720,
      "ĠBurma": 4721,
      "ĠFlorida": 4722,
      "Ġyoungest": 4723,
      "Ġcompetition": 4724,
      "Ġresponsibility": 4725,
      "Ġcruisers": 4726,
      "Ġcoastal": 4727,
      "Ġbroadcast": 4728,
      "Ġcollabor": 4729,
      "Ġefforts": 4730,
      "ĠRepublican": 4731,
      "Ġemployed": 4732,
      "Ġstopped": 4733,
      "Ġexisting": 4734,
      "Ġmultiple": 4735,
      "Ġadapt": 4736,
      "ĠEnter": 4737,
      "Ġinvestigation": 4738,
      "ĠSeries": 4739,
      "otihu": 4740,
      "Ġsequence": 4741,
      "Ġexamples": 4742,
      "Ġtarget": 4743,
      "ĠColumbus": 4744,
      "ĠDefence": 4745,
      "Ġrelief": 4746,
      "Ġdocument": 4747,
      "ĠMassachusetts": 4748,
      "ĠMeanwhile": 4749,
      "known": 4750,
      "ĠSpongeBob": 4751,
      "adalcanal": 4752,
      "ĠCarolyn": 4753,
      "HL": 4754,
      "body": 4755,
      "cks": 4756,
      "har": 4757,
      "jo": 4758,
      "ped": 4759,
      "ski": 4760,
      "sylvan": 4761,
      "wan": 4762,
      "with": 4763,
      "Ġtrying": 4764,
      "inet": 4765,
      "Ġtheater": 4766,
      "Ġsq": 4767,
      "Ġsense": 4768,
      "Ġsister": 4769,
      "Ġsailed": 4770,
      "Ġwalk": 4771,
      "Ġwalls": 4772,
      "atri": 4773,
      "Ġcaught": 4774,
      "ari": 4775,
      "isf": 4776,
      "aloo": 4777,
      "Ġmarch": 4778,
      "Ġhair": 4779,
      "Ġhospital": 4780,
      "ĠTod": 4781,
      "Ġthr": 4782,
      "Ġthir": 4783,
      "ĠSound": 4784,
      "ĠSanta": 4785,
      "ĠArea": 4786,
      "Ġlot": 4787,
      "Ġlies": 4788,
      "ĠCr": 4789,
      "Ġnor": 4790,
      "acre": 4791,
      "omer": 4792,
      "irth": 4793,
      "ĠTheir": 4794,
      "Ġstop": 4795,
      "Ġheight": 4796,
      "ĠRam": 4797,
      "ĠPublic": 4798,
      "unic": 4799,
      "Ġath": 4800,
      "ĠLate": 4801,
      "Ġdeity": 4802,
      "istics": 4803,
      "ĠEach": 4804,
      "Ġrac": 4805,
      "Ġproved": 4806,
      "ewhere": 4807,
      "que": 4808,
      "Ġvoice": 4809,
      "Ġplant": 4810,
      "mented": 4811,
      "ĠVe": 4812,
      "ranean": 4813,
      "Ġrose": 4814,
      "Ġagent": 4815,
      "okes": 4816,
      "Ġresc": 4817,
      "Ġreserve": 4818,
      "ube": 4819,
      "izes": 4820,
      "izing": 4821,
      "Ġoverse": 4822,
      "Ġserve": 4823,
      "inton": 4824,
      "ĠSega": 4825,
      "Ġpool": 4826,
      "Ġpoem": 4827,
      "Ġunderground": 4828,
      "Ġfinish": 4829,
      "obe": 4830,
      "Ġcollect": 4831,
      "ĠZA": 4832,
      "Ġammun": 4833,
      "ĠAlbum": 4834,
      "Ġaccused": 4835,
      "ĠShort": 4836,
      "Ġmatter": 4837,
      "ĠAsahi": 4838,
      "Ġmainly": 4839,
      "Ġblood": 4840,
      "Ġreceiving": 4841,
      "Ġreturning": 4842,
      "Ġlanded": 4843,
      "ĠCommit": 4844,
      "Ġtemples": 4845,
      "Ġstarts": 4846,
      "Ġguest": 4847,
      "Ġadvis": 4848,
      "Ġclassified": 4849,
      "Ġexposed": 4850,
      "ĠPhiladelphia": 4851,
      "ĠTeotihu": 4852,
      "ĠGuadalcanal": 4853,
      "Ġengaged": 4854,
      "ĠImp": 4855,
      "Ġdebuted": 4856,
      "Ġcausing": 4857,
      "stitute": 4858,
      "ĠSecret": 4859,
      "Ġpeaked": 4860,
      "Ġprotection": 4861,
      "ĠBroad": 4862,
      "Ġruled": 4863,
      "Ġdollars": 4864,
      "Ġfriends": 4865,
      "Ġauthorities": 4866,
      "Ġcollege": 4867,
      "Ġfellow": 4868,
      "Ġidentified": 4869,
      "Ġbecomes": 4870,
      "Ġpilots": 4871,
      "ĠAttorney": 4872,
      "Ġflooding": 4873,
      "Ġpurpose": 4874,
      "ĠCaptain": 4875,
      "Ġtrue": 4876,
      "ĠConfeder": 4877,
      "Ġsources": 4878,
      "Ġscholars": 4879,
      "ĠCollege": 4880,
      "Ġcerem": 4881,
      "Ġbottom": 4882,
      "Ġpermanent": 4883,
      "ĠPennsylvan": 4884,
      "Ġancest": 4885,
      "ĠChicago": 4886,
      "Ġresearch": 4887,
      "abyrinthod": 4888,
      "TC": 4889,
      "Th": 4890,
      "With": 4891,
      "bound": 4892,
      "gs": 4893,
      "ho": 4894,
      "haps": 4895,
      "ien": 4896,
      "lock": 4897,
      "mark": 4898,
      "uter": 4899,
      "uct": 4900,
      "vati": 4901,
      "xis": 4902,
      "Ġtied": 4903,
      "Ġahead": 4904,
      "inity": 4905,
      "erted": 4906,
      "rel": 4907,
      "rees": 4908,
      "orter": 4909,
      "Ġfa": 4910,
      "Ġfung": 4911,
      "Ġcand": 4912,
      "aria": 4913,
      "arov": 4914,
      "ancing": 4915,
      "Ġpin": 4916,
      "Ġparent": 4917,
      "icide": 4918,
      "Ġdry": 4919,
      "oura": 4920,
      "lection": 4921,
      "ĠTenn": 4922,
      "ĠSir": 4923,
      "ĠSouthern": 4924,
      "ĠSpecial": 4925,
      "ĠAut": 4926,
      "Ġlibrary": 4927,
      "Ġeth": 4928,
      "Ġnative": 4929,
      "ommend": 4930,
      "ĠBol": 4931,
      "ĠBert": 4932,
      "ĠBBC": 4933,
      "Ġones": 4934,
      "idges": 4935,
      "Ġgro": 4936,
      "oty": 4937,
      "ĠHave": 4938,
      "ĠHind": 4939,
      "ĠPil": 4940,
      "ĠNaval": 4941,
      "Ġalleg": 4942,
      "ĠDue": 4943,
      "ĠDale": 4944,
      "rif": 4945,
      "ĠLad": 4946,
      "ĠLung": 4947,
      "ĠWard": 4948,
      "ĠGre": 4949,
      "ĠGulf": 4950,
      "Ġanch": 4951,
      "Ġseed": 4952,
      "umber": 4953,
      "agement": 4954,
      "Ġrum": 4955,
      "ighter": 4956,
      "iff": 4957,
      "ifying": 4958,
      "iance": 4959,
      "Ġvo": 4960,
      "Ġvon": 4961,
      "Ġvic": 4962,
      "ocated": 4963,
      "oured": 4964,
      "Ġchair": 4965,
      "Ġchampion": 4966,
      "Ġchamber": 4967,
      "Ġnote": 4968,
      "Ġshaped": 4969,
      "Ġunf": 4970,
      "Ġunknown": 4971,
      "Ġfiring": 4972,
      "Ġaggress": 4973,
      "Ġadminist": 4974,
      "Ġtend": 4975,
      "Ġtexts": 4976,
      "Ġrecently": 4977,
      "ĠYe": 4978,
      "rone": 4979,
      "Ġherself": 4980,
      "Ġenl": 4981,
      "Ġinterior": 4982,
      "Ġfilmed": 4983,
      "Ġpoets": 4984,
      "Ġunderw": 4985,
      "Ġknock": 4986,
      "Ġmechan": 4987,
      "ansfield": 4988,
      "ugby": 4989,
      "Ġformation": 4990,
      "ĠIndones": 4991,
      "Ġcharge": 4992,
      "Ġincorp": 4993,
      "Ġsole": 4994,
      "Ġbackground": 4995,
      "Ġsymbol": 4996,
      "Ġblue": 4997,
      "Ġdoing": 4998,
      "Ġarticle": 4999,
      "Ġinstit": 5000,
      "Ġexpressed": 5001,
      "ĠAddition": 5002,
      "Ġserves": 5003,
      "ĠJohnson": 5004,
      "uros": 5005,
      "Ġcontrolled": 5006,
      "Ġcovers": 5007,
      "isco": 5008,
      "Ġtwin": 5009,
      "Ġprojects": 5010,
      "Ġcyclones": 5011,
      "Ġparalle": 5012,
      "Ġstanding": 5013,
      "Ġhistoric": 5014,
      "Ġmountain": 5015,
      "Ġdeclined": 5016,
      "Ġsurviv": 5017,
      "ĠAndrew": 5018,
      "Ġviews": 5019,
      "Ġelimin": 5020,
      "Ġevacuees": 5021,
      "Ġlevels": 5022,
      "Ġmissions": 5023,
      "ĠMalays": 5024,
      "ĠItaly": 5025,
      "Ġneeded": 5026,
      "Ġoccupation": 5027,
      "Ġslowly": 5028,
      "Ġcruiser": 5029,
      "ĠCommander": 5030,
      "uzz": 5031,
      "ĠMonument": 5032,
      "Ġintroduction": 5033,
      "Ġpenetr": 5034,
      "Ġgrowth": 5035,
      "Ġfavorite": 5036,
      "Ġintersection": 5037,
      "ĠViet": 5038,
      "Ġconcerns": 5039,
      "Ġpurchase": 5040,
      "Ġletter": 5041,
      "Ġsilver": 5042,
      "Ġillust": 5043,
      "etonius": 5044,
      "Ġholiday": 5045,
      "ĠSteiner": 5046,
      "ĠKentuck": 5047,
      "ĠHistoric": 5048,
      "Ġtouchdown": 5049,
      "ĠFitts": 5050,
      "ĠTexas": 5051,
      "Ġscheduled": 5052,
      "Lesnar": 5053,
      "ĠMortier": 5054,
      "Ġammunition": 5055,
      "ĠCommittee": 5056,
      "Ġcandid": 5057,
      "ĠLunga": 5058,
      "By": 5059,
      "Kershaw": 5060,
      "TV": 5061,
      "car": 5062,
      "hich": 5063,
      "las": 5064,
      "met": 5065,
      "rt": 5066,
      "rong": 5067,
      "set": 5068,
      "zing": 5069,
      "Ġtall": 5070,
      "ini": 5071,
      "erp": 5072,
      "Ġsa": 5073,
      "Ġsnow": 5074,
      "Ġfal": 5075,
      "Ġfresh": 5076,
      "Ġcall": 5077,
      "Ġcateg": 5078,
      "ishes": 5079,
      "Ġba": 5080,
      "Ġinnings": 5081,
      "asure": 5082,
      "Ġtoday": 5083,
      "Ġdr": 5084,
      "Ġdiver": 5085,
      "Ġdaily": 5086,
      "Ġhun": 5087,
      "Ġhits": 5088,
      "ĠTa": 5089,
      "ĠTime": 5090,
      "Ġthin": 5091,
      "ĠSi": 5092,
      "ĠSociety": 5093,
      "stone": 5094,
      "ada": 5095,
      "Ġlog": 5096,
      "Ġlane": 5097,
      "Ġlabor": 5098,
      "ĠCA": 5099,
      "ĠCD": 5100,
      "acit": 5101,
      "ĠMill": 5102,
      "ĠBal": 5103,
      "ĠBus": 5104,
      "ĠBack": 5105,
      "ĠBang": 5106,
      "ĠBecause": 5107,
      "olved": 5108,
      "idation": 5109,
      "ota": 5110,
      "ĠIf": 5111,
      "ĠHard": 5112,
      "Ġhere": 5113,
      "Ġheard": 5114,
      "ĠRaw": 5115,
      "ĠPost": 5116,
      "ĠNAS": 5117,
      "uls": 5118,
      "ĠDom": 5119,
      "ĠDaz": 5120,
      "Ġseat": 5121,
      "ĠERA": 5122,
      "Ġrang": 5123,
      "ĠUpper": 5124,
      "aph": 5125,
      "apole": 5126,
      "ĠKum": 5127,
      "udd": 5128,
      "Ġkind": 5129,
      "Ġchose": 5130,
      "Ġsho": 5131,
      "ogaloo": 5132,
      "ondo": 5133,
      "ellion": 5134,
      "plic": 5135,
      "oked": 5136,
      "Ġadult": 5137,
      "Ġresemb": 5138,
      "Ġjunction": 5139,
      "ulture": 5140,
      "Ġdisapp": 5141,
      "Ġenj": 5142,
      "Ġcommitted": 5143,
      "Ġmanaged": 5144,
      "Ġneither": 5145,
      "uild": 5146,
      "Ġairport": 5147,
      "Ġends": 5148,
      "Ġmonitors": 5149,
      "theless": 5150,
      "Ġacting": 5151,
      "ĠGermans": 5152,
      "lsewhere": 5153,
      "Ġcontinuing": 5154,
      "ĠClaud": 5155,
      "ĠClinton": 5156,
      "Ġtransition": 5157,
      "ramuros": 5158,
      "Ġinfl": 5159,
      "Ġlandfall": 5160,
      "ervation": 5161,
      "Ġimped": 5162,
      "Ġpopul": 5163,
      "Ġanything": 5164,
      "plex": 5165,
      "Ġclassic": 5166,
      "Ġmoder": 5167,
      "Ġbasis": 5168,
      "Ġserving": 5169,
      "ĠEdward": 5170,
      "Ġreplacement": 5171,
      "ĠGuard": 5172,
      "Ġinvolving": 5173,
      "ĠKorea": 5174,
      "Ġdestroyers": 5175,
      "sequently": 5176,
      "ĠSpacey": 5177,
      "ĠProject": 5178,
      "Ġopport": 5179,
      "Ġiniti": 5180,
      "Ġhistorical": 5181,
      "Ġpresented": 5182,
      "Ġmountains": 5183,
      "ĠParvati": 5184,
      "Ġmyth": 5185,
      "Ġpainting": 5186,
      "Ġtestified": 5187,
      "Ġgetting": 5188,
      "ĠSystem": 5189,
      "Ġholding": 5190,
      "urban": 5191,
      "Ġcouple": 5192,
      "ĠNazarov": 5193,
      "Ġrenamed": 5194,
      "Ġvalue": 5195,
      "ĠPatrick": 5196,
      "Ġcontributed": 5197,
      "Ġzone": 5198,
      "ĠSchmitt": 5199,
      "ĠCharleston": 5200,
      "Ġpatrols": 5201,
      "Ġbrothers": 5202,
      "Ġtypes": 5203,
      "Ġpurchased": 5204,
      "Ġsubmarines": 5205,
      "Ġcommissioned": 5206,
      "Ġeconomic": 5207,
      "Ġamphibians": 5208,
      "ĠMilitary": 5209,
      "Although": 5210,
      "Ġsenior": 5211,
      "Ġutil": 5212,
      "ĠFIT": 5213,
      "aziridines": 5214,
      "Ġpyramid": 5215,
      "igenous": 5216,
      "Ġvertebra": 5217,
      "ekend": 5218,
      "ĠSullivan": 5219,
      "Ġalleged": 5220,
      "ĠHeyman": 5221,
      "ĠEntertain": 5222,
      "ĠTeotihuacan": 5223,
      "AG": 5224,
      "According": 5225,
      "CAA": 5226,
      "eo": 5227,
      "eor": 5228,
      "hood": 5229,
      "ios": 5230,
      "oom": 5231,
      "ugh": 5232,
      "yal": 5233,
      "Ġtip": 5234,
      "Ġsan": 5235,
      "atus": 5236,
      "atched": 5237,
      "itude": 5238,
      "Ġfict": 5239,
      "Ġfix": 5240,
      "Ġcited": 5241,
      "Ġbon": 5242,
      "Ġbed": 5243,
      "Ġbit": 5244,
      "Ġbound": 5245,
      "Ġbought": 5246,
      "Ġincl": 5247,
      "ali": 5248,
      "Ġpict": 5249,
      "roll": 5250,
      "Ġreference": 5251,
      "ĠAbor": 5252,
      "Ġlic": 5253,
      "ĠCS": 5254,
      "ĠCome": 5255,
      "ĠCross": 5256,
      "ĠMint": 5257,
      "ĠBas": 5258,
      "ĠBow": 5259,
      "ĠBuilding": 5260,
      "ĠBarker": 5261,
      "olic": 5262,
      "ira": 5263,
      "Ġgained": 5264,
      "ĠIr": 5265,
      "ĠIll": 5266,
      "etrap": 5267,
      "ĠPa": 5268,
      "ĠNar": 5269,
      "ĠNight": 5270,
      "ĠNations": 5271,
      "ĠNapole": 5272,
      "Ġaltern": 5273,
      "Ġconne": 5274,
      "ĠFront": 5275,
      "ĠLive": 5276,
      "ĠWhere": 5277,
      "Ġdeemed": 5278,
      "Ġang": 5279,
      "ainst": 5280,
      "ighth": 5281,
      "oper": 5282,
      "ĠOcean": 5283,
      "apes": 5284,
      "ĠKr": 5285,
      "hier": 5286,
      "Ġshots": 5287,
      "Ġyl": 5288,
      "ignment": 5289,
      "Ġcontained": 5290,
      "There": 5291,
      "ĠVI": 5292,
      "Ġclimb": 5293,
      "Ġadj": 5294,
      "Ġscale": 5295,
      "Ġjung": 5296,
      "ultural": 5297,
      "Ġimpr": 5298,
      "Ġattached": 5299,
      "aware": 5300,
      "ints": 5301,
      "Ġfilming": 5302,
      "Ġundert": 5303,
      "Ġspir": 5304,
      "ĠReign": 5305,
      "Ġretained": 5306,
      "ropolis": 5307,
      "ĠAlso": 5308,
      "ĠManchest": 5309,
      "Ġemot": 5310,
      "airs": 5311,
      "Ġmaintained": 5312,
      "Ġdepicted": 5313,
      "Ġdeveloping": 5314,
      "iginal": 5315,
      "alea": 5316,
      "Ġshowing": 5317,
      "Ġsouthwest": 5318,
      "Ġbox": 5319,
      "Ġgeneration": 5320,
      "Ġexpress": 5321,
      "Ġdistingu": 5322,
      "Ġdestruction": 5323,
      "Ġstudents": 5324,
      "Ġstrugg": 5325,
      "ysis": 5326,
      "ĠProvision": 5327,
      "ĠEgyptians": 5328,
      "Ġclaims": 5329,
      "Ġforest": 5330,
      "Ġcyclization": 5331,
      "Ġstandard": 5332,
      "Ġmounted": 5333,
      "Ġlegal": 5334,
      "iterranean": 5335,
      "Ġpitched": 5336,
      "Ġfacilities": 5337,
      "ĠBoard": 5338,
      "Ġideas": 5339,
      "Ġcriticized": 5340,
      "Ġcolonies": 5341,
      "Ġentirely": 5342,
      "ĠTyphoon": 5343,
      "Ġconvin": 5344,
      "Ġprotest": 5345,
      "ĠAnton": 5346,
      "Ġexistence": 5347,
      "ĠGrand": 5348,
      "Ġproblem": 5349,
      "Ġanimals": 5350,
      "Ġmanagement": 5351,
      "ĠGovernor": 5352,
      "Ġpractice": 5353,
      "Ġelectron": 5354,
      "Ġconnected": 5355,
      "ĠIntramuros": 5356,
      "Ġnominated": 5357,
      "Ġincreasingly": 5358,
      "ĠQueens": 5359,
      "ĠDevin": 5360,
      "ĠJosephine": 5361,
      "Ġdismiss": 5362,
      "Ġmentioned": 5363,
      "ĠDirector": 5364,
      "Ġmethod": 5365,
      "Ġshrine": 5366,
      "Ġstrikeouts": 5367,
      "Ġnetwork": 5368,
      "ĠHedgehog": 5369,
      "Ġhelicopters": 5370,
      "Ġmoment": 5371,
      "ĠDutch": 5372,
      "ĠDominican": 5373,
      "Ġadvantage": 5374,
      "Ġsurrender": 5375,
      "ĠHenderson": 5376,
      "ĠPennsylvania": 5377,
      "ĠKentucky": 5378,
      "ĠManchester": 5379,
      "CAR": 5380,
      "bal": 5381,
      "bel": 5382,
      "ded": 5383,
      "ele": 5384,
      "eenth": 5385,
      "fare": 5386,
      "mes": 5387,
      "rical": 5388,
      "time": 5389,
      "yond": 5390,
      "Ġtrou": 5391,
      "Ġtrough": 5392,
      "Ġtalk": 5393,
      "Ġaf": 5394,
      "Ġaft": 5395,
      "erts": 5396,
      "Ġsort": 5397,
      "itan": 5398,
      "itiz": 5399,
      "Ġfit": 5400,
      "Ġfuel": 5401,
      "Ġfranch": 5402,
      "Ġfrag": 5403,
      "Ġcorn": 5404,
      "Ġcause": 5405,
      "Ġbat": 5406,
      "Ġinte": 5407,
      "Ġpri": 5408,
      "Ġpaper": 5409,
      "Ġpsy": 5410,
      "Ġtourn": 5411,
      "icks": 5412,
      "Ġdrew": 5413,
      "ĠSat": 5414,
      "Ġloyal": 5415,
      "ĠCru": 5416,
      "ĠCape": 5417,
      "ĠCullen": 5418,
      "Ġnavy": 5419,
      "ĠMes": 5420,
      "ĠBetween": 5421,
      "Ġgir": 5422,
      "otilla": 5423,
      "uth": 5424,
      "ĠIV": 5425,
      "elve": 5426,
      "ĠHere": 5427,
      "ĠParty": 5428,
      "ĠNov": 5429,
      "ĠFred": 5430,
      "ĠFair": 5431,
      "riage": 5432,
      "ĠLu": 5433,
      "ĠLar": 5434,
      "ĠLower": 5435,
      "ĠWay": 5436,
      "ĠWood": 5437,
      "ĠJer": 5438,
      "ĠGar": 5439,
      "Ġseek": 5440,
      "aganda": 5441,
      "Ġritual": 5442,
      "ĠOxford": 5443,
      "ocal": 5444,
      "Ġpla": 5445,
      "Ġexclus": 5446,
      "Ġkg": 5447,
      "Ġchurch": 5448,
      "ĠChild": 5449,
      "Ġshif": 5450,
      "nton": 5451,
      "Ġcontain": 5452,
      "Ġcontact": 5453,
      "Ġadvert": 5454,
      "Ġrecent": 5455,
      "Ġjour": 5456,
      "Ġpartially": 5457,
      "phic": 5458,
      "Ġweigh": 5459,
      "Ġweather": 5460,
      "Ġremov": 5461,
      "Ġfilters": 5462,
      "ĠAustrian": 5463,
      "formation": 5464,
      "Ġconsists": 5465,
      "Ġspeech": 5466,
      "Ġcool": 5467,
      "Ġnumerous": 5468,
      "Ġcargo": 5469,
      "insula": 5470,
      "Ġdecorated": 5471,
      "Ġblocks": 5472,
      "Ġelement": 5473,
      "Ġdepict": 5474,
      "Ġwrite": 5475,
      "Ġwriters": 5476,
      "Ġfounded": 5477,
      "osses": 5478,
      "ĠStep": 5479,
      "Ġinstalled": 5480,
      "yli": 5481,
      "Ġdistance": 5482,
      "Ġcountries": 5483,
      "Ġstorms": 5484,
      "Ġbasic": 5485,
      "ĠBrad": 5486,
      "Ġinvolvement": 5487,
      "Ġbelieve": 5488,
      "Ġfamous": 5489,
      "Ġdeaths": 5490,
      "ĠSuetonius": 5491,
      "Ġolder": 5492,
      "annel": 5493,
      "Ġforecast": 5494,
      "Ġhistorian": 5495,
      "regation": 5496,
      "Ġestimates": 5497,
      "ruments": 5498,
      "Ġcircle": 5499,
      "Ġsurvived": 5500,
      "Ġsuggests": 5501,
      "Ġeverything": 5502,
      "Ġcases": 5503,
      "going": 5504,
      "Ġclosely": 5505,
      "Ġsoundtrack": 5506,
      "Ġcivilians": 5507,
      "Ġsquadrons": 5508,
      "Ġinjured": 5509,
      "Ġlosses": 5510,
      "ĠBelly": 5511,
      "Ġcertified": 5512,
      "Ġarmoured": 5513,
      "ĠFinals": 5514,
      "Ġconspirators": 5515,
      "Ġstationed": 5516,
      "rogen": 5517,
      "Ġvessel": 5518,
      "ĠIntelligence": 5519,
      "Ġnegoti": 5520,
      "Ġmeasures": 5521,
      "clusion": 5522,
      "ĠRhodesian": 5523,
      "ĠRhodesia": 5524,
      "Ġliterary": 5525,
      "Manila": 5526,
      "Ġprepared": 5527,
      "Ġmeaning": 5528,
      "ĠImagist": 5529,
      "Ġcamera": 5530,
      "Ġterminus": 5531,
      "ĠWalter": 5532,
      "Ġdegrees": 5533,
      "Ġphysical": 5534,
      "ĠBono": 5535,
      "ĠLlosa": 5536,
      "Ġdrama": 5537,
      "Ġbenef": 5538,
      "ĠJeff": 5539,
      "Ġroughly": 5540,
      "ĠSummer": 5541,
      "ĠPotter": 5542,
      "ĠFernandez": 5543,
      "ĠGirls": 5544,
      "claimed": 5545,
      "ĠGeorgia": 5546,
      "unicipal": 5547,
      "ĠImpact": 5548,
      "CA": 5549,
      "DOT": 5550,
      "US": 5551,
      "ba": 5552,
      "band": 5553,
      "ires": 5554,
      "lic": 5555,
      "nic": 5556,
      "sk": 5557,
      "uj": 5558,
      "Ġtun": 5559,
      "Ġaviation": 5560,
      "ergy": 5561,
      "Ġsom": 5562,
      "Ġsay": 5563,
      "Ġsand": 5564,
      "Ġwing": 5565,
      "orry": 5566,
      "Ġfear": 5567,
      "Ġcust": 5568,
      "Ġcorp": 5569,
      "Ġchief": 5570,
      "Ġbirth": 5571,
      "ality": 5572,
      "Ġpushed": 5573,
      "asions": 5574,
      "Ġmis": 5575,
      "Ġham": 5576,
      "lets": 5577,
      "Ġthing": 5578,
      "iled": 5579,
      "ĠAA": 5580,
      "Ġli": 5581,
      "Ġlie": 5582,
      "ĠCor": 5583,
      "ĠCra": 5584,
      "urs": 5585,
      "ĠMas": 5586,
      "ĠBad": 5587,
      "ĠBog": 5588,
      "ĠBoy": 5589,
      "imal": 5590,
      "Ġforcing": 5591,
      "Ġstore": 5592,
      "iths": 5593,
      "ĠHorn": 5594,
      "ĠRon": 5595,
      "ĠRoll": 5596,
      "ĠPound": 5597,
      "ĠPict": 5598,
      "ĠPAG": 5599,
      "ĠNick": 5600,
      "ĠNCAA": 5601,
      "ules": 5602,
      "Ġalone": 5603,
      "ĠDie": 5604,
      "ĠDoug": 5605,
      "ĠFive": 5606,
      "Ġdeleg": 5607,
      "ĠGram": 5608,
      "ĠGreg": 5609,
      "Ġseem": 5610,
      "Ġrise": 5611,
      "opher": 5612,
      "lder": 5613,
      "Ġpros": 5614,
      "Ġprohib": 5615,
      "Ġprosec": 5616,
      "aka": 5617,
      "apt": 5618,
      "uster": 5619,
      "abled": 5620,
      "ĠInstead": 5621,
      "Ġcho": 5622,
      "Ġchosen": 5623,
      "ĠStan": 5624,
      "ĠStaff": 5625,
      "Ġshore": 5626,
      "Ġarrival": 5627,
      "Ġunus": 5628,
      "ellow": 5629,
      "Ġwheel": 5630,
      "Ġroyal": 5631,
      "Ġresident": 5632,
      "Ġresistance": 5633,
      "Ġteacher": 5634,
      "ubb": 5635,
      "Ġrecommend": 5636,
      "izal": 5637,
      "Ġjournal": 5638,
      "awa": 5639,
      "Ġplays": 5640,
      "Ġweight": 5641,
      "ĠAustria": 5642,
      "Ġdefenses": 5643,
      "uilt": 5644,
      "Ġspot": 5645,
      "Ġsubs": 5646,
      "Ġfinishing": 5647,
      "azz": 5648,
      "Ġcarries": 5649,
      "Ġtherefore": 5650,
      "velopment": 5651,
      "Ġdesigns": 5652,
      "Ġmilit": 5653,
      "Ġsingles": 5654,
      "Ġappearances": 5655,
      "Ġgoddess": 5656,
      "Ġinstruments": 5657,
      "Ġepox": 5658,
      "ĠCont": 5659,
      "Ġexped": 5660,
      "Ġportra": 5661,
      "Ġdistrict": 5662,
      "Ġwinner": 5663,
      "Ġmodel": 5664,
      "Ġstudent": 5665,
      "Ġstudies": 5666,
      "Ġstreet": 5667,
      "Ġstreets": 5668,
      "Ġinspir": 5669,
      "ĠGuam": 5670,
      "Ġattempting": 5671,
      "Ġcrater": 5672,
      "Ġlasted": 5673,
      "Ġexplained": 5674,
      "authier": 5675,
      "ĠSpain": 5676,
      "Ġbehav": 5677,
      "Ġsuffering": 5678,
      "Ġvisit": 5679,
      "marus": 5680,
      "Ġdecline": 5681,
      "stituted": 5682,
      "Ġsignificantly": 5683,
      "Ġstoryline": 5684,
      "Ġframe": 5685,
      "ĠWilliams": 5686,
      "Ġobserved": 5687,
      "Ġsuccessfully": 5688,
      "Ġaffected": 5689,
      "Ġescape": 5690,
      "Ġlooking": 5691,
      "hua": 5692,
      "ĠNeolithic": 5693,
      "Ġdeployment": 5694,
      "Ġprogramme": 5695,
      "ĠMedway": 5696,
      "ĠMediterranean": 5697,
      "Ġcreating": 5698,
      "ĠTimor": 5699,
      "ĠDodger": 5700,
      "Ġsuperior": 5701,
      "Ġaware": 5702,
      "ĠGolden": 5703,
      "Ġdominated": 5704,
      "ĠMartin": 5705,
      "Ġcannot": 5706,
      "Ġjudge": 5707,
      "ĠDarwin": 5708,
      "ĠLoose": 5709,
      "encies": 5710,
      "Ġarrested": 5711,
      "Ġrecovered": 5712,
      "Ġdemonst": 5713,
      "ĠRifenburg": 5714,
      "Ġchapel": 5715,
      "ĠKirby": 5716,
      "Ġvictims": 5717,
      "ĠLockport": 5718,
      "Ġunsuccess": 5719,
      "Ġnewspaper": 5720,
      "Ġstrategic": 5721,
      "ĠCongress": 5722,
      "ĠCooke": 5723,
      "Ġacademic": 5724,
      "ĠNASCAR": 5725,
      "Ġenjoy": 5726,
      "Ġfictional": 5727,
      "ĠQueensland": 5728,
      "Ġjourney": 5729,
      "ĠBogside": 5730,
      "ĠPAGASA": 5731,
      "Ar": 5732,
      "For": 5733,
      "Ste": 5734,
      "VP": 5735,
      "ares": 5736,
      "break": 5737,
      "dale": 5738,
      "dney": 5739,
      "fort": 5740,
      "hou": 5741,
      "host": 5742,
      "lan": 5743,
      "ua": 5744,
      "wing": 5745,
      "wick": 5746,
      "het": 5747,
      "heastern": 5748,
      "inx": 5749,
      "onica": 5750,
      "Ġsess": 5751,
      "Ġsens": 5752,
      "Ġsales": 5753,
      "Ġsisters": 5754,
      "rete": 5755,
      "Ġcens": 5756,
      "arp": 5757,
      "Ġboy": 5758,
      "Ġinhab": 5759,
      "Ġpet": 5760,
      "Ġpath": 5761,
      "asy": 5762,
      "roc": 5763,
      "Ġmut": 5764,
      "Ġmine": 5765,
      "Ġmask": 5766,
      "Ġdated": 5767,
      "Ġhired": 5768,
      "ĠTask": 5769,
      "Ġreject": 5770,
      "Ġthous": 5771,
      "ĠSk": 5772,
      "ĠSout": 5773,
      "ĠSix": 5774,
      "ĠSports": 5775,
      "ĠAp": 5776,
      "add": 5777,
      "ĠCath": 5778,
      "Ġnarr": 5779,
      "urd": 5780,
      "ĠMVP": 5781,
      "ĠBah": 5782,
      "Ġge": 5783,
      "Ġgives": 5784,
      "Ġstock": 5785,
      "Ġstars": 5786,
      "eld": 5787,
      "uses": 5788,
      "ĠHal": 5789,
      "ĠHaw": 5790,
      "ĠHarrison": 5791,
      "Ġhearing": 5792,
      "ĠRoss": 5793,
      "ĠNHL": 5794,
      "Ġalive": 5795,
      "Ġconte": 5796,
      "ĠFr": 5797,
      "rik": 5798,
      "ripp": 5799,
      "ĠLaw": 5800,
      "ĠWall": 5801,
      "ĠWrit": 5802,
      "Ġdepend": 5803,
      "ĠJenn": 5804,
      "ĠGenesis": 5805,
      "Ġselect": 5806,
      "ĠOp": 5807,
      "ifically": 5808,
      "iana": 5809,
      "ĠUTC": 5810,
      "ĠKen": 5811,
      "quatic": 5812,
      "abbar": 5813,
      "pec": 5814,
      "Ġnotable": 5815,
      "Ġshut": 5816,
      "Ġleaves": 5817,
      "ograp": 5818,
      "ĠHeaven": 5819,
      "eller": 5820,
      "plom": 5821,
      "Ġagric": 5822,
      "Ġcompr": 5823,
      "Ġcompos": 5824,
      "achute": 5825,
      "Ġteeth": 5826,
      "Ġreconnaissance": 5827,
      "Ġpartly": 5828,
      "Ġimperial": 5829,
      "ĠThough": 5830,
      "formed": 5831,
      "ĠArthur": 5832,
      "Ġdefin": 5833,
      "Ġairborne": 5834,
      "Ġretreat": 5835,
      "Ġregions": 5836,
      "Ġregional": 5837,
      "Ġknew": 5838,
      "Ġmeets": 5839,
      "renstein": 5840,
      "ĠZagre": 5841,
      "Ġfollows": 5842,
      "cious": 5843,
      "Ġproducing": 5844,
      "Ġnumbered": 5845,
      "Ġdecades": 5846,
      "Ġadding": 5847,
      "Ġtransl": 5848,
      "rams": 5849,
      "Ġinfr": 5850,
      "urchill": 5851,
      "Ġimposs": 5852,
      "rows": 5853,
      "ĠBlood": 5854,
      "Ġsupporting": 5855,
      "ĠForces": 5856,
      "Ġportray": 5857,
      "Ġplanet": 5858,
      "Ġcommanded": 5859,
      "ĠAdminist": 5860,
      "Ġconfront": 5861,
      "Ġepisodes": 5862,
      "Ġextra": 5863,
      "Ġtrip": 5864,
      "Ġrequire": 5865,
      "Ġorganised": 5866,
      "ĠPlayer": 5867,
      "Ġbegin": 5868,
      "Ġgranted": 5869,
      "Ġtitled": 5870,
      "Ġdivisions": 5871,
      "Ġclaiming": 5872,
      "Ġstands": 5873,
      "ASP": 5874,
      "Ġlimit": 5875,
      "Ġmounts": 5876,
      "Ġeffective": 5877,
      "Ġcircum": 5878,
      "Ġgrazing": 5879,
      "Ġviewed": 5880,
      "Ġpromotion": 5881,
      "Ġmissed": 5882,
      "ĠJews": 5883,
      "Ġearliest": 5884,
      "Ġwithdrew": 5885,
      "Ġsculpted": 5886,
      "ĠPoint": 5887,
      "Ġdefended": 5888,
      "oult": 5889,
      "Ġchem": 5890,
      "incipal": 5891,
      "Ġviolence": 5892,
      "ĠMongols": 5893,
      "Ġgrowing": 5894,
      "Ġindustrial": 5895,
      "Ġdenied": 5896,
      "Ġpatrol": 5897,
      "Ġpurposes": 5898,
      "Ġpremi": 5899,
      "Ġprepare": 5900,
      "ĠMiddle": 5901,
      "Ġregarded": 5902,
      "Ġdeparted": 5903,
      "Ġconsiderable": 5904,
      "Churchill": 5905,
      "Ġpanel": 5906,
      "Ġconsisting": 5907,
      "ĠAtlanta": 5908,
      "Ġpaintings": 5909,
      "ĠCroatian": 5910,
      "ĠVargas": 5911,
      "Ġcloser": 5912,
      "ĠOfficial": 5913,
      "Ġdetermined": 5914,
      "Ġfailure": 5915,
      "Ġceleb": 5916,
      "Ġworship": 5917,
      "Ġgammarus": 5918,
      "Ġsegment": 5919,
      "Ġaspects": 5920,
      "Ġsucceed": 5921,
      "Ġremnants": 5922,
      "Ġdedicated": 5923,
      "ĠArkansas": 5924,
      "Ġtravelled": 5925,
      "ĠVietnam": 5926,
      "ĠFITs": 5927,
      "Ġvertebrae": 5928,
      "Ġjungle": 5929,
      "Ġfranchise": 5930,
      "ĠStephen": 5931,
      "ĠZagreb": 5932,
      "Jordan": 5933,
      "SB": 5934,
      "Tem": 5935,
      "brick": 5936,
      "cle": 5937,
      "cru": 5938,
      "din": 5939,
      "gets": 5940,
      "iil": 5941,
      "ja": 5942,
      "king": 5943,
      "mosp": 5944,
      "ners": 5945,
      "pond": 5946,
      "rn": 5947,
      "taker": 5948,
      "were": 5949,
      "worth": 5950,
      "za": 5951,
      "Ġrom": 5952,
      "Ġtort": 5953,
      "Ġtetrap": 5954,
      "iny": 5955,
      "Ġswe": 5956,
      "rec": 5957,
      "Ġwre": 5958,
      "atre": 5959,
      "Ġcatal": 5960,
      "anj": 5961,
      "alition": 5962,
      "ashed": 5963,
      "room": 5964,
      "Ġmo": 5965,
      "icus": 5966,
      "Ġdies": 5967,
      "Ġdial": 5968,
      "Ġdates": 5969,
      "Ġdang": 5970,
      "Ġdense": 5971,
      "Ġdream": 5972,
      "leton": 5973,
      "ĠTacit": 5974,
      "ĠSund": 5975,
      "ĠSquare": 5976,
      "stron": 5977,
      "stones": 5978,
      "adow": 5979,
      "Ġlit": 5980,
      "ĠCab": 5981,
      "Ġelsewhere": 5982,
      "Ġnav": 5983,
      "ambo": 5984,
      "ĠBa": 5985,
      "ĠBeth": 5986,
      "ĠBoys": 5987,
      "oles": 5988,
      "Ġbears": 5989,
      "Ġgas": 5990,
      "verse": 5991,
      "ĠIse": 5992,
      "ĠIgn": 5993,
      "Ġstages": 5994,
      "Ġstayed": 5995,
      "usz": 5996,
      "aya": 5997,
      "ĠHun": 5998,
      "ĠRod": 5999,
      "ĠRab": 6000,
      "ĠRidge": 6001,
      "ĠRizal": 6002,
      "ĠPE": 6003,
      "ĠPra": 6004,
      "ĠNL": 6005,
      "ĠNash": 6006,
      "Ġconce": 6007,
      "ĠForm": 6008,
      "ĠFats": 6009,
      "Ġisol": 6010,
      "ĠLim": 6011,
      "ĠWes": 6012,
      "ĠWing": 6013,
      "ĠGoe": 6014,
      "Ġsend": 6015,
      "herz": 6016,
      "pport": 6017,
      "Ġris": 6018,
      "ĠOhi": 6019,
      "apers": 6020,
      "ĠKong": 6021,
      "Ġvan": 6022,
      "arden": 6023,
      "Ġextend": 6024,
      "ours": 6025,
      "ĠStation": 6026,
      "ĠStork": 6027,
      "Ġnoting": 6028,
      "ordin": 6029,
      "ordon": 6030,
      "ructure": 6031,
      "Ġunique": 6032,
      "Ġunlike": 6033,
      "sole": 6034,
      "ellite": 6035,
      "merican": 6036,
      "ensions": 6037,
      "kee": 6038,
      "Ġrecalled": 6039,
      "Ġoverl": 6040,
      "Ġattributed": 6041,
      "attle": 6042,
      "Ġappeal": 6043,
      "Ġfilter": 6044,
      "Ġneigh": 6045,
      "Ġsecure": 6046,
      "ĠArts": 6047,
      "Ġflat": 6048,
      "Ġspace": 6049,
      "Ġspring": 6050,
      "Ġsubstant": 6051,
      "Ġcolor": 6052,
      "Ġarmament": 6053,
      "ĠOnce": 6054,
      "Ġgameplay": 6055,
      "Ġgunbo": 6056,
      "Ġentit": 6057,
      "Ġenters": 6058,
      "Ġentering": 6059,
      "Ġoperate": 6060,
      "Ġmaint": 6061,
      "Ġelected": 6062,
      "Ġdepartment": 6063,
      "Ġdepicts": 6064,
      "tenance": 6065,
      "Ġterrest": 6066,
      "iginally": 6067,
      "Ġobtained": 6068,
      "Ġcreation": 6069,
      "ĠBlock": 6070,
      "cribed": 6071,
      "Ġoccasion": 6072,
      "Ġexpanded": 6073,
      "Ġbelong": 6074,
      "Ġstreak": 6075,
      "Ġeastward": 6076,
      "Ġapproved": 6077,
      "Ġrestored": 6078,
      "Ġtries": 6079,
      "Ġposted": 6080,
      "pective": 6081,
      "Ġorganizations": 6082,
      "Ġmembership": 6083,
      "ĠMuseo": 6084,
      "Ġdemol": 6085,
      "Ġcrash": 6086,
      "Ġcrimin": 6087,
      "Ġcharacteristics": 6088,
      "attered": 6089,
      "Ġcaptain": 6090,
      "Ġworldwide": 6091,
      "Ġbarric": 6092,
      "Ġdebate": 6093,
      "ĠStreets": 6094,
      "Ġvisual": 6095,
      "atorial": 6096,
      "ĠCald": 6097,
      "Ġsitu": 6098,
      "engers": 6099,
      "Ġpromote": 6100,
      "Ġfavour": 6101,
      "evin": 6102,
      "ĠBoogaloo": 6103,
      "Ġfinds": 6104,
      "Ġcrews": 6105,
      "Ġrulers": 6106,
      "Ġwidely": 6107,
      "ĠUndertaker": 6108,
      "Ġconduct": 6109,
      "Ġdiplom": 6110,
      "Ġimproved": 6111,
      "Ġstrengthe": 6112,
      "Stela": 6113,
      "ĠDaniel": 6114,
      "Ġcreator": 6115,
      "Ġreveal": 6116,
      "Ġprevented": 6117,
      "Ġsolo": 6118,
      "ĠBuin": 6119,
      "Ġquality": 6120,
      "ivalent": 6121,
      "Ġabandon": 6122,
      "III": 6123,
      "Ġburial": 6124,
      "Ġhappened": 6125,
      "ĠBooker": 6126,
      "ĠMatthew": 6127,
      "ĠHamil": 6128,
      "Ġbattery": 6129,
      "ĠAtlantic": 6130,
      "Ġtells": 6131,
      "Ġestablishment": 6132,
      "Ġdetails": 6133,
      "ĠDemocratic": 6134,
      "Ġapplied": 6135,
      "Ġencountered": 6136,
      "Ġpursue": 6137,
      "Ġrouting": 6138,
      "Ġpreparation": 6139,
      "Ġnormal": 6140,
      "ĠKrabs": 6141,
      "Ġenvironmental": 6142,
      "ĠRAF": 6143,
      "ĠTaiwan": 6144,
      "Ġresponded": 6145,
      "ropriate": 6146,
      "Ġfungus": 6147,
      "ĠTennant": 6148,
      "Ġinstitutions": 6149,
      "Ġtouchdowns": 6150,
      "Ġfalse": 6151,
      "oultrie": 6152,
      "ĠOhio": 6153,
      "IP": 6154,
      "IS": 6155,
      "It": 6156,
      "NG": 6157,
      "TE": 6158,
      "When": 6159,
      "ao": 6160,
      "aust": 6161,
      "aung": 6162,
      "dn": 6163,
      "fl": 6164,
      "ht": 6165,
      "ni": 6166,
      "pet": 6167,
      "rach": 6168,
      "tra": 6169,
      "vor": 6170,
      "yer": 6171,
      "yard": 6172,
      "zra": 6173,
      "Ġurban": 6174,
      "Ġtable": 6175,
      "inter": 6176,
      "Ġsquad": 6177,
      "Ġselling": 6178,
      "Ġwid": 6179,
      "Ġoak": 6180,
      "orai": 6181,
      "itom": 6182,
      "Ġcation": 6183,
      "Ġcold": 6184,
      "arm": 6185,
      "Ġble": 6186,
      "Ġbranch": 6187,
      "Ġindu": 6188,
      "alo": 6189,
      "alt": 6190,
      "Ġpull": 6191,
      "Ġment": 6192,
      "Ġmere": 6193,
      "Ġmaster": 6194,
      "Ġmuzz": 6195,
      "icro": 6196,
      "ĠTu": 6197,
      "ĠTok": 6198,
      "Ġthrone": 6199,
      "ĠSet": 6200,
      "ĠSab": 6201,
      "ĠSav": 6202,
      "ĠSub": 6203,
      "ĠSup": 6204,
      "ĠAviation": 6205,
      "state": 6206,
      "stances": 6207,
      "ĠCAA": 6208,
      "Ġnit": 6209,
      "acles": 6210,
      "omo": 6211,
      "ĠMot": 6212,
      "ĠBre": 6213,
      "ĠBand": 6214,
      "Ġbeyond": 6215,
      "iger": 6216,
      "imet": 6217,
      "imination": 6218,
      "otic": 6219,
      "eline": 6220,
      "usan": 6221,
      "Ġhear": 6222,
      "ĠPas": 6223,
      "uns": 6224,
      "ĠName": 6225,
      "Ġcond": 6226,
      "Ġconqu": 6227,
      "riers": 6228,
      "ĠLine": 6229,
      "ĠLike": 6230,
      "ĠGen": 6231,
      "ĠGood": 6232,
      "ĠGordon": 6233,
      "Ġseems": 6234,
      "Ġselection": 6235,
      "Ġram": 6236,
      "Ġrig": 6237,
      "ĠOk": 6238,
      "ewise": 6239,
      "akm": 6240,
      "ĠKid": 6241,
      "ĠKansas": 6242,
      "ĠKhan": 6243,
      "Ġvide": 6244,
      "Ġplane": 6245,
      "ardo": 6246,
      "Ġorb": 6247,
      "abil": 6248,
      "avia": 6249,
      "Ġchamb": 6250,
      "ĠStones": 6251,
      "iah": 6252,
      "Ġarran": 6253,
      "ĠVice": 6254,
      "Ġroll": 6255,
      "Ġju": 6256,
      "ĠYax": 6257,
      "aws": 6258,
      "oselect": 6259,
      "amps": 6260,
      "ĠDeath": 6261,
      "Ġshel": 6262,
      "Ġspect": 6263,
      "Ġspeak": 6264,
      "Ġspeaking": 6265,
      "ternal": 6266,
      "obal": 6267,
      "Ġsomeone": 6268,
      "Ġacts": 6269,
      "Ġaccident": 6270,
      "Ġoperating": 6271,
      "ĠAsh": 6272,
      "Ġelections": 6273,
      "Ġterrain": 6274,
      "ertain": 6275,
      "ĠColossal": 6276,
      "Ġopin": 6277,
      "Ġofficially": 6278,
      "ĠPolice": 6279,
      "Ġanyone": 6280,
      "Ġpassengers": 6281,
      "Ġanniversary": 6282,
      "Ġpublications": 6283,
      "Ġdescribes": 6284,
      "Ġspecifically": 6285,
      "Ġbases": 6286,
      "ĠAmos": 6287,
      "ĠAmong": 6288,
      "Ġreplace": 6289,
      "Ġengines": 6290,
      "ĠAirport": 6291,
      "readn": 6292,
      "ĠPlaza": 6293,
      "ĠSche": 6294,
      "ĠWeev": 6295,
      "Ġfamil": 6296,
      "Ġequipped": 6297,
      "Ġequivalent": 6298,
      "Ġreviewer": 6299,
      "Ġstrongly": 6300,
      "Ġvisited": 6301,
      "Ġdrawn": 6302,
      "Ġcirculation": 6303,
      "Ġsuggesting": 6304,
      "Ġfreed": 6305,
      "ĠAgripp": 6306,
      "Ġversions": 6307,
      "Ġrounds": 6308,
      "istered": 6309,
      "Ġgliders": 6310,
      "nyong": 6311,
      "Ġagreement": 6312,
      "ushing": 6313,
      "bsite": 6314,
      "ĠSydney": 6315,
      "ĠElbert": 6316,
      "Ġdiscovery": 6317,
      "Ġintensified": 6318,
      "ĠNBC": 6319,
      "Ġfarm": 6320,
      "Ġconvoy": 6321,
      "Ġcollection": 6322,
      "Ġcoup": 6323,
      "Ġdrive": 6324,
      "Ġdriven": 6325,
      "Ġrecognized": 6326,
      "Ġdoub": 6327,
      "Ġmulti": 6328,
      "ĠAttalea": 6329,
      "ĠHistory": 6330,
      "Ġawiil": 6331,
      "Ġaccompl": 6332,
      "Ġexecuted": 6333,
      "Ġconcerned": 6334,
      "Ġtypically": 6335,
      "Ġsusp": 6336,
      "ĠOsbert": 6337,
      "Ġpredomin": 6338,
      "Ġrepairs": 6339,
      "Ġeconomy": 6340,
      "Ġproperty": 6341,
      "Ġphotograph": 6342,
      "ĠVeronica": 6343,
      "Ġtreatment": 6344,
      "ĠBobby": 6345,
      "Ġsemi": 6346,
      "ĠIndependiente": 6347,
      "ĠTurk": 6348,
      "Ġemerged": 6349,
      "ĠCroatia": 6350,
      "Ġextrat": 6351,
      "Ġmemorials": 6352,
      "ĠTransport": 6353,
      "Ġevacuated": 6354,
      "Ġterritory": 6355,
      "ĠHongorai": 6356,
      "ĠFrancisco": 6357,
      "Ġworst": 6358,
      "Ġrarely": 6359,
      "Ġsplit": 6360,
      "ĠDelaware": 6361,
      "Ġvehicles": 6362,
      "ĠAmbassador": 6363,
      "Ġreinforcements": 6364,
      "Ġquestion": 6365,
      "Ġsettlement": 6366,
      "Ġbombardment": 6367,
      "Ġenlisted": 6368,
      "Ġparallel": 6369,
      "Ġimpedance": 6370,
      "ĠEntertainment": 6371,
      "ĠNapoleon": 6372,
      "Ġpsych": 6373,
      "ĠGrammy": 6374,
      "Ġimpossible": 6375,
      "herzog": 6376,
      "Ġmuzzle": 6377,
      "Nero": 6378,
      "While": 6379,
      "bes": 6380,
      "cel": 6381,
      "ias": 6382,
      "iate": 6383,
      "lines": 6384,
      "load": 6385,
      "nce": 6386,
      "night": 6387,
      "ois": 6388,
      "ooth": 6389,
      "rus": 6390,
      "rument": 6391,
      "sw": 6392,
      "vin": 6393,
      "yo": 6394,
      "zed": 6395,
      "zen": 6396,
      "zherzog": 6397,
      "eral": 6398,
      "onies": 6399,
      "orage": 6400,
      "itian": 6401,
      "Ġfair": 6402,
      "Ġcatch": 6403,
      "Ġcrown": 6404,
      "Ġbow": 6405,
      "Ġbree": 6406,
      "Ġinner": 6407,
      "Ġpounder": 6408,
      "Ġmap": 6409,
      "ici": 6410,
      "ician": 6411,
      "Ġdut": 6412,
      "ĠTank": 6413,
      "Ġreform": 6414,
      "ilation": 6415,
      "ĠSnow": 6416,
      "ĠAve": 6417,
      "ĠAge": 6418,
      "ĠCy": 6419,
      "ĠCass": 6420,
      "Ġneck": 6421,
      "amor": 6422,
      "urance": 6423,
      "ĠMat": 6424,
      "ĠMike": 6425,
      "ĠMoultrie": 6426,
      "ĠBaby": 6427,
      "Ġbeam": 6428,
      "Ġbeating": 6429,
      "irgin": 6430,
      "veill": 6431,
      "ĠTheatre": 6432,
      "very": 6433,
      "Ġstem": 6434,
      "Ġstyles": 6435,
      "ĠHo": 6436,
      "ĠHum": 6437,
      "ĠProte": 6438,
      "ĠNK": 6439,
      "ulate": 6440,
      "Ġally": 6441,
      "Ġcong": 6442,
      "Ġconvent": 6443,
      "Ġconvers": 6444,
      "Ġconstitution": 6445,
      "ĠDiv": 6446,
      "ĠDrenstein": 6447,
      "rage": 6448,
      "ĠLakes": 6449,
      "ĠLuz": 6450,
      "ĠWy": 6451,
      "ĠWalk": 6452,
      "ĠJo": 6453,
      "ĠJones": 6454,
      "ĠGauthier": 6455,
      "Ġseal": 6456,
      "estic": 6457,
      "oded": 6458,
      "odern": 6459,
      "ĠEp": 6460,
      "ĠEarth": 6461,
      "ĠEzra": 6462,
      "respond": 6463,
      "Ġrural": 6464,
      "ivia": 6465,
      "ĠOw": 6466,
      "iful": 6467,
      "ewhat": 6468,
      "apse": 6469,
      "Ġvoted": 6470,
      "classic": 6471,
      "abama": 6472,
      "pting": 6473,
      "Ġshare": 6474,
      "Ġshared": 6475,
      "Ġarrang": 6476,
      "Ġye": 6477,
      "Ġunivers": 6478,
      "Ġuniversity": 6479,
      "soon": 6480,
      "Ġintention": 6481,
      "ĠVent": 6482,
      "iege": 6483,
      "Ġabo": 6484,
      "Ġperfect": 6485,
      "Ġperhaps": 6486,
      "Ġcompon": 6487,
      "Ġcompar": 6488,
      "Ġafterwards": 6489,
      "awn": 6490,
      "away": 6491,
      "neath": 6492,
      "ĠArsenal": 6493,
      "Ġdefences": 6494,
      "Ġcoaching": 6495,
      "Ġspan": 6496,
      "ĠComplex": 6497,
      "ips": 6498,
      "Ġassumed": 6499,
      "Ġraids": 6500,
      "Ġfollowers": 6501,
      "Ġamate": 6502,
      "Ġwarfare": 6503,
      "Ġmonit": 6504,
      "ĠAlabama": 6505,
      "ĠWarbrick": 6506,
      "ikes": 6507,
      "Ġacres": 6508,
      "Ġcontinuous": 6509,
      "Ġtrained": 6510,
      "ĠClass": 6511,
      "Ġdepth": 6512,
      "Ġwritings": 6513,
      "ĠSheela": 6514,
      "Ġminimum": 6515,
      "Ġlandsc": 6516,
      "Ġbrown": 6517,
      "Ġobtain": 6518,
      "Ġtempor": 6519,
      "Ġinstrument": 6520,
      "Ġprompted": 6521,
      "Ġpassage": 6522,
      "Ġgenerated": 6523,
      "Ġproviding": 6524,
      "Ġpublication": 6525,
      "Ġstream": 6526,
      "ĠAmun": 6527,
      "Ġreplacing": 6528,
      "Ġsimple": 6529,
      "Ġpossibly": 6530,
      "Ġbelieving": 6531,
      "Ġallows": 6532,
      "Ġslop": 6533,
      "Ġhumor": 6534,
      "Ġsky": 6535,
      "Ġequal": 6536,
      "Ġjoint": 6537,
      "Ġmovements": 6538,
      "Ġoldest": 6539,
      "Ġrepresenting": 6540,
      "Ġrepresentative": 6541,
      "Ġopposition": 6542,
      "Ġvisitors": 6543,
      "ĠWhat": 6544,
      "ĠCalakm": 6545,
      "Ġfootage": 6546,
      "Ġaffili": 6547,
      "ĠDepression": 6548,
      "Ġprotected": 6549,
      "itarian": 6550,
      "ĠPrime": 6551,
      "ĠPrince": 6552,
      "Ġrebellion": 6553,
      "ĠMexican": 6554,
      "Ġauthority": 6555,
      "ĠBelg": 6556,
      "ĠBlackie": 6557,
      "Ġlaunch": 6558,
      "ĠMori": 6559,
      "ĠPatri": 6560,
      "Ġcorrespond": 6561,
      "Ġfields": 6562,
      "Ġviolent": 6563,
      "Ġremainder": 6564,
      "Ġindicated": 6565,
      "ĠCharlie": 6566,
      "ĠSarah": 6567,
      "Ġsailors": 6568,
      "ĠStrapping": 6569,
      "Ġarchitectural": 6570,
      "Ġsuspend": 6571,
      "Ġabsence": 6572,
      "Ġmerch": 6573,
      "Ġcredit": 6574,
      "Ġhorse": 6575,
      "ĠTrenton": 6576,
      "ĠCampaign": 6577,
      "Ġachieved": 6578,
      "Ġburied": 6579,
      "Ġtreaty": 6580,
      "Ġsteps": 6581,
      "Ġlearned": 6582,
      "Ġobjective": 6583,
      "ĠMagazine": 6584,
      "ĠStudio": 6585,
      "Ġattract": 6586,
      "Ġassembled": 6587,
      "ĠFerdin": 6588,
      "cription": 6589,
      "ĠJoshua": 6590,
      "Ġpicked": 6591,
      "Ġtactics": 6592,
      "Ġapparently": 6593,
      "ĠSpring": 6594,
      "Ġmortar": 6595,
      "ĠBurnham": 6596,
      "ĠChangnyong": 6597,
      "ĠZrnyi": 6598,
      "Ġfrigates": 6599,
      "Ġaerodromes": 6600,
      "Ġmemory": 6601,
      "Ġreagents": 6602,
      "Ġopponents": 6603,
      "ĠToday": 6604,
      "Ġoverseas": 6605,
      "ĠAlbums": 6606,
      "ĠConfederate": 6607,
      "Ġparents": 6608,
      "Ġsurvivors": 6609,
      "erpeton": 6610,
      "Ġunusual": 6611,
      "ĠTacitus": 6612,
      "Ġterrestrial": 6613,
      "Ġchambers": 6614,
      "ĠWeevil": 6615,
      "ĠCalakmul": 6616,
      "ĠFerdinand": 6617,
      "DIS": 6618,
      "From": 6619,
      "WG": 6620,
      "hr": 6621,
      "hum": 6622,
      "ko": 6623,
      "komo": 6624,
      "mates": 6625,
      "nal": 6626,
      "oT": 6627,
      "sm": 6628,
      "ture": 6629,
      "uit": 6630,
      "vard": 6631,
      "yst": 6632,
      "Ġir": 6633,
      "hetic": 6634,
      "Ġack": 6635,
      "Ġawards": 6636,
      "inas": 6637,
      "Ġsons": 6638,
      "Ġwave": 6639,
      "Ġways": 6640,
      "orus": 6641,
      "organ": 6642,
      "Ġferry": 6643,
      "Ġfalling": 6644,
      "Ġfruit": 6645,
      "Ġcab": 6646,
      "Ġcell": 6647,
      "Ġcrop": 6648,
      "isp": 6649,
      "Ġbal": 6650,
      "Ġbond": 6651,
      "Ġbout": 6652,
      "ashes": 6653,
      "Ġmist": 6654,
      "Ġmess": 6655,
      "Ġmind": 6656,
      "Ġdom": 6657,
      "Ġdating": 6658,
      "Ġhier": 6659,
      "ĠTw": 6660,
      "ĠTar": 6661,
      "ĠTam": 6662,
      "ĠTres": 6663,
      "Ġreasons": 6664,
      "ĠAoT": 6665,
      "ĠCall": 6666,
      "ĠCatal": 6667,
      "Ġnone": 6668,
      "ĠML": 6669,
      "ĠMog": 6670,
      "ĠMah": 6671,
      "ĠBudd": 6672,
      "olution": 6673,
      "ĠISB": 6674,
      "ayan": 6675,
      "ĠHart": 6676,
      "eta": 6677,
      "ĠPapa": 6678,
      "ĠNin": 6679,
      "chang": 6680,
      "emies": 6681,
      "ĠDown": 6682,
      "ĠDick": 6683,
      "ĠFam": 6684,
      "that": 6685,
      "ĠLew": 6686,
      "ĠWomen": 6687,
      "ĠWinds": 6688,
      "ĠWASP": 6689,
      "estival": 6690,
      "agu": 6691,
      "odore": 6692,
      "Ġrat": 6693,
      "Ġrating": 6694,
      "ategy": 6695,
      "iform": 6696,
      "iano": 6697,
      "ĠKou": 6698,
      "ĠKem": 6699,
      "ĠKevin": 6700,
      "Ġvul": 6701,
      "Ġvote": 6702,
      "Ġvirt": 6703,
      "Ġplatin": 6704,
      "Ġplacing": 6705,
      "teenth": 6706,
      "uda": 6707,
      "uded": 6708,
      "Ġexpect": 6709,
      "cles": 6710,
      "ava": 6711,
      "Ġchance": 6712,
      "ĠStory": 6713,
      "ĠStadium": 6714,
      "ishu": 6715,
      "ĠChad": 6716,
      "inea": 6717,
      "Ġyd": 6718,
      "ogs": 6719,
      "Ġcontaining": 6720,
      "Ġintent": 6721,
      "Ġrocks": 6722,
      "Ġagree": 6723,
      "Ġresumed": 6724,
      "Ġcompound": 6725,
      "Ġscream": 6726,
      "Ġscient": 6727,
      "Ġscattered": 6728,
      "achitom": 6729,
      "ralia": 6730,
      "Ġrecru": 6731,
      "Ġjump": 6732,
      "ĠThai": 6733,
      "Ġdisru": 6734,
      "Ġencl": 6735,
      "Ġcommune": 6736,
      "Ġpreced": 6737,
      "Ġremark": 6738,
      "Ġremix": 6739,
      "Ġremember": 6740,
      "Ġinterpre": 6741,
      "Ġdefined": 6742,
      "Ġflights": 6743,
      "Ġspr": 6744,
      "Ġretain": 6745,
      "othing": 6746,
      "Ġassistance": 6747,
      "Ġsubt": 6748,
      "ĠNewman": 6749,
      "Ġfinals": 6750,
      "Ġfourteen": 6751,
      "ĠMarsh": 6752,
      "Ġinvited": 6753,
      "Ġproduct": 6754,
      "Ġproducts": 6755,
      "ĠOnly": 6756,
      "Ġcontinent": 6757,
      "Ġpoll": 6758,
      "Ġsmooth": 6759,
      "Ġquant": 6760,
      "Ġmaintain": 6761,
      "Ġmaintenance": 6762,
      "ĠAnn": 6763,
      "Ġsinging": 6764,
      "Ġreturns": 6765,
      "Ġlands": 6766,
      "Ġinstance": 6767,
      "ĠBeij": 6768,
      "Ġconcrete": 6769,
      "Ġguerr": 6770,
      "Ġprovince": 6771,
      "Ġwindow": 6772,
      "Ġbelt": 6773,
      "Ġsuccessor": 6774,
      "Ġstret": 6775,
      "ĠChristopher": 6776,
      "Ġapproached": 6777,
      "ĠGuinea": 6778,
      "Ġengage": 6779,
      "Ġpossibility": 6780,
      "Ġauth": 6781,
      "Ġsystems": 6782,
      "Ġbattlecru": 6783,
      "inking": 6784,
      "ĠTownship": 6785,
      "Ġoppos": 6786,
      "Ġopposing": 6787,
      "ĠCoast": 6788,
      "Ġvisible": 6789,
      "Ġmyst": 6790,
      "Ġimportance": 6791,
      "Ġbreaking": 6792,
      "Ġglass": 6793,
      "ĠWithin": 6794,
      "Ġavoid": 6795,
      "ĠSlamm": 6796,
      "ĠEliot": 6797,
      "Ġcivilian": 6798,
      "Ġseeing": 6799,
      "Ġpoetic": 6800,
      "Ġcommerce": 6801,
      "Ġtechnical": 6802,
      "ĠAcropolis": 6803,
      "Ġcollaps": 6804,
      "Ġconvicted": 6805,
      "Ġkilome": 6806,
      "ĠHollywood": 6807,
      "Ġdifficulty": 6808,
      "ĠDanube": 6809,
      "Ġrecognised": 6810,
      "Ġcommonly": 6811,
      "Ġlifted": 6812,
      "Ġpenal": 6813,
      "Ġknowledge": 6814,
      "Ġanimal": 6815,
      "Ġintersects": 6816,
      "ĠBuff": 6817,
      "ĠLongacre": 6818,
      "Ġaerial": 6819,
      "ĠSimilar": 6820,
      "ĠPreclassic": 6821,
      "ĠADF": 6822,
      "Ġnomination": 6823,
      "ĠValent": 6824,
      "Ġpalace": 6825,
      "ĠServices": 6826,
      "Ġargues": 6827,
      "Ġmeasure": 6828,
      "Ġrepaired": 6829,
      "Ġrailroad": 6830,
      "Ġcommittee": 6831,
      "Ġachieve": 6832,
      "Ġpowered": 6833,
      "Ġbatteries": 6834,
      "ĠRobinson": 6835,
      "ĠAkron": 6836,
      "Ġtheatre": 6837,
      "Ġattracted": 6838,
      "Ġanalysis": 6839,
      "Ġindependent": 6840,
      "ĠZapotes": 6841,
      "Ġbulk": 6842,
      "Ġcontroversy": 6843,
      "Ġsynthesis": 6844,
      "ĠOlympics": 6845,
      "inema": 6846,
      "Ġelevation": 6847,
      "Ġburned": 6848,
      "Ġrepeated": 6849,
      "ĠBaseball": 6850,
      "ĠRevolution": 6851,
      "ĠTerrit": 6852,
      "Ġsurprise": 6853,
      "ĠSecretary": 6854,
      "Ġethnic": 6855,
      "Ġvicinity": 6856,
      "Ġaggressive": 6857,
      "ĠClaudius": 6858,
      "Ġopportunity": 6859,
      "Ġgirl": 6860,
      "Ġdemonstrated": 6861,
      "Ġrejected": 6862,
      "ĠSoutheast": 6863,
      "ĠCatholic": 6864,
      "ographer": 6865,
      "Ġtetrapods": 6866,
      "Ġwreck": 6867,
      "ĠSunday": 6868,
      "stronom": 6869,
      "Ġbarricades": 6870,
      "ĠCaldwell": 6871,
      "Ġvideos": 6872,
      "Ġfamilies": 6873,
      "ĠAgrippina": 6874,
      "Ġextratropical": 6875,
      "Ġbreech": 6876,
      "veillance": 6877,
      "ĠLuzon": 6878,
      "Ġamateur": 6879,
      "Ġacknow": 6880,
      "ĠISBN": 6881,
      "Aust": 6882,
      "BI": 6883,
      "Mah": 6884,
      "This": 6885,
      "UC": 6886,
      "bell": 6887,
      "col": 6888,
      "come": 6889,
      "flu": 6890,
      "hold": 6891,
      "house": 6892,
      "iosaur": 6893,
      "lar": 6894,
      "mont": 6895,
      "nik": 6896,
      "pur": 6897,
      "pret": 6898,
      "rid": 6899,
      "rich": 6900,
      "rative": 6901,
      "uff": 6902,
      "va": 6903,
      "zy": 6904,
      "Ġic": 6905,
      "inations": 6906,
      "inery": 6907,
      "Ġsle": 6908,
      "eds": 6909,
      "Ġwer": 6910,
      "Ġwal": 6911,
      "atem": 6912,
      "atures": 6913,
      "ora": 6914,
      "itants": 6915,
      "Ġfi": 6916,
      "Ġfou": 6917,
      "Ġfold": 6918,
      "Ġcart": 6919,
      "arn": 6920,
      "any": 6921,
      "isher": 6922,
      "Ġbud": 6923,
      "Ġbrick": 6924,
      "alia": 6925,
      "Ġmisc": 6926,
      "ication": 6927,
      "Ġda": 6928,
      "Ġdur": 6929,
      "Ġdict": 6930,
      "Ġdriving": 6931,
      "Ġhills": 6932,
      "letic": 6933,
      "ĠTAR": 6934,
      "ĠTOT": 6935,
      "Ġrent": 6936,
      "Ġrevers": 6937,
      "ĠSorry": 6938,
      "stri": 6939,
      "ading": 6940,
      "adishu": 6941,
      "Ġlin": 6942,
      "ĠCas": 6943,
      "ĠChi": 6944,
      "ĠCrit": 6945,
      "ĠCelt": 6946,
      "Ġec": 6947,
      "Ġeighth": 6948,
      "omine": 6949,
      "ĠMing": 6950,
      "ĠMont": 6951,
      "ĠBull": 6952,
      "ĠBask": 6953,
      "ols": 6954,
      "Ġgain": 6955,
      "Ġgust": 6956,
      "Ġguil": 6957,
      "othe": 6958,
      "Ġstood": 6959,
      "Ġstyl": 6960,
      "usic": 6961,
      "ĠHud": 6962,
      "ĠHurricane": 6963,
      "ĠRum": 6964,
      "ĠRace": 6965,
      "ĠPit": 6966,
      "ĠNkomo": 6967,
      "Ġconst": 6968,
      "ĠDC": 6969,
      "ĠDun": 6970,
      "Ġwhy": 6971,
      "ĠLiber": 6972,
      "ĠLabyrinthod": 6973,
      "ĠWol": 6974,
      "ĠWels": 6975,
      "ĠJup": 6976,
      "ĠGabbar": 6977,
      "Ġantic": 6978,
      "Ġseas": 6979,
      "iston": 6980,
      "aine": 6981,
      "agon": 6982,
      "ĠEv": 6983,
      "ĠEy": 6984,
      "Ġrid": 6985,
      "Ġracing": 6986,
      "Ġrhy": 6987,
      "ĠKi": 6988,
      "ĠKok": 6989,
      "Ġven": 6990,
      "ockey": 6991,
      "udo": 6992,
      "Ġexcess": 6993,
      "Ġexchange": 6994,
      "class": 6995,
      "astic": 6996,
      "Ġcha": 6997,
      "ptions": 6998,
      "Ġnothing": 6999,
      "Ġarts": 7000,
      "Ġcontent": 7001,
      "ĠVen": 7002,
      "ĠVik": 7003,
      "lower": 7004,
      "Ġpermission": 7005,
      "Ġadmitted": 7006,
      "Ġresour": 7007,
      "Ġscope": 7008,
      "Ġrecre": 7009,
      "Ġjazz": 7010,
      "ĠYunn": 7011,
      "Ġoverw": 7012,
      "Ġoutbreak": 7013,
      "ricts": 7014,
      "Ġwebsite": 7015,
      "nee": 7016,
      "Ġremarked": 7017,
      "ĠUnivers": 7018,
      "Ġinterf": 7019,
      "Ġinterests": 7020,
      "ĠSevent": 7021,
      "angel": 7022,
      "ampa": 7023,
      "Ġfled": 7024,
      "Ġspikes": 7025,
      "Ġcollected": 7026,
      "Ġknots": 7027,
      "Ġrabb": 7028,
      "Ġwarship": 7029,
      "Ġwhereas": 7030,
      "ĠAlan": 7031,
      "Ġsongwrit": 7032,
      "Ġformal": 7033,
      "ĠIndians": 7034,
      "ĠIndigenous": 7035,
      "Ġhighways": 7036,
      "ifications": 7037,
      "everal": 7038,
      "Ġincome": 7039,
      "Ġrepres": 7040,
      "Ġoperates": 7041,
      "embly": 7042,
      "Ġdesignation": 7043,
      "ĠLeg": 7044,
      "Ġsignature": 7045,
      "Ġdidn": 7046,
      "Ġreceive": 7047,
      "Ġnorthward": 7048,
      "Ġcompletion": 7049,
      "Ġpersisted": 7050,
      "ĠBeach": 7051,
      "ĠIsis": 7052,
      "rives": 7053,
      "Ġclasses": 7054,
      "ĠAdam": 7055,
      "Ġbrigade": 7056,
      "Ġrefers": 7057,
      "Ġcourts": 7058,
      "Ġextension": 7059,
      "ĠTele": 7060,
      "Ġtrials": 7061,
      "ĠMcK": 7062,
      "ĠMcMah": 7063,
      "ĠGuatem": 7064,
      "ĠEngine": 7065,
      "Ġdemand": 7066,
      "Ġcris": 7067,
      "Ġcrime": 7068,
      "Ġsket": 7069,
      "Ġstrongest": 7070,
      "Ġgreatly": 7071,
      "ambia": 7072,
      "Ġpropaganda": 7073,
      "Ġmarriage": 7074,
      "Ġpolitics": 7075,
      "Ġtowns": 7076,
      "ĠBurke": 7077,
      "Ġdirectors": 7078,
      "Ġgraves": 7079,
      "ĠAgainst": 7080,
      "Ġvictories": 7081,
      "Ġbaseball": 7082,
      "Ġveget": 7083,
      "ĠParker": 7084,
      "ĠRecording": 7085,
      "ĠBrooke": 7086,
      "Ġrules": 7087,
      "Ġcompeted": 7088,
      "ĠExeter": 7089,
      "ĠHeadquar": 7090,
      "Ġescaped": 7091,
      "Ġmeetings": 7092,
      "Ġsurrounded": 7093,
      "Ġcalm": 7094,
      "Ġcaliber": 7095,
      "Ġdefenders": 7096,
      "ĠKey": 7097,
      "Ġbusinesses": 7098,
      "Ġmotor": 7099,
      "Ġmotif": 7100,
      "Ġcorre": 7101,
      "ĠFilip": 7102,
      "Ġindicating": 7103,
      "Ġexecutive": 7104,
      "Ġpractices": 7105,
      "Ġarchitecture": 7106,
      "Ġtribe": 7107,
      "Ġsatisf": 7108,
      "Ġensure": 7109,
      "Ġliterature": 7110,
      "Ġtargets": 7111,
      "Ġamphibious": 7112,
      "Mania": 7113,
      "Ġcredited": 7114,
      "Ġpowers": 7115,
      "ĠLieber": 7116,
      "ĠErzherzog": 7117,
      "Ġschedule": 7118,
      "Ġdiscussed": 7119,
      "Ġfrequent": 7120,
      "Ġfrequently": 7121,
      "ĠHoward": 7122,
      "ĠPeninsula": 7123,
      "galiths": 7124,
      "Ġflowers": 7125,
      "Ġdegree": 7126,
      "Ġacquired": 7127,
      "Ġpossession": 7128,
      "Ġarchaeological": 7129,
      "ĠHotel": 7130,
      "ĠUpon": 7131,
      "Ġseverely": 7132,
      "ĠOfficer": 7133,
      "ĠInterstate": 7134,
      "Ġtalks": 7135,
      "Ġreactions": 7136,
      "ĠTriple": 7137,
      "Ġlabel": 7138,
      "ĠCambridge": 7139,
      "Ġexplosive": 7140,
      "Ġextremely": 7141,
      "Ġregimental": 7142,
      "Ġprinting": 7143,
      "ĠWatson": 7144,
      "ĠBroadway": 7145,
      "rifice": 7146,
      "Ġunderwent": 7147,
      "ĠAdditionally": 7148,
      "Ġeliminated": 7149,
      "Ġcandidate": 7150,
      "Ġsafe": 7151,
      "Ġmoderate": 7152,
      "Ġbonus": 7153,
      "ĠIrish": 7154,
      "Ġconnection": 7155,
      "Ġconvinced": 7156,
      "Ġtrouble": 7157,
      "Ġtournament": 7158,
      "Ġsomewhat": 7159,
      "ĠCraig": 7160,
      "ĠDouglas": 7161,
      "Ġresidential": 7162,
      "Ġrecommended": 7163,
      "Ġmilitia": 7164,
      "Ġcircumstances": 7165,
      "Ġentitled": 7166,
      "Ġduties": 7167,
      "ĠVenta": 7168,
      "Ġtemporarily": 7169,
      "ĠMLB": 7170,
      "ĠBeijing": 7171,
      "ĠSlammiversary": 7172,
      "ĠBuffalo": 7173,
      "ĠTARDIS": 7174,
      "ĠWelsh": 7175,
      "ĠYunnan": 7176,
      "ĠMcMahon": 7177,
      "HS": 7178,
      "Hg": 7179,
      "Saprang": 7180,
      "cers": 7181,
      "eu": 7182,
      "kins": 7183,
      "lights": 7184,
      "math": 7185,
      "oen": 7186,
      "opp": 7187,
      "oons": 7188,
      "oids": 7189,
      "ply": 7190,
      "rd": 7191,
      "rations": 7192,
      "Ġign": 7193,
      "Ġvel": 7194,
      "Ġtone": 7195,
      "inal": 7196,
      "Ġtheaters": 7197,
      "erc": 7198,
      "eria": 7199,
      "Ġsam": 7200,
      "Ġsid": 7201,
      "Ġsqu": 7202,
      "Ġsell": 7203,
      "Ġstern": 7204,
      "rent": 7205,
      "Ġworth": 7206,
      "Ġwider": 7207,
      "Ġori": 7208,
      "ato": 7209,
      "orian": 7210,
      "Ġfill": 7211,
      "Ġfrog": 7212,
      "Ġcul": 7213,
      "Ġcran": 7214,
      "Ġcouncil": 7215,
      "aro": 7216,
      "arity": 7217,
      "ano": 7218,
      "ingo": 7219,
      "Ġtopped": 7220,
      "Ġmas": 7221,
      "Ġmemor": 7222,
      "Ġdru": 7223,
      "Ġhulls": 7224,
      "ĠTop": 7225,
      "Ġthrow": 7226,
      "ĠSol": 7227,
      "ĠSci": 7228,
      "entially": 7229,
      "stown": 7230,
      "Ġlanes": 7231,
      "ĠCu": 7232,
      "ĠCons": 7233,
      "ĠCena": 7234,
      "ĠCze": 7235,
      "Ġelder": 7236,
      "Ġni": 7237,
      "Ġnick": 7238,
      "amic": 7239,
      "urong": 7240,
      "ĠMi": 7241,
      "ĠMos": 7242,
      "ĠMall": 7243,
      "ĠMess": 7244,
      "ĠBranch": 7245,
      "ĠBosses": 7246,
      "oli": 7247,
      "olitan": 7248,
      "Ġbeauty": 7249,
      "idding": 7250,
      "igration": 7251,
      "oto": 7252,
      "oting": 7253,
      "othes": 7254,
      "utor": 7255,
      "uting": 7256,
      "utation": 7257,
      "ĠIG": 7258,
      "eler": 7259,
      "aylor": 7260,
      "ĠHark": 7261,
      "ĠHospital": 7262,
      "ĠRet": 7263,
      "ĠRud": 7264,
      "ĠPrag": 7265,
      "ĠNu": 7266,
      "ĠNether": 7267,
      "Ġalignment": 7268,
      "ĠDec": 7269,
      "ĠDup": 7270,
      "ĠFring": 7271,
      "rab": 7272,
      "rift": 7273,
      "ĠLin": 7274,
      "ĠLam": 7275,
      "ĠLord": 7276,
      "ĠLog": 7277,
      "ĠLove": 7278,
      "ĠLibrary": 7279,
      "ĠWorks": 7280,
      "ĠJas": 7281,
      "ĠGames": 7282,
      "ĠGreek": 7283,
      "Ġrugby": 7284,
      "ighters": 7285,
      "illas": 7286,
      "ivated": 7287,
      "Ġsuicide": 7288,
      "ĠUP": 7289,
      "ĠKin": 7290,
      "ĠKim": 7291,
      "ĠKut": 7292,
      "ĠKros": 7293,
      "ĠKurst": 7294,
      "Ġvice": 7295,
      "ocity": 7296,
      "uder": 7297,
      "acked": 7298,
      "Ġexternal": 7299,
      "gend": 7300,
      "eared": 7301,
      "asts": 7302,
      "ĠInv": 7303,
      "ĠStansfield": 7304,
      "Ġsharp": 7305,
      "Ġarsenal": 7306,
      "Ġuniform": 7307,
      "onduct": 7308,
      "uez": 7309,
      "ffect": 7310,
      "ĠVol": 7311,
      "ĠVick": 7312,
      "ĠVirgin": 7313,
      "Ġrot": 7314,
      "Ġaground": 7315,
      "Ġagency": 7316,
      "Ġsche": 7317,
      "Ġaftermath": 7318,
      "Ġimplic": 7319,
      "Ġoffers": 7320,
      "ĠThak": 7321,
      "ĠThail": 7322,
      "ounds": 7323,
      "Ġdesert": 7324,
      "Ġdisabled": 7325,
      "Ġenanti": 7326,
      "phant": 7327,
      "lando": 7328,
      "aren": 7329,
      "Ġweig": 7330,
      "Ġweekend": 7331,
      "ĠUnlike": 7332,
      "Ġinterested": 7333,
      "ĠDevelopment": 7334,
      "Ġearning": 7335,
      "Ġairstri": 7336,
      "ĠReview": 7337,
      "Ġassisted": 7338,
      "Ġsupposed": 7339,
      "Ġwarned": 7340,
      "Ġcarriers": 7341,
      "Ġmonsoon": 7342,
      "ĠWarrior": 7343,
      "Ġactual": 7344,
      "Ġlocations": 7345,
      "Ġaccur": 7346,
      "Ġaccus": 7347,
      "Ġincom": 7348,
      "Ġnoise": 7349,
      "Ġtrail": 7350,
      "Ġverse": 7351,
      "Ġdecre": 7352,
      "Ġaddress": 7353,
      "ĠAnand": 7354,
      "Ġdepos": 7355,
      "Ġterror": 7356,
      "Ġleadership": 7357,
      "ĠCommunity": 7358,
      "Ġimpress": 7359,
      "Ġoffices": 7360,
      "ĠPoles": 7361,
      "ĠAugustus": 7362,
      "panied": 7363,
      "ĠBefore": 7364,
      "ĠCarter": 7365,
      "Ġgenera": 7366,
      "Ġprovides": 7367,
      "Ġstrategy": 7368,
      "Ġbridges": 7369,
      "Ġmodified": 7370,
      "ussion": 7371,
      "Ġmusicians": 7372,
      "Ġdescribing": 7373,
      "Ġspecim": 7374,
      "Ġrefere": 7375,
      "Ġcourses": 7376,
      "ĠJohnny": 7377,
      "Ġapproaching": 7378,
      "Ġrestrict": 7379,
      "Ġwestward": 7380,
      "Ġphase": 7381,
      "arring": 7382,
      "Ġdemo": 7383,
      "efe": 7384,
      "Ġcovering": 7385,
      "Ġbegun": 7386,
      "avalry": 7387,
      "autiful": 7388,
      "Ġtwelve": 7389,
      "Ġcombination": 7390,
      "ĠCoach": 7391,
      "ĠSquadrons": 7392,
      "Ġstandards": 7393,
      "ĠOrder": 7394,
      "ĠOrlando": 7395,
      "Ġwilling": 7396,
      "Ġpainted": 7397,
      "Ġcasem": 7398,
      "ĠRussians": 7399,
      "Ġnationalist": 7400,
      "Ġviewers": 7401,
      "ĠAssembly": 7402,
      "Ġelse": 7403,
      "Ġelabor": 7404,
      "Ġtestim": 7405,
      "ĠPeriod": 7406,
      "chers": 7407,
      "Ġtemnospondyl": 7408,
      "ĠPortland": 7409,
      "Ġholds": 7410,
      "Ġfunction": 7411,
      "ĠUnderground": 7412,
      "Ġbombing": 7413,
      "Ġlacked": 7414,
      "Ġpopularity": 7415,
      "Ġcollapse": 7416,
      "Ġsummit": 7417,
      "Ġthreatened": 7418,
      "Ġdefending": 7419,
      "Ġparticipate": 7420,
      "Ġrenov": 7421,
      "Ġmotion": 7422,
      "ĠVictorian": 7423,
      "ĠTrail": 7424,
      "ĠTraining": 7425,
      "ĠTimbal": 7426,
      "Ġcontribution": 7427,
      "Ġclubs": 7428,
      "Ġmassive": 7429,
      "Ġready": 7430,
      "Ġfavorable": 7431,
      "Ġwithdrawn": 7432,
      "Ġsails": 7433,
      "Ġrevolution": 7434,
      "Ġmaterials": 7435,
      "ĠCorporation": 7436,
      "ĠHorus": 7437,
      "Ġargued": 7438,
      "Ġtribute": 7439,
      "Ġsatellite": 7440,
      "Ġapart": 7441,
      "Ġsoutheastern": 7442,
      "Ġloading": 7443,
      "Ġcannon": 7444,
      "Ġcemetery": 7445,
      "Ġsource": 7446,
      "Ġgradually": 7447,
      "Ġaimed": 7448,
      "ĠArchitect": 7449,
      "ĠIndependent": 7450,
      "Ġsecretary": 7451,
      "arthy": 7452,
      "ĠGoat": 7453,
      "Ġfeeling": 7454,
      "Ġtimber": 7455,
      "Ġdetermine": 7456,
      "Ġeasy": 7457,
      "ĠThroughout": 7458,
      "Ġlinked": 7459,
      "Ġchallenge": 7460,
      "Ġdissipating": 7461,
      "Ġgrossing": 7462,
      "Ġconcentrated": 7463,
      "Ġvolunteers": 7464,
      "Ġdigital": 7465,
      "ĠMarcus": 7466,
      "Ġconstantly": 7467,
      "Ġtemperature": 7468,
      "ĠForest": 7469,
      "Ġathlet": 7470,
      "Ġrescue": 7471,
      "Ġfaith": 7472,
      "ĠAuthor": 7473,
      "Ġknocked": 7474,
      "ĠMalaysia": 7475,
      "ĠDomitian": 7476,
      "ĠAborig": 7477,
      "Ġylide": 7478,
      "Ġimprison": 7479,
      "Ġdismissed": 7480,
      "Ġinteg": 7481,
      "ĠFreder": 7482,
      "Ġexclusively": 7483,
      "Ġremoval": 7484,
      "Ġinhabitants": 7485,
      "Ġarranged": 7486,
      "ĠMogadishu": 7487,
      "Ġplatinum": 7488,
      "ĠTerritory": 7489,
      "Ġacknowled": 7490,
      "Ġbudget": 7491,
      "Ġguilty": 7492,
      "Ġrhyth": 7493,
      "Ġoverwhel": 7494,
      "ĠHeadquarters": 7495,
      "ĠCzech": 7496,
      "ĠPrague": 7497,
      "ĠKrosa": 7498,
      "ĠKurstin": 7499,
      "ĠThailand": 7500,
      "ĠTimbaland": 7501,
      "Des": 7502,
      "Down": 7503,
      "FU": 7504,
      "JN": 7505,
      "PU": 7506,
      "Rich": 7507,
      "Two": 7508,
      "Under": 7509,
      "aire": 7510,
      "don": 7511,
      "eed": 7512,
      "had": 7513,
      "iary": 7514,
      "ji": 7515,
      "li": 7516,
      "litz": 7517,
      "mat": 7518,
      "mill": 7519,
      "nest": 7520,
      "power": 7521,
      "rig": 7522,
      "run": 7523,
      "sky": 7524,
      "tical": 7525,
      "town": 7526,
      "vation": 7527,
      "wall": 7528,
      "where": 7529,
      "zer": 7530,
      "Ġtack": 7531,
      "inus": 7532,
      "inyl": 7533,
      "eru": 7534,
      "oni": 7535,
      "ono": 7536,
      "onia": 7537,
      "Ġsi": 7538,
      "Ġsn": 7539,
      "Ġsank": 7540,
      "Ġsoul": 7541,
      "eding": 7542,
      "Ġwo": 7543,
      "orer": 7544,
      "oroph": 7545,
      "itated": 7546,
      "itime": 7547,
      "Ġfly": 7548,
      "Ġfish": 7549,
      "Ġfine": 7550,
      "Ġfault": 7551,
      "Ġfilled": 7552,
      "enz": 7553,
      "encing": 7554,
      "Ġcup": 7555,
      "Ġcitiz": 7556,
      "ario": 7557,
      "ancy": 7558,
      "Ġinland": 7559,
      "ĠinHg": 7560,
      "inger": 7561,
      "ingly": 7562,
      "Ġpu": 7563,
      "Ġpale": 7564,
      "Ġtom": 7565,
      "icit": 7566,
      "icient": 7567,
      "Ġhuge": 7568,
      "lease": 7569,
      "lections": 7570,
      "leMania": 7571,
      "ĠTrib": 7572,
      "ĠTreat": 7573,
      "ĠTaylor": 7574,
      "Ġrework": 7575,
      "Ġthi": 7576,
      "ĠSime": 7577,
      "ĠSuch": 7578,
      "ĠAth": 7579,
      "storm": 7580,
      "Ġlat": 7581,
      "ĠCop": 7582,
      "ĠCoc": 7583,
      "Ġninet": 7584,
      "lyph": 7585,
      "aman": 7586,
      "ĠMem": 7587,
      "ĠMoon": 7588,
      "ĠMumb": 7589,
      "ĠBin": 7590,
      "ĠBri": 7591,
      "ĠBush": 7592,
      "Ġbearing": 7593,
      "idden": 7594,
      "Ġgreen": 7595,
      "Ġgarrison": 7596,
      "igraph": 7597,
      "Ġforb": 7598,
      "otte": 7599,
      "uts": 7600,
      "utral": 7601,
      "ĠIJN": 7602,
      "Ġstay": 7603,
      "Ġstrict": 7604,
      "ĠHi": 7605,
      "ĠHan": 7606,
      "ĠHann": 7607,
      "ĠRom": 7608,
      "ĠRem": 7609,
      "ĠRos": 7610,
      "ĠRandy": 7611,
      "ĠRules": 7612,
      "ĠPan": 7613,
      "ĠPers": 7614,
      "ĠPiz": 7615,
      "ĠPope": 7616,
      "ĠNam": 7617,
      "ĠNet": 7618,
      "cho": 7619,
      "emi": 7620,
      "Ġconclusion": 7621,
      "ĠFalls": 7622,
      "ĠFBI": 7623,
      "thi": 7624,
      "osis": 7625,
      "ĠLi": 7626,
      "ĠLet": 7627,
      "ĠWhe": 7628,
      "ĠWind": 7629,
      "ĠGot": 7630,
      "ĠGuild": 7631,
      "Ġanth": 7632,
      "Ġanger": 7633,
      "Ġansw": 7634,
      "uma": 7635,
      "ersed": 7636,
      "heric": 7637,
      "ager": 7638,
      "ĠEight": 7639,
      "ĠEug": 7640,
      "Ġriding": 7641,
      "illing": 7642,
      "iferous": 7643,
      "Ġproc": 7644,
      "apore": 7645,
      "ĠKal": 7646,
      "ĠKaz": 7647,
      "Ġvent": 7648,
      "Ġvac": 7649,
      "arts": 7650,
      "ustler": 7651,
      "ourse": 7652,
      "ameter": 7653,
      "ĠInstitute": 7654,
      "Ġchannel": 7655,
      "ĠStour": 7656,
      "ĠStyles": 7657,
      "Ġnotably": 7658,
      "ĠChap": 7659,
      "Ġshallow": 7660,
      "Ġunn": 7661,
      "Ġunp": 7662,
      "ogether": 7663,
      "outs": 7664,
      "outing": 7665,
      "ĠVan": 7666,
      "ĠVisc": 7667,
      "Ġroutes": 7668,
      "Ġaged": 7669,
      "Ġagents": 7670,
      "izon": 7671,
      "Ġjury": 7672,
      "Ġpartner": 7673,
      "cluded": 7674,
      "Ġovert": 7675,
      "mann": 7676,
      "Ġenforce": 7677,
      "Ġenergy": 7678,
      "landers": 7679,
      "Ġwealth": 7680,
      "iley": 7681,
      "Ġfiled": 7682,
      "Ġneutral": 7683,
      "Ġinterpret": 7684,
      "Ġallies": 7685,
      "Ġpoison": 7686,
      "ailor": 7687,
      "ĠUSD": 7688,
      "Ġairports": 7689,
      "ĠComp": 7690,
      "Ġcenturies": 7691,
      "Ġassistant": 7692,
      "ologa": 7693,
      "terson": 7694,
      "Ġpeaking": 7695,
      "azon": 7696,
      "rence": 7697,
      "ugu": 7698,
      "ropolitan": 7699,
      "ĠMarie": 7700,
      "ĠZhe": 7701,
      "Ġrelative": 7702,
      "ĠWarren": 7703,
      "Ġprin": 7704,
      "Ġreleases": 7705,
      "ĠShop": 7706,
      "Ġgunfire": 7707,
      "Ġincidents": 7708,
      "Ġsoft": 7709,
      "Ġrepr": 7710,
      "Ġreputation": 7711,
      "Ġoperational": 7712,
      "emble": 7713,
      "Ġcapac": 7714,
      "Ġestate": 7715,
      "Ġblues": 7716,
      "Ġwrites": 7717,
      "Ġminimal": 7718,
      "Ġimple": 7719,
      "Ġimpressed": 7720,
      "Ġappearing": 7721,
      "Ġinstall": 7722,
      "ristol": 7723,
      "ĠCarbon": 7724,
      "ĠConstitution": 7725,
      "rivate": 7726,
      "Ġprovin": 7727,
      "Ġexpans": 7728,
      "Ġexpensive": 7729,
      "Ġportions": 7730,
      "Ġbrut": 7731,
      "Ġwinter": 7732,
      "Ġannually": 7733,
      "Ġtriple": 7734,
      "ĠMcD": 7735,
      "Ġengagement": 7736,
      "Ġposter": 7737,
      "Ġbands": 7738,
      "Ġsimply": 7739,
      "ennis": 7740,
      "arris": 7741,
      "Ġstead": 7742,
      "ĠPlan": 7743,
      "ĠScot": 7744,
      "Ġmarks": 7745,
      "Ġperiods": 7746,
      "Ġpropos": 7747,
      "ĠOrgan": 7748,
      "Ġinfluences": 7749,
      "aulted": 7750,
      "ĠWho": 7751,
      "Ġsurvive": 7752,
      "ĠAgust": 7753,
      "ĠAgency": 7754,
      "bee": 7755,
      "ĠRussia": 7756,
      "Ġputting": 7757,
      "Ġglider": 7758,
      "Ġelite": 7759,
      "Ġtested": 7760,
      "Ġsimilarly": 7761,
      "Ġclearly": 7762,
      "Ġcriticism": 7763,
      "Ġruler": 7764,
      "Ġcharts": 7765,
      "Ġyounger": 7766,
      "ĠPoet": 7767,
      "ĠOlivia": 7768,
      "Ġloose": 7769,
      "suit": 7770,
      "ĠBarrow": 7771,
      "uzov": 7772,
      "ĠLauder": 7773,
      "ĠGlass": 7774,
      "ĠKeith": 7775,
      "Ġrenew": 7776,
      "Ġrecognition": 7777,
      "Ġsolid": 7778,
      "Ġtransported": 7779,
      "Ġengineer": 7780,
      "Ġdrove": 7781,
      "ĠFinal": 7782,
      "ĠPalin": 7783,
      "ocratic": 7784,
      "ĠHMAS": 7785,
      "ĠCharlotte": 7786,
      "Ġweapon": 7787,
      "Ġaccompany": 7788,
      "Ġrevolt": 7789,
      "ĠVienn": 7790,
      "Ġoxy": 7791,
      "Ġoxaziridines": 7792,
      "Ġsequel": 7793,
      "ĠValley": 7794,
      "Ġcopy": 7795,
      "Ġpredecess": 7796,
      "ĠZealanders": 7797,
      "Ġcommitment": 7798,
      "Ġeducational": 7799,
      "ĠQueen": 7800,
      "Ġloaded": 7801,
      "ĠCampbell": 7802,
      "ĠColumbia": 7803,
      "ĠSingapore": 7804,
      "Ġbringing": 7805,
      "Ġheadquartered": 7806,
      "bourne": 7807,
      "Ġharbour": 7808,
      "ĠBhd": 7809,
      "Ġambassador": 7810,
      "Ġgradu": 7811,
      "Ġfunds": 7812,
      "ĠNorway": 7813,
      "Ġessential": 7814,
      "Ġprecise": 7815,
      "Ġearthqu": 7816,
      "Ġindependence": 7817,
      "Ġeasily": 7818,
      "Ġwrestling": 7819,
      "Ġchallenged": 7820,
      "Ġsettled": 7821,
      "Ġsettlers": 7822,
      "Ġcelebr": 7823,
      "Ġtasked": 7824,
      "Ġmobil": 7825,
      "Ġmobile": 7826,
      "ĠZapata": 7827,
      "ĠAyola": 7828,
      "Ġsuitable": 7829,
      "Ġcontroversial": 7830,
      "Ġdissipated": 7831,
      "Ġexcavated": 7832,
      "ĠLowe": 7833,
      "ĠBerlin": 7834,
      "Ġplayoffs": 7835,
      "Ġtonnes": 7836,
      "Ġwatching": 7837,
      "ĠSMS": 7838,
      "Ġnuclear": 7839,
      "ĠIndustry": 7840,
      "Ġdocumentary": 7841,
      "Ġthirty": 7842,
      "ĠShortly": 7843,
      "Ġadministration": 7844,
      "Ġincorpor": 7845,
      "ĠCAT": 7846,
      "Ġfixed": 7847,
      "Ġcorner": 7848,
      "Ġrituals": 7849,
      "ĠChildren": 7850,
      "Ġbenefit": 7851,
      "Ġteachers": 7852,
      "Ġbehavi": 7853,
      "Ġunsuccessful": 7854,
      "Ġenjoyed": 7855,
      "ĠRossen": 7856,
      "Ġcontext": 7857,
      "Ġpremiere": 7858,
      "Ġtorture": 7859,
      "amboo": 7860,
      "Ġisolated": 7861,
      "Ġrisk": 7862,
      "Ġgunboats": 7863,
      "Ġpulled": 7864,
      "Ġnitrogen": 7865,
      "readnought": 7866,
      "Ġcongregation": 7867,
      "Ġarrangement": 7868,
      "Ġaboard": 7869,
      "Ġcomponent": 7870,
      "Ġlandscape": 7871,
      "Ġmerchant": 7872,
      "ĠLewis": 7873,
      "Ġvulner": 7874,
      "Ġvirtually": 7875,
      "Ġpenalty": 7876,
      "ĠJupiter": 7877,
      "Ġanticip": 7878,
      "angelo": 7879,
      "Ġrepresents": 7880,
      "Ġcrisis": 7881,
      "euver": 7882,
      "Ġvelocity": 7883,
      "ĠHarken": 7884,
      "ĠNetherlands": 7885,
      "ĠFringe": 7886,
      "ĠKutuzov": 7887,
      "ĠVickers": 7888,
      "ĠVirginia": 7889,
      "ĠThakur": 7890,
      "Ġathletes": 7891,
      "ĠAborigines": 7892,
      "ĠMumbai": 7893,
      "ĠViscount": 7894,
      "ĠLauderdale": 7895,
      "AX": 7896,
      "All": 7897,
      "Carty": 7898,
      "FL": 7899,
      "Fey": 7900,
      "Gore": 7901,
      "Mc": 7902,
      "Mer": 7903,
      "RE": 7904,
      "Several": 7905,
      "TA": 7906,
      "bed": 7907,
      "ca": 7908,
      "date": 7909,
      "dles": 7910,
      "dden": 7911,
      "gen": 7912,
      "hil": 7913,
      "hist": 7914,
      "iew": 7915,
      "iety": 7916,
      "jan": 7917,
      "los": 7918,
      "mi": 7919,
      "mo": 7920,
      "mian": 7921,
      "mund": 7922,
      "oi": 7923,
      "post": 7924,
      "pson": 7925,
      "uction": 7926,
      "wich": 7927,
      "Ġriv": 7928,
      "Ġtape": 7929,
      "Ġaquatic": 7930,
      "onom": 7931,
      "Ġsaf": 7932,
      "reated": 7933,
      "Ġwr": 7934,
      "Ġod": 7935,
      "Ġow": 7936,
      "aten": 7937,
      "orad": 7938,
      "orters": 7939,
      "itch": 7940,
      "itable": 7941,
      "Ġfur": 7942,
      "Ġfram": 7943,
      "Ġfash": 7944,
      "Ġfasc": 7945,
      "Ġcres": 7946,
      "esp": 7947,
      "aning": 7948,
      "Ġbes": 7949,
      "Ġblow": 7950,
      "Ġbanks": 7951,
      "Ġinning": 7952,
      "Ġpier": 7953,
      "asury": 7954,
      "rot": 7955,
      "Ġmines": 7956,
      "Ġmoon": 7957,
      "icz": 7958,
      "iced": 7959,
      "Ġdim": 7960,
      "Ġhus": 7961,
      "Ġhall": 7962,
      "Ġhung": 7963,
      "lem": 7964,
      "leman": 7965,
      "ĠTondo": 7966,
      "Ġrend": 7967,
      "Ġrevenue": 7968,
      "ĠSour": 7969,
      "ĠAld": 7970,
      "ĠAqu": 7971,
      "ĠAction": 7972,
      "ĠAcc": 7973,
      "ĠAround": 7974,
      "ĠAmy": 7975,
      "stream": 7976,
      "ĠCH": 7977,
      "ĠCam": 7978,
      "ĠCore": 7979,
      "Ġeg": 7980,
      "Ġeve": 7981,
      "Ġnam": 7982,
      "Ġnob": 7983,
      "omax": 7984,
      "Ġwasn": 7985,
      "ĠMur": 7986,
      "ĠMouth": 7987,
      "ĠMov": 7988,
      "ĠMys": 7989,
      "ĠMTV": 7990,
      "ĠBell": 7991,
      "ĠBank": 7992,
      "ĠBelf": 7993,
      "ĠBern": 7994,
      "ĠBening": 7995,
      "ĠBristol": 7996,
      "Ġbeach": 7997,
      "Ġbeats": 7998,
      "irs": 7999
    },
    "merges": [
      [
        "Ġ",
        "t"
      ],
      [
        "h",
        "e"
      ],
      [
        "Ġ",
        "a"
      ],
      [
        "i",
        "n"
      ],
      [
        "Ġt",
        "he"
      ],
      [
        "e",
        "r"
      ],
      [
        "o",
        "n"
      ],
      [
        "Ġ",
        "s"
      ],
      [
        "e",
        "d"
      ],
      [
        "r",
        "e"
      ],
      [
        "Ġ",
        "w"
      ],
      [
        "Ġ",
        "o"
      ],
      [
        "n",
        "d"
      ],
      [
        "a",
        "t"
      ],
      [
        "o",
        "r"
      ],
      [
        "i",
        "t"
      ],
      [
        "Ġ",
        "f"
      ],
      [
        "e",
        "n"
      ],
      [
        "Ġ",
        "c"
      ],
      [
        "e",
        "s"
      ],
      [
        "a",
        "r"
      ],
      [
        "a",
        "n"
      ],
      [
        "Ġo",
        "f"
      ],
      [
        "i",
        "s"
      ],
      [
        "Ġ",
        "b"
      ],
      [
        "Ġ",
        "in"
      ],
      [
        "a",
        "l"
      ],
      [
        "in",
        "g"
      ],
      [
        "Ġ",
        "p"
      ],
      [
        "a",
        "s"
      ],
      [
        "Ġa",
        "nd"
      ],
      [
        "Ġt",
        "o"
      ],
      [
        "r",
        "o"
      ],
      [
        "Ġ",
        "m"
      ],
      [
        "i",
        "c"
      ],
      [
        "Ġ",
        "d"
      ],
      [
        "Ġ",
        "h"
      ],
      [
        "i",
        "on"
      ],
      [
        "o",
        "u"
      ],
      [
        "l",
        "e"
      ],
      [
        "Ġ",
        "T"
      ],
      [
        "Ġ",
        "re"
      ],
      [
        "Ġt",
        "h"
      ],
      [
        "i",
        "l"
      ],
      [
        "Ġ",
        "S"
      ],
      [
        "Ġ",
        "A"
      ],
      [
        "en",
        "t"
      ],
      [
        "s",
        "t"
      ],
      [
        "a",
        "d"
      ],
      [
        "Ġ",
        "l"
      ],
      [
        "Ġ",
        "C"
      ],
      [
        "Ġ",
        "e"
      ],
      [
        "Ġ",
        "n"
      ],
      [
        "a",
        "c"
      ],
      [
        "l",
        "y"
      ],
      [
        "a",
        "m"
      ],
      [
        "o",
        "m"
      ],
      [
        "Ġw",
        "as"
      ],
      [
        "u",
        "r"
      ],
      [
        "Ġ",
        "M"
      ],
      [
        "Ġ",
        "B"
      ],
      [
        "Ġ",
        "on"
      ],
      [
        "o",
        "l"
      ],
      [
        "Ġb",
        "e"
      ],
      [
        "i",
        "r"
      ],
      [
        "i",
        "d"
      ],
      [
        "Ġ",
        "g"
      ],
      [
        "v",
        "e"
      ],
      [
        "i",
        "g"
      ],
      [
        "i",
        "m"
      ],
      [
        "t",
        "er"
      ],
      [
        "Ġf",
        "or"
      ],
      [
        "c",
        "t"
      ],
      [
        "ĠT",
        "he"
      ],
      [
        "o",
        "t"
      ],
      [
        "v",
        "er"
      ],
      [
        "u",
        "t"
      ],
      [
        "Ġ",
        "I"
      ],
      [
        "Ġa",
        "s"
      ],
      [
        "Ġs",
        "t"
      ],
      [
        "o",
        "w"
      ],
      [
        "it",
        "h"
      ],
      [
        "e",
        "l"
      ],
      [
        "u",
        "s"
      ],
      [
        "a",
        "y"
      ],
      [
        "Ġ",
        "H"
      ],
      [
        "e",
        "t"
      ],
      [
        "c",
        "e"
      ],
      [
        "Ġ",
        "he"
      ],
      [
        "at",
        "ion"
      ],
      [
        "Ġw",
        "ith"
      ],
      [
        "Ġ",
        "R"
      ],
      [
        "Ġ",
        "P"
      ],
      [
        "u",
        "n"
      ],
      [
        "Ġ",
        "N"
      ],
      [
        "c",
        "h"
      ],
      [
        "Ġth",
        "at"
      ],
      [
        "u",
        "l"
      ],
      [
        "Ġa",
        "t"
      ],
      [
        "Ġa",
        "l"
      ],
      [
        "Ġb",
        "y"
      ],
      [
        "e",
        "m"
      ],
      [
        "Ġc",
        "on"
      ],
      [
        "Ġ",
        "D"
      ],
      [
        "Ġw",
        "h"
      ],
      [
        "Ġ",
        "F"
      ],
      [
        "t",
        "h"
      ],
      [
        "o",
        "s"
      ],
      [
        "r",
        "a"
      ],
      [
        "r",
        "i"
      ],
      [
        "Ġ",
        "is"
      ],
      [
        "Ġ",
        "L"
      ],
      [
        "Ġ",
        "W"
      ],
      [
        "Ġd",
        "e"
      ],
      [
        "a",
        "nd"
      ],
      [
        "Ġ",
        "J"
      ],
      [
        "Ġ",
        "G"
      ],
      [
        "Ġa",
        "n"
      ],
      [
        "Ġs",
        "e"
      ],
      [
        "ro",
        "m"
      ],
      [
        "Ġ",
        "it"
      ],
      [
        "er",
        "e"
      ],
      [
        "is",
        "t"
      ],
      [
        "u",
        "m"
      ],
      [
        "a",
        "in"
      ],
      [
        "er",
        "s"
      ],
      [
        "he",
        "r"
      ],
      [
        "es",
        "t"
      ],
      [
        "a",
        "g"
      ],
      [
        "Ġw",
        "ere"
      ],
      [
        "p",
        "p"
      ],
      [
        "o",
        "d"
      ],
      [
        "Ġ",
        "E"
      ],
      [
        "Ġf",
        "rom"
      ],
      [
        "or",
        "t"
      ],
      [
        "Ġc",
        "om"
      ],
      [
        "re",
        "s"
      ],
      [
        "Ġ",
        "r"
      ],
      [
        "at",
        "e"
      ],
      [
        "Ġh",
        "is"
      ],
      [
        "ig",
        "h"
      ],
      [
        "il",
        "l"
      ],
      [
        "o",
        "p"
      ],
      [
        "i",
        "v"
      ],
      [
        "Ġs",
        "u"
      ],
      [
        "Ġ",
        "O"
      ],
      [
        "b",
        "er"
      ],
      [
        "i",
        "f"
      ],
      [
        "on",
        "g"
      ],
      [
        "l",
        "d"
      ],
      [
        "ic",
        "h"
      ],
      [
        "Ġp",
        "ro"
      ],
      [
        "o",
        "re"
      ],
      [
        "i",
        "an"
      ],
      [
        "e",
        "w"
      ],
      [
        "a",
        "k"
      ],
      [
        "i",
        "es"
      ],
      [
        "Ġ",
        "U"
      ],
      [
        "al",
        "l"
      ],
      [
        "a",
        "p"
      ],
      [
        "Ġ",
        "K"
      ],
      [
        "at",
        "ed"
      ],
      [
        "ro",
        "u"
      ],
      [
        "s",
        "e"
      ],
      [
        "q",
        "u"
      ],
      [
        "it",
        "y"
      ],
      [
        "Ġ",
        "v"
      ],
      [
        "o",
        "c"
      ],
      [
        "ar",
        "t"
      ],
      [
        "h",
        "i"
      ],
      [
        "Ġp",
        "l"
      ],
      [
        "ar",
        "d"
      ],
      [
        "g",
        "h"
      ],
      [
        "t",
        "e"
      ],
      [
        "i",
        "ve"
      ],
      [
        "Ġh",
        "ad"
      ],
      [
        "an",
        "t"
      ],
      [
        "u",
        "d"
      ],
      [
        "u",
        "st"
      ],
      [
        "Ġo",
        "r"
      ],
      [
        "ac",
        "k"
      ],
      [
        "Ġe",
        "x"
      ],
      [
        "m",
        "ent"
      ],
      [
        "ou",
        "r"
      ],
      [
        "g",
        "e"
      ],
      [
        "e",
        "ar"
      ],
      [
        "c",
        "l"
      ],
      [
        "a",
        "b"
      ],
      [
        "Ġ",
        "k"
      ],
      [
        "am",
        "e"
      ],
      [
        "es",
        "s"
      ],
      [
        "a",
        "v"
      ],
      [
        "p",
        "e"
      ],
      [
        "Ġwh",
        "ich"
      ],
      [
        "as",
        "t"
      ],
      [
        "ĠI",
        "n"
      ],
      [
        "Ġa",
        "re"
      ],
      [
        "igh",
        "t"
      ],
      [
        "Ġc",
        "h"
      ],
      [
        "i",
        "al"
      ],
      [
        "ĠS",
        "t"
      ],
      [
        "o",
        "st"
      ],
      [
        "p",
        "t"
      ],
      [
        "Ġ",
        "u"
      ],
      [
        "Ġn",
        "ot"
      ],
      [
        "is",
        "h"
      ],
      [
        "ĠC",
        "h"
      ],
      [
        "r",
        "it"
      ],
      [
        "ar",
        "y"
      ],
      [
        "Ġs",
        "h"
      ],
      [
        "in",
        "e"
      ],
      [
        "i",
        "a"
      ],
      [
        "Ġa",
        "r"
      ],
      [
        "or",
        "d"
      ],
      [
        "n",
        "t"
      ],
      [
        "r",
        "u"
      ],
      [
        "Ġ",
        "le"
      ],
      [
        "t",
        "her"
      ],
      [
        "ct",
        "ion"
      ],
      [
        "Ġ",
        "y"
      ],
      [
        "Ġ",
        "un"
      ],
      [
        "o",
        "g"
      ],
      [
        "f",
        "ter"
      ],
      [
        "a",
        "ve"
      ],
      [
        "id",
        "e"
      ],
      [
        "as",
        "s"
      ],
      [
        "on",
        "d"
      ],
      [
        "s",
        "o"
      ],
      [
        "r",
        "y"
      ],
      [
        "ĠH",
        "e"
      ],
      [
        "ic",
        "al"
      ],
      [
        "p",
        "er"
      ],
      [
        "w",
        "o"
      ],
      [
        "el",
        "l"
      ],
      [
        "ig",
        "n"
      ],
      [
        "Ġthe",
        "ir"
      ],
      [
        "p",
        "l"
      ],
      [
        "Ġf",
        "ir"
      ],
      [
        "ou",
        "ld"
      ],
      [
        "Ġcon",
        "t"
      ],
      [
        "T",
        "he"
      ],
      [
        "c",
        "c"
      ],
      [
        "ow",
        "n"
      ],
      [
        "Ġin",
        "t"
      ],
      [
        "ou",
        "t"
      ],
      [
        "ou",
        "s"
      ],
      [
        "u",
        "e"
      ],
      [
        "f",
        "f"
      ],
      [
        "Ġ",
        "V"
      ],
      [
        "Ġal",
        "so"
      ],
      [
        "Ġb",
        "ut"
      ],
      [
        "om",
        "e"
      ],
      [
        "m",
        "er"
      ],
      [
        "u",
        "re"
      ],
      [
        "it",
        "ion"
      ],
      [
        "l",
        "ow"
      ],
      [
        "im",
        "e"
      ],
      [
        "Ġit",
        "s"
      ],
      [
        "i",
        "e"
      ],
      [
        "or",
        "k"
      ],
      [
        "r",
        "an"
      ],
      [
        "Ġw",
        "he"
      ],
      [
        "hi",
        "p"
      ],
      [
        "Ġc",
        "l"
      ],
      [
        "re",
        "e"
      ],
      [
        "or",
        "m"
      ],
      [
        "Ġfir",
        "st"
      ],
      [
        "Ġ",
        "ro"
      ],
      [
        "Ġa",
        "b"
      ],
      [
        "Ġp",
        "er"
      ],
      [
        "Ġa",
        "g"
      ],
      [
        "o",
        "k"
      ],
      [
        "he",
        "d"
      ],
      [
        "Ġon",
        "e"
      ],
      [
        "ur",
        "ing"
      ],
      [
        "t",
        "ed"
      ],
      [
        "Ġa",
        "d"
      ],
      [
        "at",
        "er"
      ],
      [
        "v",
        "ed"
      ],
      [
        "Ġre",
        "s"
      ],
      [
        "ag",
        "e"
      ],
      [
        "Ġt",
        "wo"
      ],
      [
        "i",
        "re"
      ],
      [
        "Ġbe",
        "en"
      ],
      [
        "Ġ",
        "us"
      ],
      [
        "Ġcom",
        "p"
      ],
      [
        "Ġs",
        "c"
      ],
      [
        "ac",
        "h"
      ],
      [
        "en",
        "s"
      ],
      [
        "Ġh",
        "as"
      ],
      [
        "Ġh",
        "ave"
      ],
      [
        "r",
        "al"
      ],
      [
        "Ġt",
        "e"
      ],
      [
        "k",
        "e"
      ],
      [
        "u",
        "b"
      ],
      [
        "Ġre",
        "c"
      ],
      [
        "Ġa",
        "fter"
      ],
      [
        "i",
        "z"
      ],
      [
        "ou",
        "gh"
      ],
      [
        "en",
        "ce"
      ],
      [
        "o",
        "ver"
      ],
      [
        "nd",
        "er"
      ],
      [
        "Ġ",
        "j"
      ],
      [
        "Ġp",
        "art"
      ],
      [
        "cl",
        "ud"
      ],
      [
        "al",
        "ly"
      ],
      [
        "ul",
        "t"
      ],
      [
        "Ġ",
        "im"
      ],
      [
        "Ġ",
        "Y"
      ],
      [
        "Ġof",
        "f"
      ],
      [
        "an",
        "ce"
      ],
      [
        "n",
        "g"
      ],
      [
        "e",
        "ct"
      ],
      [
        "Ġo",
        "ver"
      ],
      [
        "Ġat",
        "t"
      ],
      [
        "a",
        "w"
      ],
      [
        "Ġth",
        "is"
      ],
      [
        "ĠI",
        "t"
      ],
      [
        "at",
        "t"
      ],
      [
        "ĠT",
        "h"
      ],
      [
        "m",
        "an"
      ],
      [
        "r",
        "on"
      ],
      [
        "ou",
        "nd"
      ],
      [
        "Ġhe",
        "r"
      ],
      [
        "Ġwh",
        "o"
      ],
      [
        "Ġd",
        "es"
      ],
      [
        "Ġd",
        "is"
      ],
      [
        "Ġa",
        "pp"
      ],
      [
        "Ġ",
        "en"
      ],
      [
        "ou",
        "nt"
      ],
      [
        "Ġbe",
        "c"
      ],
      [
        "ar",
        "k"
      ],
      [
        "ation",
        "s"
      ],
      [
        "ac",
        "e"
      ],
      [
        "p",
        "ort"
      ],
      [
        "ad",
        "e"
      ],
      [
        "Ġthe",
        "y"
      ],
      [
        "rou",
        "nd"
      ],
      [
        "c",
        "es"
      ],
      [
        "res",
        "s"
      ],
      [
        "Ġo",
        "ut"
      ],
      [
        "p",
        "h"
      ],
      [
        "in",
        "d"
      ],
      [
        "l",
        "and"
      ],
      [
        "ur",
        "n"
      ],
      [
        "Ġin",
        "clud"
      ],
      [
        "Ġcom",
        "m"
      ],
      [
        "l",
        "l"
      ],
      [
        "w",
        "ard"
      ],
      [
        "or",
        "th"
      ],
      [
        "Ġm",
        "an"
      ],
      [
        "Ġt",
        "ime"
      ],
      [
        "ac",
        "t"
      ],
      [
        "rou",
        "gh"
      ],
      [
        "e",
        "c"
      ],
      [
        "Ġs",
        "er"
      ],
      [
        "ic",
        "e"
      ],
      [
        "ion",
        "s"
      ],
      [
        "Ġpl",
        "ay"
      ],
      [
        "Ġe",
        "v"
      ],
      [
        "a",
        "re"
      ],
      [
        "os",
        "e"
      ],
      [
        "Ġint",
        "o"
      ],
      [
        "c",
        "ed"
      ],
      [
        "i",
        "ed"
      ],
      [
        "is",
        "s"
      ],
      [
        "f",
        "t"
      ],
      [
        "o",
        "ve"
      ],
      [
        "d",
        "u"
      ],
      [
        "Ġu",
        "p"
      ],
      [
        "Ġy",
        "ear"
      ],
      [
        "r",
        "ic"
      ],
      [
        "in",
        "t"
      ],
      [
        "Ġw",
        "e"
      ],
      [
        "i",
        "le"
      ],
      [
        "i",
        "b"
      ],
      [
        "w",
        "e"
      ],
      [
        "Ġp",
        "re"
      ],
      [
        "n",
        "e"
      ],
      [
        "ol",
        "d"
      ],
      [
        "Ġo",
        "ther"
      ],
      [
        "Ġre",
        "m"
      ],
      [
        "ĠU",
        "n"
      ],
      [
        "ou",
        "th"
      ],
      [
        "Ġf",
        "il"
      ],
      [
        "v",
        "i"
      ],
      [
        "it",
        "ed"
      ],
      [
        "it",
        "e"
      ],
      [
        "ĠA",
        "ust"
      ],
      [
        "Ġn",
        "e"
      ],
      [
        "Ġw",
        "ould"
      ],
      [
        "Ġin",
        "ter"
      ],
      [
        "Ġd",
        "uring"
      ],
      [
        "l",
        "es"
      ],
      [
        "as",
        "ed"
      ],
      [
        "Ġm",
        "ore"
      ],
      [
        "Ġh",
        "im"
      ],
      [
        "Ġal",
        "l"
      ],
      [
        "g",
        "an"
      ],
      [
        "on",
        "e"
      ],
      [
        "or",
        "y"
      ],
      [
        "Ġag",
        "ain"
      ],
      [
        "or",
        "s"
      ],
      [
        "at",
        "es"
      ],
      [
        "Ġse",
        "c"
      ],
      [
        "on",
        "s"
      ],
      [
        "ĠS",
        "e"
      ],
      [
        "s",
        "s"
      ],
      [
        "w",
        "ay"
      ],
      [
        "in",
        "es"
      ],
      [
        "an",
        "g"
      ],
      [
        "er",
        "ed"
      ],
      [
        "am",
        "p"
      ],
      [
        "ĠD",
        "e"
      ],
      [
        "o",
        "y"
      ],
      [
        "Ġfil",
        "m"
      ],
      [
        "Ġp",
        "o"
      ],
      [
        "Ġe",
        "ar"
      ],
      [
        "ve",
        "l"
      ],
      [
        "f",
        "orm"
      ],
      [
        "as",
        "e"
      ],
      [
        "ĠA",
        "r"
      ],
      [
        "i",
        "ver"
      ],
      [
        "Ġs",
        "he"
      ],
      [
        "ĠB",
        "rit"
      ],
      [
        "Ġthe",
        "m"
      ],
      [
        "Ġcon",
        "s"
      ],
      [
        "ol",
        "low"
      ],
      [
        "Ġde",
        "f"
      ],
      [
        "u",
        "il"
      ],
      [
        "ent",
        "s"
      ],
      [
        "a",
        "il"
      ],
      [
        "Ġs",
        "pe"
      ],
      [
        "n",
        "ing"
      ],
      [
        "Ġu",
        "nder"
      ],
      [
        "Ġc",
        "o"
      ],
      [
        "Ġth",
        "ree"
      ],
      [
        "Ġw",
        "ork"
      ],
      [
        "Ġf",
        "l"
      ],
      [
        "Ġon",
        "ly"
      ],
      [
        "f",
        "er"
      ],
      [
        "ic",
        "an"
      ],
      [
        "ab",
        "le"
      ],
      [
        "t",
        "s"
      ],
      [
        "Ġm",
        "ost"
      ],
      [
        "Ġs",
        "p"
      ],
      [
        "ĠU",
        "S"
      ],
      [
        "Ġa",
        "ir"
      ],
      [
        "ri",
        "b"
      ],
      [
        "ĠR",
        "e"
      ],
      [
        "Ġp",
        "os"
      ],
      [
        "k",
        "s"
      ],
      [
        "Ġbe",
        "t"
      ],
      [
        "w",
        "n"
      ],
      [
        "re",
        "at"
      ],
      [
        "ĠC",
        "om"
      ],
      [
        "is",
        "ion"
      ],
      [
        "i",
        "p"
      ],
      [
        "as",
        "on"
      ],
      [
        "ĠA",
        "mer"
      ],
      [
        "Ġre",
        "t"
      ],
      [
        "Ġf",
        "e"
      ],
      [
        "ot",
        "h"
      ],
      [
        "r",
        "ed"
      ],
      [
        "Ġc",
        "ent"
      ],
      [
        "Ġas",
        "s"
      ],
      [
        "ation",
        "al"
      ],
      [
        "Ġe",
        "nd"
      ],
      [
        "Ġn",
        "um"
      ],
      [
        "ĠAust",
        "ral"
      ],
      [
        "Ġn",
        "ew"
      ],
      [
        "ter",
        "n"
      ],
      [
        "Ġsu",
        "b"
      ],
      [
        "ĠN",
        "ew"
      ],
      [
        "ub",
        "l"
      ],
      [
        "Ġf",
        "in"
      ],
      [
        "ol",
        "og"
      ],
      [
        "o",
        "b"
      ],
      [
        "Ġre",
        "g"
      ],
      [
        "Ġwhe",
        "n"
      ],
      [
        "ic",
        "k"
      ],
      [
        "ing",
        "s"
      ],
      [
        "ct",
        "ed"
      ],
      [
        "ter",
        "s"
      ],
      [
        "Ġth",
        "rough"
      ],
      [
        "o",
        "od"
      ],
      [
        "Ġab",
        "out"
      ],
      [
        "f",
        "ore"
      ],
      [
        "Ġc",
        "ol"
      ],
      [
        "Ġhe",
        "ad"
      ],
      [
        "Ġk",
        "n"
      ],
      [
        "we",
        "en"
      ],
      [
        "Ġm",
        "e"
      ],
      [
        "a",
        "us"
      ],
      [
        "Ġp",
        "e"
      ],
      [
        "Ġd",
        "ay"
      ],
      [
        "a",
        "z"
      ],
      [
        "ic",
        "t"
      ],
      [
        "u",
        "al"
      ],
      [
        "Ġ",
        "ra"
      ],
      [
        "re",
        "n"
      ],
      [
        "i",
        "x"
      ],
      [
        "Ġf",
        "our"
      ],
      [
        "an",
        "s"
      ],
      [
        "m",
        "ber"
      ],
      [
        "Ġl",
        "ater"
      ],
      [
        "Ġt",
        "r"
      ],
      [
        "I",
        "n"
      ],
      [
        "e",
        "nd"
      ],
      [
        "u",
        "g"
      ],
      [
        "at",
        "ing"
      ],
      [
        "ro",
        "p"
      ],
      [
        "Ġwh",
        "ile"
      ],
      [
        "ak",
        "e"
      ],
      [
        "en",
        "er"
      ],
      [
        "ĠM",
        "ar"
      ],
      [
        "Ġsu",
        "pp"
      ],
      [
        "a",
        "j"
      ],
      [
        "i",
        "o"
      ],
      [
        "em",
        "ber"
      ],
      [
        "Ġ",
        "Z"
      ],
      [
        "Ġf",
        "ollow"
      ],
      [
        "ĠG",
        "er"
      ],
      [
        "Ġa",
        "m"
      ],
      [
        "Ġs",
        "ome"
      ],
      [
        "Ġs",
        "hip"
      ],
      [
        "Ġw",
        "ar"
      ],
      [
        "Ġin",
        "v"
      ],
      [
        "Ġwhe",
        "re"
      ],
      [
        "Ġte",
        "am"
      ],
      [
        "Ġc",
        "ar"
      ],
      [
        "Ġre",
        "l"
      ],
      [
        "it",
        "ies"
      ],
      [
        "Ġm",
        "on"
      ],
      [
        "ĠA",
        "l"
      ],
      [
        "Ġl",
        "ar"
      ],
      [
        "i",
        "ke"
      ],
      [
        "Ġb",
        "uil"
      ],
      [
        "b",
        "um"
      ],
      [
        "Ġm",
        "ade"
      ],
      [
        "c",
        "k"
      ],
      [
        "Ġs",
        "ong"
      ],
      [
        "ĠBrit",
        "ish"
      ],
      [
        "Ġbet",
        "ween"
      ],
      [
        "t",
        "he"
      ],
      [
        "Ġs",
        "ur"
      ],
      [
        "Ġfor",
        "m"
      ],
      [
        "oc",
        "k"
      ],
      [
        "Ġth",
        "an"
      ],
      [
        "Ġse",
        "ver"
      ],
      [
        "a",
        "id"
      ],
      [
        "c",
        "i"
      ],
      [
        "ĠI",
        "nd"
      ],
      [
        "ĠW",
        "ar"
      ],
      [
        "Ġar",
        "m"
      ],
      [
        "Ġa",
        "ct"
      ],
      [
        "over",
        "n"
      ],
      [
        "Ġp",
        "r"
      ],
      [
        "Ġbe",
        "fore"
      ],
      [
        "Ġpro",
        "du"
      ],
      [
        "Ġse",
        "ason"
      ],
      [
        "ĠGer",
        "man"
      ],
      [
        "o",
        "ok"
      ],
      [
        "Ġnum",
        "ber"
      ],
      [
        "Ġbe",
        "ing"
      ],
      [
        "Ġrec",
        "ord"
      ],
      [
        "Ġsec",
        "ond"
      ],
      [
        "i",
        "k"
      ],
      [
        "ĠO",
        "n"
      ],
      [
        "l",
        "s"
      ],
      [
        "Ġc",
        "ity"
      ],
      [
        "Ġh",
        "igh"
      ],
      [
        "ain",
        "ed"
      ],
[...]
